{
  "version": "1.0",
  "truncation": null,
  "padding": null,
  "added_tokens": [
    {
      "id": 0,
      "content": "[UNK]",
      "single_word": false,
      "lstrip": false,
      "rstrip": false,
      "normalized": false,
      "special": true
    }
  ],
  "normalizer": null,
  "pre_tokenizer": {
    "type": "ByteLevel",
    "add_prefix_space": true,
    "trim_offsets": true,
    "use_regex": true
  },
  "post_processor": {
    "type": "ByteLevel",
    "add_prefix_space": true,
    "trim_offsets": true,
    "use_regex": true
  },
  "decoder": {
    "type": "ByteLevel",
    "add_prefix_space": true,
    "trim_offsets": true,
    "use_regex": true
  },
  "model": {
    "type": "BPE",
    "dropout": null,
    "unk_token": "[UNK]",
    "continuing_subword_prefix": null,
    "end_of_word_suffix": null,
    "fuse_unk": false,
    "byte_fallback": false,
    "ignore_merges": false,
    "vocab": {
      "[UNK]": 0,
      "!": 1,
      "\"": 2,
      "$": 3,
      "%": 4,
      "&": 5,
      "'": 6,
      "(": 7,
      ")": 8,
      ",": 9,
      "-": 10,
      ".": 11,
      "/": 12,
      "0": 13,
      "1": 14,
      "2": 15,
      "3": 16,
      "4": 17,
      "5": 18,
      "6": 19,
      "7": 20,
      "8": 21,
      "9": 22,
      ":": 23,
      ";": 24,
      "?": 25,
      "@": 26,
      "A": 27,
      "B": 28,
      "C": 29,
      "D": 30,
      "E": 31,
      "F": 32,
      "G": 33,
      "H": 34,
      "I": 35,
      "J": 36,
      "K": 37,
      "L": 38,
      "M": 39,
      "N": 40,
      "O": 41,
      "P": 42,
      "Q": 43,
      "R": 44,
      "S": 45,
      "T": 46,
      "U": 47,
      "V": 48,
      "W": 49,
      "X": 50,
      "Y": 51,
      "Z": 52,
      "a": 53,
      "b": 54,
      "c": 55,
      "d": 56,
      "e": 57,
      "f": 58,
      "g": 59,
      "h": 60,
      "i": 61,
      "j": 62,
      "k": 63,
      "l": 64,
      "m": 65,
      "n": 66,
      "o": 67,
      "p": 68,
      "q": 69,
      "r": 70,
      "s": 71,
      "t": 72,
      "u": 73,
      "v": 74,
      "w": 75,
      "x": 76,
      "y": 77,
      "z": 78,
      "¡": 79,
      "¢": 80,
      "¦": 81,
      "§": 82,
      "¨": 83,
      "©": 84,
      "ª": 85,
      "«": 86,
      "®": 87,
      "¯": 88,
      "´": 89,
      "¹": 90,
      "»": 91,
      "½": 92,
      "Â": 93,
      "Ã": 94,
      "Å": 95,
      "â": 96,
      "Ċ": 97,
      "Ġ": 98,
      "Ģ": 99,
      "Ĥ": 100,
      "ĥ": 101,
      "ĩ": 102,
      "ī": 103,
      "Ĭ": 104,
      "ĭ": 105,
      "ĵ": 106,
      "Ķ": 107,
      "Ļ": 108,
      "ľ": 109,
      "Ŀ": 110,
      "ł": 111,
      "Ń": 112,
      "Ġt": 113,
      "ou": 114,
      "Ġa": 115,
      "re": 116,
      "Ġd": 117,
      "Ġp": 118,
      "Ġs": 119,
      "es": 120,
      "Ġl": 121,
      "en": 122,
      "on": 123,
      "is": 124,
      "in": 125,
      "he": 126,
      "Ġc": 127,
      "Ġm": 128,
      "Ã©": 129,
      "er": 130,
      "an": 131,
      "ĠI": 132,
      "it": 133,
      "Ġn": 134,
      "Ġw": 135,
      "Ġf": 136,
      "om": 137,
      "as": 138,
      "qu": 139,
      "Ġb": 140,
      "ll": 141,
      "ĠT": 142,
      "at": 143,
      "Ġde": 144,
      "ar": 145,
      "Ġv": 146,
      "Ġh": 147,
      "Ġy": 148,
      "or": 149,
      "Ġto": 150,
      "Ġqu": 151,
      "ĠJ": 152,
      "ent": 153,
      "Ġthe": 154,
      "Ġyou": 155,
      "ve": 156,
      "ous": 157,
      "un": 158,
      "ai": 159,
      "est": 160,
      "le": 161,
      "ing": 162,
      "ĠÃ": 163,
      "et": 164,
      "Ġg": 165,
      "Ġth": 166,
      "us": 167,
      "ed": 168,
      "Ġpas": 169,
      "ais": 170,
      "ĠJe": 171,
      "Ġun": 172,
      "Ġo": 173,
      "Ġj": 174,
      "ot": 175,
      "Ġ?": 176,
      "Ġque": 177,
      "eu": 178,
      "Ġne": 179,
      "ĠTom": 180,
      "os": 181,
      "our": 182,
      "ri": 183,
      "Ġle": 184,
      "Ġla": 185,
      "te": 186,
      "il": 187,
      "Ġre": 188,
      "Ġin": 189,
      "Ġis": 190,
      "ĠÃł": 191,
      "oi": 192,
      "ant": 193,
      "ait": 194,
      "ce": 195,
      "Ġhe": 196,
      "Ġme": 197,
      "ro": 198,
      "im": 199,
      "Ġsu": 200,
      "lle": 201,
      "Ġe": 202,
      "ĠC": 203,
      "'t": 204,
      "Ġbe": 205,
      "Ġen": 206,
      "Ã¨": 207,
      "ĠL": 208,
      "Ġan": 209,
      "Ġest": 210,
      "Ġof": 211,
      "id": 212,
      "ion": 213,
      "ap": 214,
      "ĠW": 215,
      "ut": 216,
      "ay": 217,
      "ow": 218,
      "ĠS": 219,
      "ĠIl": 220,
      "Ġdo": 221,
      "al": 222,
      "ĠH": 223,
      "ic": 224,
      "Ġtr": 225,
      "out": 226,
      "Ã©t": 227,
      "Ġha": 228,
      "Ġch": 229,
      "me": 230,
      "ĠM": 231,
      "se": 232,
      "ĠE": 233,
      "ĠThe": 234,
      "Ġon": 235,
      "ment": 236,
      "Ġr": 237,
      "ch": 238,
      "Ġli": 239,
      "Ġ.": 240,
      "ver": 241,
      "Ġse": 242,
      "Ġpl": 243,
      "'s": 244,
      "ir": 245,
      "ain": 246,
      "ĠN": 247,
      "ĠA": 248,
      "ke": 249,
      "ie": 250,
      "Ġce": 251,
      "ld": 252,
      "Ġcom": 253,
      "Ġte": 254,
      "Ġpar": 255,
      "Ġthat": 256,
      "ag": 257,
      "ĠD": 258,
      "au": 259,
      "Ġfor": 260,
      "res": 261,
      "am": 262,
      "ĠY": 263,
      "ont": 264,
      "Ġvous": 265,
      "hat": 266,
      "oo": 267,
      "ons": 268,
      "Ġwas": 269,
      "Ġles": 270,
      "ac": 271,
      "Ġune": 272,
      "ter": 273,
      "and": 274,
      "ĠP": 275,
      "ad": 276,
      "Ġit": 277,
      "ren": 278,
      "Ġje": 279,
      "tu": 280,
      "ĠHe": 281,
      "Ġnot": 282,
      "Ġhave": 283,
      "eux": 284,
      "ill": 285,
      "ĠYou": 286,
      "ans": 287,
      "gh": 288,
      "av": 289,
      "Ġk": 290,
      "ne": 291,
      "Ġwe": 292,
      "Ġpour": 293,
      "ur": 294,
      "end": 295,
      "Ġas": 296,
      "ĠÃ©t": 297,
      "her": 298,
      "ble": 299,
      "Ãª": 300,
      "Ġpr": 301,
      "ien": 302,
      "Ġau": 303,
      "Ġdon": 304,
      "Ġyour": 305,
      "pe": 306,
      "ĠdÃ©": 307,
      "aire": 308,
      "ol": 309,
      "Ġ!": 310,
      "ang": 311,
      "ly": 312,
      "Ġst": 313,
      "que": 314,
      "Ã©e": 315,
      "Ġall": 316,
      "ore": 317,
      "ĠV": 318,
      "Ġare": 319,
      "Ġdes": 320,
      "Ġsuis": 321,
      "all": 322,
      "if": 323,
      "ould": 324,
      "Ġmy": 325,
      "ue": 326,
      "Ġcan": 327,
      "Ġthis": 328,
      "Ã¨re": 329,
      "Ġand": 330,
      "Ġat": 331,
      "Ġwant": 332,
      "ure": 333,
      "ith": 334,
      "oir": 335,
      "ard": 336,
      "tre": 337,
      "Ġgo": 338,
      "ght": 339,
      "apos": 340,
      "ui": 341,
      "Ġpro": 342,
      "Ġet": 343,
      "'m": 344,
      "Ġdans": 345,
      "vous": 346,
      "ct": 347,
      "now": 348,
      "Ġtu": 349,
      "Ġav": 350,
      "Ġwith": 351,
      "ĠShe": 352,
      "st": 353,
      "ĠWe": 354,
      "ort": 355,
      "Ġso": 356,
      "Ġfr": 357,
      "Ġmon": 358,
      "ĠElle": 359,
      "ig": 360,
      "Ġknow": 361,
      "mp": 362,
      "ĠIt": 363,
      "Ġwh": 364,
      "Ġave": 365,
      "Ġlike": 366,
      "ation": 367,
      "de": 368,
      "ul": 369,
      "Ġplus": 370,
      "ĠNous": 371,
      "ĠQ": 372,
      "Ġcon": 373,
      "pp": 374,
      "Ġsh": 375,
      "Ġdid": 376,
      "Ġhis": 377,
      "ess": 378,
      "ust": 379,
      "Ġdu": 380,
      "Ġex": 381,
      "Ġri": 382,
      "Ġar": 383,
      "eur": 384,
      "Ġsur": 385,
      "Ġfaire": 386,
      "Ġsom": 387,
      "ink": 388,
      "ose": 389,
      "'re": 390,
      "ens": 391,
      "ĠMar": 392,
      "tes": 393,
      "Ã©c": 394,
      "ers": 395,
      "hing": 396,
      "ook": 397,
      "ĠTu": 398,
      "Ġam": 399,
      "Ġqui": 400,
      "oin": 401,
      "Ġsa": 402,
      "ĠÃª": 403,
      "Ã¨s": 404,
      "Ġfait": 405,
      "Ġnous": 406,
      "age": 407,
      "Ã©s": 408,
      "ire": 409,
      "Ġab": 410,
      "ĠVous": 411,
      "ak": 412,
      "Ġwor": 413,
      "Ġhim": 414,
      "Ġher": 415,
      "Ġtout": 416,
      "Ġal": 417,
      "up": 418,
      "Ġil": 419,
      "Ġavec": 420,
      "Ġcomp": 421,
      "ime": 422,
      "ĠLe": 423,
      "ĠO": 424,
      "Ġwhat": 425,
      "ong": 426,
      "ĠTh": 427,
      "ĠB": 428,
      "ine": 429,
      "Ġthink": 430,
      "che": 431,
      "op": 432,
      "ite": 433,
      "Ġhas": 434,
      "ĠLa": 435,
      "rai": 436,
      "Ġdis": 437,
      "Ġman": 438,
      "use": 439,
      "ate": 440,
      "ĠWh": 441,
      "ind": 442,
      "one": 443,
      "app": 444,
      "ĠWhat": 445,
      "ci": 446,
      "Ġdev": 447,
      "Ġver": 448,
      "Ġany": 449,
      "ette": 450,
      "§a": 451,
      "ake": 452,
      "bl": 453,
      "oy": 454,
      "ois": 455,
      "ance": 456,
      "ive": 457,
      "imp": 458,
      "ĠF": 459,
      "ouv": 460,
      "Ġsont": 461,
      "ĠCe": 462,
      "ood": 463,
      "Ġsi": 464,
      "ĠÃ§a": 465,
      "Ġout": 466,
      "Ġson": 467,
      "Ġfe": 468,
      "ĠDo": 469,
      "Ãł": 470,
      "ave": 471,
      "able": 472,
      "ier": 473,
      "ez": 474,
      "Ġmais": 475,
      "Ġquel": 476,
      "mps": 477,
      "um": 478,
      "ide": 479,
      "ĠMary": 480,
      "ry": 481,
      "are": 482,
      "Ġpeu": 483,
      "Ġgr": 484,
      "ici": 485,
      "nd": 486,
      "ost": 487,
      "ĠLes": 488,
      "ux": 489,
      "ĠÃ©tait": 490,
      "ouve": 491,
      "Ġpart": 492,
      "uis": 493,
      "la": 494,
      "si": 495,
      "oup": 496,
      "Ġvery": 497,
      "ff": 498,
      "ille": 499,
      "onne": 500,
      "Ġtime": 501,
      "ist": 502,
      "ours": 503,
      "cc": 504,
      "Ġ&": 505,
      "Ġus": 506,
      "mes": 507,
      "Ġget": 508,
      "very": 509,
      "ĠThis": 510,
      "Ġveux": 511,
      "ense": 512,
      "Ġhad": 513,
      "art": 514,
      "ĠThey": 515,
      "aut": 516,
      "ĠtrÃ¨s": 517,
      "rent": 518,
      "'ll": 519,
      "'ve": 520,
      "Ġcl": 521,
      "Ġabout": 522,
      "Ġwill": 523,
      "Ġup": 524,
      "Ġlui": 525,
      "Ġmoi": 526,
      "ĠrÃ©": 527,
      "Ġmar": 528,
      "Ġser": 529,
      "ĠCom": 530,
      "ĠÃ©": 531,
      "der": 532,
      "dre": 533,
      "otre": 534,
      "Ġtemps": 535,
      "iv": 536,
      "Ġcr": 537,
      "Ã§": 538,
      "Ġbut": 539,
      "Ġfrom": 540,
      "Ġtou": 541,
      "here": 542,
      "Ġtoo": 543,
      "ass": 544,
      "ast": 545,
      "Ġche": 546,
      "Ġno": 547,
      "Ġneed": 548,
      "Ġwere": 549,
      "ĠQue": 550,
      "ions": 551,
      "ĠG": 552,
      "ally": 553,
      "ge": 554,
      "pr": 555,
      "Ã»": 556,
      "Ġapp": 557,
      "Ġone": 558,
      "Ġsee": 559,
      "ase": 560,
      "Ġthere": 561,
      "ĠÃªtre": 562,
      "Ġor": 563,
      "Ġcar": 564,
      "Ġma": 565,
      "Ġhere": 566,
      "ck": 567,
      "Ġad": 568,
      "je": 569,
      "ĠNe": 570,
      "Ġtro": 571,
      "ise": 572,
      "Ġcette": 573,
      "Ġlook": 574,
      "ner": 575,
      "Ã®": 576,
      "ays": 577,
      "ĠHow": 578,
      "Ġlo": 579,
      "Ġres": 580,
      "Ġdidn": 581,
      "ice": 582,
      "Ġvrai": 583,
      "Ġjam": 584,
      "ĠÃ©tÃ©": 585,
      "iff": 586,
      "ĠThat": 587,
      "une": 588,
      "Ġdem": 589,
      "tÃ©": 590,
      "Ġvou": 591,
      "Ġvotre": 592,
      "ors": 593,
      "Ġgood": 594,
      "ress": 595,
      "avai": 596,
      "itÃ©": 597,
      "Ġhom": 598,
      "alk": 599,
      "Ġwork": 600,
      "Ã¹": 601,
      "uit": 602,
      "Ġag": 603,
      "Ġby": 604,
      "lles": 605,
      "iÃ¨re": 606,
      "ten": 607,
      "Ã´": 608,
      "Ġaut": 609,
      "Ġpense": 610,
      "Ġco": 611,
      "Ġtravai": 612,
      "ight": 613,
      "Ġdit": 614,
      "ep": 615,
      "Ġimp": 616,
      "day": 617,
      "lf": 618,
      "quoi": 619,
      "ĠThere": 620,
      "thing": 621,
      "Ġent": 622,
      "Ġdoes": 623,
      "ven": 624,
      "Ġdiff": 625,
      "ack": 626,
      "Ġlong": 627,
      "Ã©r": 628,
      "ĠPour": 629,
      "el": 630,
      "Ġsais": 631,
      "ish": 632,
      "Ġjust": 633,
      "Ġchose": 634,
      "ab": 635,
      "ĠU": 636,
      "Ġpeux": 637,
      "Ġevery": 638,
      "ĠDon": 639,
      "Ġseu": 640,
      "Ġbeau": 641,
      "Ġro": 642,
      "Ġwould": 643,
      "Ġont": 644,
      "ient": 645,
      "ler": 646,
      "rais": 647,
      "Ġshould": 648,
      "Ġjamais": 649,
      "ĠMy": 650,
      "Ġgoing": 651,
      "lÃ©": 652,
      "âĢ": 653,
      "Ġdire": 654,
      "mer": 655,
      "Ġes": 656,
      "Ġshe": 657,
      "Ġbien": 658,
      "Ġthan": 659,
      "dy": 660,
      "Ġpre": 661,
      "Ġhapp": 662,
      "ĠÃªtes": 663,
      "ame": 664,
      "Ġ\"": 665,
      "Ġper": 666,
      "Ġple": 667,
      "Ġsp": 668,
      "Ġren": 669,
      "Ġph": 670,
      "Ġspe": 671,
      "Ġcont": 672,
      "Ġtell": 673,
      "ile": 674,
      "orte": 675,
      "ĠEn": 676,
      "ĠIls": 677,
      "Ġliv": 678,
      "lp": 679,
      "Ġici": 680,
      "Ġpe": 681,
      "Ġbl": 682,
      "ace": 683,
      "Ġarri": 684,
      "bre": 685,
      "ĠR": 686,
      "Ġton": 687,
      "Ġbeen": 688,
      "ique": 689,
      "air": 690,
      "Ġhelp": 691,
      "ade": 692,
      "Ġwho": 693,
      "ound": 694,
      "ob": 695,
      "Ġou": 696,
      "Ġmore": 697,
      "'d": 698,
      "Ġlet": 699,
      "orm": 700,
      "other": 701,
      "coup": 702,
      "ĠÂ": 703,
      "iss": 704,
      "Ġtrain": 705,
      "Ġgrand": 706,
      "moi": 707,
      "Ġmu": 708,
      "Ġbr": 709,
      "Ġpass": 710,
      "Ġnever": 711,
      "ants": 712,
      "Ġatt": 713,
      "Ġsav": 714,
      "Ġread": 715,
      "Ġcould": 716,
      "Ġbeaucoup": 717,
      "oit": 718,
      "ĠQu": 719,
      "ond": 720,
      "Ġsome": 721,
      "Ġvraiment": 722,
      "Ġmuch": 723,
      "Ġai": 724,
      "Ġpers": 725,
      "Ãªme": 726,
      "ale": 727,
      "gl": 728,
      "Ã¢": 729,
      "ars": 730,
      "âĢĻ": 731,
      "mb": 732,
      "onn": 733,
      "self": 734,
      "Ġcomme": 735,
      "ign": 736,
      "fe": 737,
      "Ġtous": 738,
      "Ġpens": 739,
      "Ġlit": 740,
      "Ġthey": 741,
      "ange": 742,
      "-@": 743,
      "@-@": 744,
      "Ġ@-@": 745,
      "ils": 746,
      "ĠAre": 747,
      "Ġtalk": 748,
      "Ġstu": 749,
      "Ġreally": 750,
      "row": 751,
      "anger": 752,
      "Ġtrop": 753,
      "Ġif": 754,
      "ree": 755,
      "Ġbes": 756,
      "Ġcome": 757,
      "Ġcomm": 758,
      "rendre": 759,
      "ence": 760,
      "Ġwr": 761,
      "Ġenc": 762,
      "ĠPourquoi": 763,
      "elle": 764,
      "ra": 765,
      "ques": 766,
      "Ġtoi": 767,
      "riend": 768,
      "Ġoff": 769,
      "act": 770,
      "ĠWhy": 771,
      "ole": 772,
      "Ġmat": 773,
      "Ġwhen": 774,
      "Ġquelque": 775,
      "Ġpos": 776,
      "ather": 777,
      "ami": 778,
      "ces": 779,
      "Ġ,": 780,
      "Ġcou": 781,
      "Ġvie": 782,
      "ild": 783,
      "ĠprÃ©": 784,
      "Ġmonde": 785,
      "Ġvoul": 786,
      "Ġbesoin": 787,
      "Ġmain": 788,
      "Ġnow": 789,
      "Ġven": 790,
      "Ġsem": 791,
      "Ãªte": 792,
      "Ġpeut": 793,
      "Ġta": 794,
      "Ġaf": 795,
      "Ġcons": 796,
      "Ġfin": 797,
      "Ġelle": 798,
      "Ġlove": 799,
      "di": 800,
      "ĠÃ©c": 801,
      "Ġdi": 802,
      "Ġjour": 803,
      "ool": 804,
      "pl": 805,
      "uy": 806,
      "Ġmal": 807,
      "Ġvoir": 808,
      "ĠEst": 809,
      "aine": 810,
      "Ġday": 811,
      "ese": 812,
      "Ã©es": 813,
      "ĠIs": 814,
      "Ġwon": 815,
      "Ġquest": 816,
      "ĠSami": 817,
      "Ġonly": 818,
      "Ġrien": 819,
      "ody": 820,
      "ĩa": 821,
      "Ġpi": 822,
      "Ã©ri": 823,
      "Ġhow": 824,
      "vez": 825,
      "Ġspeak": 826,
      "ought": 827,
      "Ġpet": 828,
      "ĠÃĩa": 829,
      "ident": 830,
      "Ãªtre": 831,
      "Ġavons": 832,
      "Ġright": 833,
      "ĠComment": 834,
      "ies": 835,
      "ick": 836,
      "Ġcela": 837,
      "Ġdemand": 838,
      "ts": 839,
      "ted": 840,
      "ity": 841,
      "Ġva": 842,
      "Ġop": 843,
      "Ġreg": 844,
      "sez": 845,
      "ĠdÃ©c": 846,
      "Ġsomet": 847,
      "Ġencore": 848,
      "ures": 849,
      "Ġsm": 850,
      "Ġses": 851,
      "Ġnouve": 852,
      "ussi": 853,
      "Ġint": 854,
      "ert": 855,
      "ĠMon": 856,
      "aÃ®": 857,
      "ey": 858,
      "gent": 859,
      "Ġtom": 860,
      "Ġmust": 861,
      "ante": 862,
      "iez": 863,
      "Ġaller": 864,
      "Ġbook": 865,
      "Ġvoit": 866,
      "Ġgot": 867,
      "Ġparler": 868,
      "du": 869,
      "Ġlot": 870,
      "Ġlang": 871,
      "ĠIn": 872,
      "Ġdeux": 873,
      "aime": 874,
      "Ġbec": 875,
      "Åĵ": 876,
      "ved": 877,
      "Ġthing": 878,
      "aiss": 879,
      "Ġavait": 880,
      "ĠOn": 881,
      "Ġdoesn": 882,
      "Ġacc": 883,
      "Ġbon": 884,
      "vers": 885,
      "ach": 886,
      "ning": 887,
      "Ġeu": 888,
      "reat": 889,
      "Ġpu": 890,
      "Ġwat": 891,
      "Ġsupp": 892,
      "Ġenf": 893,
      "Ġsommes": 894,
      "ieux": 895,
      "jours": 896,
      "ther": 897,
      "ough": 898,
      "Ġlast": 899,
      "ĠoÃ¹": 900,
      "Ġjus": 901,
      "oire": 902,
      "Ġeat": 903,
      "Ġprop": 904,
      "Ġconn": 905,
      "ds": 906,
      "tle": 907,
      "Ġsay": 908,
      "Ġmes": 909,
      "erm": 910,
      "aid": 911,
      "Ġnew": 912,
      "Ġavez": 913,
      "Ġtoujours": 914,
      "Ġ1": 915,
      "Ġtake": 916,
      "Ġpa": 917,
      "Ġfois": 918,
      "Ġheure": 919,
      "ĠCan": 920,
      "Ã©tait": 921,
      "ĠdÃ©s": 922,
      "Ġder": 923,
      "Ġfut": 924,
      "Ġvis": 925,
      "aient": 926,
      "Ġbel": 927,
      "Ġmoney": 928,
      "Ġmaison": 929,
      "Ġsomething": 930,
      "ls": 931,
      "ting": 932,
      "Ġsent": 933,
      "Ġfriend": 934,
      "Ġbus": 935,
      "Ġye": 936,
      "Ġaw": 937,
      "Ġpo": 938,
      "Ġfam": 939,
      "ried": 940,
      "Ġret": 941,
      "Ġdois": 942,
      "ich": 943,
      "Ġten": 944,
      "ĠlÃł": 945,
      "Ġfl": 946,
      "Ġold": 947,
      "Ġjou": 948,
      "Ġask": 949,
      "iens": 950,
      "Ġhome": 951,
      "Ġseule": 952,
      "cre": 953,
      "pt": 954,
      "rait": 955,
      "Ġke": 956,
      "Ġmo": 957,
      "Ġvu": 958,
      "ord": 959,
      "ĠJap": 960,
      "ents": 961,
      "Ġunder": 962,
      "cher": 963,
      "Ġour": 964,
      "Ġwent": 965,
      "Ġbet": 966,
      "Ġanything": 967,
      "Ġap": 968,
      "Ġaussi": 969,
      "Ġnom": 970,
      "Ġwhere": 971,
      "Ġthem": 972,
      "Ġans": 973,
      "Ġfeel": 974,
      "Ġagain": 975,
      "ĠUn": 976,
      "Ġvoiture": 977,
      "Ġdr": 978,
      "Ġpri": 979,
      "Ġway": 980,
      "ouse": 981,
      "Ġchild": 982,
      "aÃ®t": 983,
      "nt": 984,
      "Ġtw": 985,
      "red": 986,
      "Ġpouv": 987,
      "Ã©n": 988,
      "ĠIf": 989,
      "Ġback": 990,
      "ĠCh": 991,
      "ĠMarie": 992,
      "rents": 993,
      "ned": 994,
      "vent": 995,
      "itu": 996,
      "Ġvais": 997,
      "Ġplay": 998,
      "ople": 999,
      "Ġregard": 1000,
      "iz": 1001,
      "jour": 1002,
      "jÃł": 1003,
      "rÃ©": 1004,
      "Ġpol": 1005,
      "Ġsch": 1006,
      "Ġca": 1007,
      "Ġtold": 1008,
      "ĠdÃ©jÃł": 1009,
      "Ã´t": 1010,
      "be": 1011,
      "Ġcor": 1012,
      "Ġother": 1013,
      "Ġplan": 1014,
      "ction": 1015,
      "Ġavoir": 1016,
      "Ġsoit": 1017,
      "Ġtravail": 1018,
      "Ġid": 1019,
      "Ġmake": 1020,
      "Ġfer": 1021,
      "Ġgu": 1022,
      "ĠNo": 1023,
      "ĠAs": 1024,
      "ĠPle": 1025,
      "Ġchez": 1026,
      "tenant": 1027,
      "th": 1028,
      "Ġsort": 1029,
      "Ġcour": 1030,
      "Ġcall": 1031,
      "Ġveu": 1032,
      "ĠLet": 1033,
      "aux": 1034,
      "Ġlittle": 1035,
      "Ġbelie": 1036,
      "nÃ©e": 1037,
      "ome": 1038,
      "Ġhouse": 1039,
      "Ġquoi": 1040,
      "lez": 1041,
      "Ġrend": 1042,
      "Ġstill": 1043,
      "Ġschool": 1044,
      "ĠPlease": 1045,
      "cont": 1046,
      "fore": 1047,
      "rit": 1048,
      "Ġac": 1049,
      "hed": 1050,
      "Ġmet": 1051,
      "Ġmont": 1052,
      "anÃ§": 1053,
      "ĠTout": 1054,
      "argent": 1055,
      "Ġhard": 1056,
      "Ġrep": 1057,
      "Ã©tais": 1058,
      "Ġprom": 1059,
      "ĠWho": 1060,
      "Ġpeople": 1061,
      "bien": 1062,
      "li": 1063,
      "Ġim": 1064,
      "Ġsaid": 1065,
      "Ġmus": 1066,
      "Ġfind": 1067,
      "Ġfaut": 1068,
      "riez": 1069,
      "ĠSi": 1070,
      "illes": 1071,
      "Ġparents": 1072,
      "vÃ©": 1073,
      "ĠdÃ©t": 1074,
      "Ġpay": 1075,
      "Ġsou": 1076,
      "erre": 1077,
      "arri": 1078,
      "Ġquand": 1079,
      "Ġgl": 1080,
      "Ġinte": 1081,
      "Ġdog": 1082,
      "icul": 1083,
      "Ġtrou": 1084,
      "ĠDid": 1085,
      "rench": 1086,
      "hui": 1087,
      "og": 1088,
      "ways": 1089,
      "ĠtÃ©": 1090,
      "read": 1091,
      "Ġporte": 1092,
      "ĠmÃªme": 1093,
      "Ġbefore": 1094,
      "appe": 1095,
      "auv": 1096,
      "avais": 1097,
      "Ġaux": 1098,
      "eurs": 1099,
      "Ġroom": 1100,
      "Ġhappen": 1101,
      "jourd": 1102,
      "body": 1103,
      "ft": 1104,
      "Ġache": 1105,
      "Ġcat": 1106,
      "Ġmin": 1107,
      "Ġnight": 1108,
      "oses": 1109,
      "Ġalways": 1110,
      "ĠFrench": 1111,
      "ĠQuel": 1112,
      "Ġrencont": 1113,
      "ek": 1114,
      "rÃª": 1115,
      "ty": 1116,
      "Ġess": 1117,
      "Ġsw": 1118,
      "Ġsle": 1119,
      "asse": 1120,
      "Ġthought": 1121,
      "Ġlear": 1122,
      "Ġend": 1123,
      "ĠWhere": 1124,
      "Ġtry": 1125,
      "Ġpetit": 1126,
      "anÃ§ais": 1127,
      "ms": 1128,
      "rer": 1129,
      "Ġsouv": 1130,
      "Ġmor": 1131,
      "orrow": 1132,
      "Ġgar": 1133,
      "Ġgir": 1134,
      "ĠElles": 1135,
      "endre": 1136,
      "Ġdisp": 1137,
      "ĠrÃ©p": 1138,
      "ĠÂ«": 1139,
      "Ġdern": 1140,
      "ition": 1141,
      "Ġfais": 1142,
      "ĠÃĢ": 1143,
      "Ġleave": 1144,
      "Ã¨me": 1145,
      "Ġweek": 1146,
      "Ġavant": 1147,
      "ĠFr": 1148,
      "Ġfem": 1149,
      "Ġeverything": 1150,
      "get": 1151,
      "iÃ©": 1152,
      "ud": 1153,
      "ĠK": 1154,
      "Ġaim": 1155,
      "Ġpres": 1156,
      "Ġsc": 1157,
      "Ġsans": 1158,
      "Ġsimp": 1159,
      "Ġmot": 1160,
      "Ġmade": 1161,
      "Ġfac": 1162,
      "Ġrec": 1163,
      "Ġmeet": 1164,
      "ĠfranÃ§ais": 1165,
      "Ġmany": 1166,
      "Ġmom": 1167,
      "ory": 1168,
      "ention": 1169,
      "ĠEngl": 1170,
      "ĠÂ»": 1171,
      "Ġmaintenant": 1172,
      "Åĵur": 1173,
      "ĠtÃ©lÃ©": 1174,
      "ph": 1175,
      "ĠmÃ©": 1176,
      "anc": 1177,
      "Ġwait": 1178,
      "Ġocc": 1179,
      "Ġheures": 1180,
      "irst": 1181,
      "ĠPar": 1182,
      "Ġwell": 1183,
      "ations": 1184,
      "Ġalone": 1185,
      "ĠOÃ¹": 1186,
      "Ã§on": 1187,
      "Ġlivre": 1188,
      "Ġinto": 1189,
      "Ġtwo": 1190,
      "nÃ©": 1191,
      "ok": 1192,
      "uck": 1193,
      "ĠpÃ¨re": 1194,
      "Ġmoin": 1195,
      "oth": 1196,
      "Ġrest": 1197,
      "Ġeas": 1198,
      "tern": 1199,
      "Ġaujourd": 1200,
      "Ġprobl": 1201,
      "Ġexp": 1202,
      "ouvez": 1203,
      "Ġlangu": 1204,
      "ful": 1205,
      "les": 1206,
      "Ġcare": 1207,
      "Ġcoup": 1208,
      "Ġhand": 1209,
      "ets": 1210,
      "Ġlife": 1211,
      "Ġplace": 1212,
      "ĠplaÃ®t": 1213,
      "Ġcomment": 1214,
      "Ġnothing": 1215,
      "Ġbelieve": 1216,
      "Ġpat": 1217,
      "ins": 1218,
      "Ġcro": 1219,
      "ary": 1220,
      "Ġtoday": 1221,
      "Ġover": 1222,
      "ager": 1223,
      "Ġnotre": 1224,
      "ĠdÃ©p": 1225,
      "Ġprof": 1226,
      "Ġconf": 1227,
      "Ġseul": 1228,
      "Ġhappy": 1229,
      "Ġunderst": 1230,
      "az": 1231,
      "cer": 1232,
      "cle": 1233,
      "ex": 1234,
      "ris": 1235,
      "ĠsÃ»": 1236,
      "Ġbonne": 1237,
      "Ġbuy": 1238,
      "Ġdep": 1239,
      "Ġgive": 1240,
      "ily": 1241,
      "Ġchien": 1242,
      "Ġrais": 1243,
      "pect": 1244,
      "Ġphot": 1245,
      "ger": 1246,
      "oc": 1247,
      "Ġfather": 1248,
      "aimer": 1249,
      "Ġjob": 1250,
      "Ġref": 1251,
      "Ġrem": 1252,
      "Ġsure": 1253,
      "Ġlive": 1254,
      "ture": 1255,
      "Ġpris": 1256,
      "Ġwanted": 1257,
      "akes": 1258,
      "ĠBost": 1259,
      "Ġenfants": 1260,
      "Ġaway": 1261,
      "Ġmoment": 1262,
      "ĠEnglish": 1263,
      "ĠBoston": 1264,
      "eau": 1265,
      "Ġ2": 1266,
      "Ġide": 1267,
      "Ġsol": 1268,
      "Ġboy": 1269,
      "tement": 1270,
      "Ġisn": 1271,
      "ĠHave": 1272,
      "Ġchat": 1273,
      "ĠAvez": 1274,
      "sible": 1275,
      "Ġtook": 1276,
      "prÃ¨s": 1277,
      "Ġquestion": 1278,
      "ber": 1279,
      "ving": 1280,
      "Ġsoir": 1281,
      "Ġmieux": 1282,
      "ank": 1283,
      "att": 1284,
      "ated": 1285,
      "Ġenv": 1286,
      "ider": 1287,
      "own": 1288,
      "Ġtrouv": 1289,
      "ĠEvery": 1290,
      "ages": 1291,
      "Ġstart": 1292,
      "ĠQui": 1293,
      "Ġtrois": 1294,
      "Ġhomme": 1295,
      "Ġsleep": 1296,
      "Ġsimple": 1297,
      "Ġtur": 1298,
      "Ġput": 1299,
      "Ġpoin": 1300,
      "Ġsing": 1301,
      "Ġsens": 1302,
      "Ġfirst": 1303,
      "Ġvoy": 1304,
      "Ġgreat": 1305,
      "Ġinc": 1306,
      "Ġins": 1307,
      "Ġinv": 1308,
      "Ġass": 1309,
      "Ã©cole": 1310,
      "Ġalread": 1311,
      "ĠWhen": 1312,
      "Ġtoute": 1313,
      "Ġprem": 1314,
      "Ġbetter": 1315,
      "aimerais": 1316,
      "Ġalready": 1317,
      "ĠdÃ»": 1318,
      "imes": 1319,
      "Ġenough": 1320,
      "Ġcond": 1321,
      "Ġdisc": 1322,
      "ĠpassÃ©": 1323,
      "mber": 1324,
      "Ġappe": 1325,
      "ause": 1326,
      "mble": 1327,
      "Ġhur": 1328,
      "Ġtheir": 1329,
      "Ġthree": 1330,
      "Ġcham": 1331,
      "Ġparle": 1332,
      "ĠprÃ©s": 1333,
      "Ġdone": 1334,
      "Ġstay": 1335,
      "Ġtoutes": 1336,
      "bles": 1337,
      "Ġimport": 1338,
      "Ġpersonne": 1339,
      "ves": 1340,
      "rez": 1341,
      "Ġlate": 1342,
      "Ġlors": 1343,
      "Ġlaiss": 1344,
      "Ġnuit": 1345,
      "Ġname": 1346,
      "Ġfo": 1347,
      "Ġdec": 1348,
      "arly": 1349,
      "Ġviv": 1350,
      "orry": 1351,
      "Ġdoor": 1352,
      "Ġchoses": 1353,
      "acc": 1354,
      "Ġtravaill": 1355,
      "Ġjuste": 1356,
      "ĠJapan": 1357,
      "igh": 1358,
      "vis": 1359,
      "xt": 1360,
      "Ġuse": 1361,
      "Ġtour": 1362,
      "Ġdou": 1363,
      "Ġport": 1364,
      "Ġpuis": 1365,
      "oss": 1366,
      "Ġemp": 1367,
      "Ġseen": 1368,
      "acher": 1369,
      "ĠPers": 1370,
      "Ġassez": 1371,
      "ired": 1372,
      "Ġquelques": 1373,
      "Ġdemain": 1374,
      "Ġquestions": 1375,
      "Ġtomorrow": 1376,
      "Ġessay": 1377,
      "Ġfemme": 1378,
      "Ġfacile": 1379,
      "Ġmoins": 1380,
      "00": 1381,
      "ute": 1382,
      "Ġdown": 1383,
      "Ġsorry": 1384,
      "Ġmag": 1385,
      "Ã©l": 1386,
      "Ġbest": 1387,
      "Ġho": 1388,
      "Ġleft": 1389,
      "Ġdoit": 1390,
      "ict": 1391,
      "ĠrÃ©s": 1392,
      "chÃ©": 1393,
      "ĠAu": 1394,
      "endu": 1395,
      "Ġauc": 1396,
      "Ġproble": 1397,
      "Ġwithout": 1398,
      "Ġautre": 1399,
      "Ġplease": 1400,
      "Ġbecause": 1401,
      "Ġdrink": 1402,
      "Ġunderstand": 1403,
      "ĠPersonne": 1404,
      "ia": 1405,
      "Ġtri": 1406,
      "Ġaime": 1407,
      "Ġpain": 1408,
      "ĠmÃ¨re": 1409,
      "Ġmind": 1410,
      "Ġfille": 1411,
      "Ġbre": 1412,
      "Ġeff": 1413,
      "Ġeven": 1414,
      "Ġdoing": 1415,
      "ĠAn": 1416,
      "Ġkind": 1417,
      "Ġwhy": 1418,
      "aking": 1419,
      "Ġused": 1420,
      "Ġpensais": 1421,
      "Ġvenir": 1422,
      "Ġasked": 1423,
      "arrive": 1424,
      "ĠFrance": 1425,
      "Ġidea": 1426,
      "Ġprendre": 1427,
      "esp": 1428,
      "int": 1429,
      "Ġcap": 1430,
      "Ġmort": 1431,
      "Ġbo": 1432,
      "Ġbou": 1433,
      "Ġgens": 1434,
      "Ġob": 1435,
      "roit": 1436,
      "ĠCette": 1437,
      "Ġdoct": 1438,
      "Ġtrouve": 1439,
      "ches": 1440,
      "Ġsec": 1441,
      "Ġsaw": 1442,
      "ĠCombien": 1443,
      "Ġlooking": 1444,
      "Ġafter": 1445,
      "Ġthings": 1446,
      "Ġyears": 1447,
      "Ġoccup": 1448,
      "ious": 1449,
      "jet": 1450,
      "tr": 1451,
      "ug": 1452,
      "wn": 1453,
      "ĠaprÃ¨s": 1454,
      "Ġpeur": 1455,
      "Ġleur": 1456,
      "Ġcle": 1457,
      "Ġmanger": 1458,
      "Ġwalk": 1459,
      "Ġfai": 1460,
      "Ġbed": 1461,
      "ath": 1462,
      "ester": 1463,
      "Ġbeing": 1464,
      "util": 1465,
      "Ġhab": 1466,
      "Ġchance": 1467,
      "Ġteacher": 1468,
      "endant": 1469,
      "ience": 1470,
      "Ġpartir": 1471,
      "Ġdifficul": 1472,
      "Ġcount": 1473,
      "ĠprÃ©f": 1474,
      "Ġnouveau": 1475,
      "Ġwater": 1476,
      "Ġvisit": 1477,
      "Ġveut": 1478,
      "Ġtes": 1479,
      "Ġpren": 1480,
      "Ġnum": 1481,
      "Ġhier": 1482,
      "llement": 1483,
      "Ġever": 1484,
      "idÃ©": 1485,
      "Ġrou": 1486,
      "Ġrain": 1487,
      "ĠprÃª": 1488,
      "Ġworld": 1489,
      "Ġvoulais": 1490,
      "ĠdÃ©sol": 1491,
      "..": 1492,
      "ock": 1493,
      "Ġces": 1494,
      "Ġcet": 1495,
      "Ġcame": 1496,
      "Ġcert": 1497,
      "omme": 1498,
      "Ġyoun": 1499,
      "ĠÃĬ": 1500,
      "temps": 1501,
      "Ġoften": 1502,
      "member": 1503,
      "ĠMa": 1504,
      "ĠEs": 1505,
      "Ġlire": 1506,
      "Ġkne": 1507,
      "Ġwhich": 1508,
      "Ġsurpr": 1509,
      "avez": 1510,
      "Ġletter": 1511,
      "Ġsavoir": 1512,
      "Ġheureux": 1513,
      "Ġkeep": 1514,
      "ĠidÃ©e": 1515,
      "Ġinteres": 1516,
      "Ġsimplement": 1517,
      "Ġpoint": 1518,
      "Ġimportant": 1519,
      "iques": 1520,
      "Ġsal": 1521,
      "ister": 1522,
      "ince": 1523,
      "Ġcol": 1524,
      "Ġmis": 1525,
      "Ġmother": 1526,
      "ital": 1527,
      "Ġfat": 1528,
      "quot": 1529,
      "Ġvos": 1530,
      "ente": 1531,
      "uses": 1532,
      "teau": 1533,
      "Ġense": 1534,
      "Ġlik": 1535,
      "ĠAll": 1536,
      "ĠDan": 1537,
      "Ġpourquoi": 1538,
      "Ġexpl": 1539,
      "Ġcompl": 1540,
      "raid": 1541,
      "Ġdevrais": 1542,
      "ĠUne": 1543,
      "Ġcommen": 1544,
      "Ġopen": 1545,
      "Ġchildren": 1546,
      "ĠÃĬtes": 1547,
      "min": 1548,
      "Ġtable": 1549,
      "Ġdorm": 1550,
      "Ġlost": 1551,
      "Ġmost": 1552,
      "erve": 1553,
      "Ġfound": 1554,
      "Ġbad": 1555,
      "arr": 1556,
      "Ġvi": 1557,
      "Ġvol": 1558,
      "orter": 1559,
      "este": 1560,
      "Ġgen": 1561,
      "Ġhear": 1562,
      "Ġey": 1563,
      "Ġbeaut": 1564,
      "Ġchang": 1565,
      "agne": 1566,
      "Ġstr": 1567,
      "ife": 1568,
      "Ġabs": 1569,
      "Ġsemaine": 1570,
      "Ġafraid": 1571,
      "ĠdemandÃ©": 1572,
      "Ġwatch": 1573,
      "Ġtrouver": 1574,
      "Ġsouvent": 1575,
      "ĠderniÃ¨re": 1576,
      "Ġeasy": 1577,
      "Ġknew": 1578,
      "ivers": 1579,
      "lui": 1580,
      "nis": 1581,
      "we": 1582,
      "Ġter": 1583,
      "Ġpouvez": 1584,
      "Ġsait": 1585,
      "Ġlun": 1586,
      "Ġmay": 1587,
      "Ġmiss": 1588,
      "quer": 1589,
      "Ġbu": 1590,
      "ats": 1591,
      "Ġyet": 1592,
      "ĠÃī": 1593,
      "uss": 1594,
      "ĠintÃ©": 1595,
      "Ġemb": 1596,
      "Ġbeg": 1597,
      "ĠHis": 1598,
      "ĠDe": 1599,
      "Ġconc": 1600,
      "Ġshow": 1601,
      "Ġcold": 1602,
      "Ġentre": 1603,
      "ĠQuand": 1604,
      "Ġsmall": 1605,
      "Ġbusy": 1606,
      "Ġpolice": 1607,
      "Ġimm": 1608,
      "Ġcrois": 1609,
      "esterday": 1610,
      "ba": 1611,
      "form": 1612,
      "mÃªme": 1613,
      "ys": 1614,
      "Ġdur": 1615,
      "Ġpays": 1616,
      "iste": 1617,
      "Ã©g": 1618,
      "Ġfar": 1619,
      "ato": 1620,
      "ĠvÃ©r": 1621,
      "Ġnext": 1622,
      "osed": 1623,
      "Ġremember": 1624,
      "oid": 1625,
      "ments": 1626,
      "ains": 1627,
      "agn": 1628,
      "ache": 1629,
      "Ġstop": 1630,
      "ĠallÃ©": 1631,
      "uire": 1632,
      "Ġlooks": 1633,
      "ĠRe": 1634,
      "Ġstud": 1635,
      "Ġpossible": 1636,
      "Ġsemble": 1637,
      "Ġjusqu": 1638,
      "Ġretard": 1639,
      "ize": 1640,
      "cÃ©": 1641,
      "hab": 1642,
      "Ġcher": 1643,
      "any": 1644,
      "Ġfu": 1645,
      "qui": 1646,
      "Ġbor": 1647,
      "Ġbig": 1648,
      "aisse": 1649,
      "Ġjours": 1650,
      "uth": 1651,
      "uter": 1652,
      "ical": 1653,
      "Ġtrans": 1654,
      "ĠMay": 1655,
      "Ġfort": 1656,
      "avoir": 1657,
      "Ġwants": 1658,
      "Ġprob": 1659,
      "autre": 1660,
      "Ġcontr": 1661,
      "Ġlettre": 1662,
      "Ġsavais": 1663,
      "ĠpiÃ¨": 1664,
      "ĠproblÃ¨me": 1665,
      "Ġchambre": 1666,
      "Ġdoctor": 1667,
      "utilis": 1668,
      "par": 1669,
      "ues": 1670,
      "Ġact": 1671,
      "Ġaff": 1672,
      "Ġfil": 1673,
      "Ġfall": 1674,
      "Ġhot": 1675,
      "Ġhum": 1676,
      "Ġtra": 1677,
      "Ġtruth": 1678,
      "Ġcha": 1679,
      "Ġchar": 1680,
      "Ġsecre": 1681,
      "avant": 1682,
      "Ġkill": 1683,
      "ends": 1684,
      "ienne": 1685,
      "Ġdeven": 1686,
      "ĠCela": 1687,
      "ĠQuelle": 1688,
      "Ġadv": 1689,
      "Ġwrit": 1690,
      "Ġaccident": 1691,
      "Ġsortir": 1692,
      "Ġdepuis": 1693,
      "Ġdifficult": 1694,
      "Ġyoung": 1695,
      "lu": 1696,
      "per": 1697,
      "rÃ©c": 1698,
      "udi": 1699,
      "Ġsk": 1700,
      "Ġnat": 1701,
      "Ġbit": 1702,
      "Ġmeill": 1703,
      "Ã¨te": 1704,
      "ĠYour": 1705,
      "Ġconse": 1706,
      "ĠBe": 1707,
      "Ġdevons": 1708,
      "Ġquelqu": 1709,
      "Ġwrong": 1710,
      "Ġpropos": 1711,
      "Ġyear": 1712,
      "Ġphoto": 1713,
      "ee": 1714,
      "homme": 1715,
      "Ġdin": 1716,
      "Ġpendant": 1717,
      "Ġmauv": 1718,
      "Ġwom": 1719,
      "Ġbi": 1720,
      "ark": 1721,
      "Ġyesterday": 1722,
      "entre": 1723,
      "aires": 1724,
      "Ġearly": 1725,
      "Ã¨res": 1726,
      "utes": 1727,
      "vert": 1728,
      "Ġceci": 1729,
      "aurais": 1730,
      "rence": 1731,
      "Ġaround": 1732,
      "Ġcomple": 1733,
      "Ġfew": 1734,
      "arth": 1735,
      "Ġclass": 1736,
      "Ġserv": 1737,
      "ject": 1738,
      "Ġpret": 1739,
      "Ġperdu": 1740,
      "Ġready": 1741,
      "alement": 1742,
      "Ġstudy": 1743,
      "Ġpetite": 1744,
      "Ġcorre": 1745,
      "Ġswim": 1746,
      "Ġmorning": 1747,
      "phone": 1748,
      "Ġprofess": 1749,
      "ĠsÃ»r": 1750,
      "Ġraison": 1751,
      "Ġmauvais": 1752,
      "cin": 1753,
      "emp": 1754,
      "gry": 1755,
      "ial": 1756,
      "ible": 1757,
      "lais": 1758,
      "nous": 1759,
      "oke": 1760,
      "til": 1761,
      "Ġtard": 1762,
      "Ġtired": 1763,
      "Ġaren": 1764,
      "reux": 1765,
      "Ġlar": 1766,
      "inÃ©": 1767,
      "ances": 1768,
      "Ġfun": 1769,
      "Ġbri": 1770,
      "aide": 1771,
      "leur": 1772,
      "Ġind": 1773,
      "Ã¨rent": 1774,
      "Ġanother": 1775,
      "Ã©tÃ©": 1776,
      "ĠAt": 1777,
      "ĠPuis": 1778,
      "Ġyourself": 1779,
      "olog": 1780,
      "Ġexam": 1781,
      "Ġami": 1782,
      "Ġhimself": 1783,
      "opul": 1784,
      "Ġgros": 1785,
      "Ġmarried": 1786,
      "Ġsera": 1787,
      "ives": 1788,
      "Ġbrother": 1789,
      "Ġmatin": 1790,
      "ĠJapon": 1791,
      "Ġlearn": 1792,
      "ĠParis": 1793,
      ".\"": 1794,
      "toi": 1795,
      "Ġdri": 1796,
      "Ġpap": 1797,
      "ished": 1798,
      "Ġcuis": 1799,
      "Ġmer": 1800,
      "Ġmine": 1801,
      "Ġnon": 1802,
      "ater": 1803,
      "Ġyeux": 1804,
      "Ġquit": 1805,
      "ings": 1806,
      "Ġthese": 1807,
      "ote": 1808,
      "Ġreal": 1809,
      "Ġinst": 1810,
      "cept": 1811,
      "ution": 1812,
      "Ġtrue": 1813,
      "Ġchange": 1814,
      "Ġonce": 1815,
      "Ġrun": 1816,
      "ĠÃ©taient": 1817,
      "Ġknows": 1818,
      "Ġart": 1819,
      "ĠDoes": 1820,
      "Ġparty": 1821,
      "ĠdiffÃ©": 1822,
      "ĠarrivÃ©": 1823,
      "Ġperson": 1824,
      "Ġopin": 1825,
      "Ġpubl": 1826,
      "Ġfamille": 1827,
      "Ġbreak": 1828,
      "Ġsurpris": 1829,
      "ĠvÃ©ritÃ©": 1830,
      "eba": 1831,
      "lt": 1832,
      "nent": 1833,
      "rant": 1834,
      "Ġpopul": 1835,
      "ĠsÅĵur": 1836,
      "Ġsister": 1837,
      "Ġlist": 1838,
      "Ġnice": 1839,
      "Ġwar": 1840,
      "Ġwind": 1841,
      "Ġvac": 1842,
      "Ġville": 1843,
      "Ġhun": 1844,
      "Ġgard": 1845,
      "ĠgÃ©n": 1846,
      "oix": 1847,
      "llez": 1848,
      "Ġbeh": 1849,
      "icy": 1850,
      "ĠEx": 1851,
      "ĠÃ©tudi": 1852,
      "Ġprin": 1853,
      "anglais": 1854,
      "Ġstation": 1855,
      "Ġsoon": 1856,
      "ĠarrÃª": 1857,
      "Ġsame": 1858,
      "Ġword": 1859,
      "icile": 1860,
      "ĠÃ©g": 1861,
      "Ġcroire": 1862,
      "ĠGet": 1863,
      "Ġadd": 1864,
      "Ġautres": 1865,
      "Ġdifficile": 1866,
      "Ġarrive": 1867,
      "Ġmatter": 1868,
      "Ġbooks": 1869,
      "Ġlangue": 1870,
      "Ġfriends": 1871,
      "Ġhappened": 1872,
      "ĠachetÃ©": 1873,
      "Ġminutes": 1874,
      "ĠtrouvÃ©": 1875,
      "Ġvoyage": 1876,
      "Ġcountry": 1877,
      "atoeba": 1878,
      "?\"": 1879,
      "iers": 1880,
      "man": 1881,
      "oh": 1882,
      "son": 1883,
      "tres": 1884,
      "ĠtÃ´t": 1885,
      "Ġtimes": 1886,
      "Ġsous": 1887,
      "Ġcam": 1888,
      "Ġmou": 1889,
      "Ġmakes": 1890,
      "Ġfour": 1891,
      "omm": 1892,
      "omp": 1893,
      "llig": 1894,
      "ĠTatoeba": 1895,
      "ail": 1896,
      "aider": 1897,
      "led": 1898,
      "rib": 1899,
      "iles": 1900,
      "Ġred": 1901,
      "Ġrev": 1902,
      "ĠWould": 1903,
      "Ġru": 1904,
      "illÃ©": 1905,
      "iful": 1906,
      "Ġmyself": 1907,
      "Ġexc": 1908,
      "Ġautant": 1909,
      "Ġdiffe": 1910,
      "Ġattention": 1911,
      "Ġcouldn": 1912,
      "Ġstup": 1913,
      "Ġwonder": 1914,
      "Ġnombre": 1915,
      "itude": 1916,
      "ĠmÃ©de": 1917,
      "Ġhope": 1918,
      "Ġproblem": 1919,
      "br": 1920,
      "ip": 1921,
      "more": 1922,
      "not": 1923,
      "uÃ©": 1924,
      "Ġterm": 1925,
      "Ġdont": 1926,
      "Ġdanger": 1927,
      "Ġmist": 1928,
      "Ġnour": 1929,
      "Ġfav": 1930,
      "Ġvue": 1931,
      "Ġhair": 1932,
      "Ġthr": 1933,
      "Ġthose": 1934,
      "used": 1935,
      "Ġanim": 1936,
      "Ġangl": 1937,
      "ĠSt": 1938,
      "ĠSon": 1939,
      "alth": 1940,
      "Ġjeune": 1941,
      "Ġpourrait": 1942,
      "Ġcompren": 1943,
      "Ġanymore": 1944,
      "Ġsix": 1945,
      "ĠÃ©p": 1946,
      "Ġadm": 1947,
      "jeun": 1948,
      "Ġlives": 1949,
      "Ġoubl": 1950,
      "onnes": 1951,
      "Ġtalking": 1952,
      "ĠjournÃ©e": 1953,
      "Ġpian": 1954,
      "Ġdemande": 1955,
      "Ġcaf": 1956,
      "Ġacheter": 1957,
      "ĠgarÃ§on": 1958,
      "Ġlikes": 1959,
      "ĠpiÃ¨ce": 1960,
      "bÃ©": 1961,
      "nes": 1962,
      "pital": 1963,
      "ral": 1964,
      "Ġsat": 1965,
      "Ġloin": 1966,
      "Ġluck": 1967,
      "Ġfi": 1968,
      "Ġfree": 1969,
      "ĠfÃªte": 1970,
      "Ġfilles": 1971,
      "Ġbicy": 1972,
      "ĠTo": 1973,
      "ates": 1974,
      "Ġvite": 1975,
      "Ġhor": 1976,
      "veux": 1977,
      "ĠthÃ©": 1978,
      "Ġpasse": 1979,
      "aissez": 1980,
      "Ġrel": 1981,
      "Ġheart": 1982,
      "Ġann": 1983,
      "ided": 1984,
      "Ġlight": 1985,
      "Ġforg": 1986,
      "Ġcannot": 1987,
      "Ġproch": 1988,
      "ĠfrÃ¨re": 1989,
      "Ġhist": 1990,
      "Ġexact": 1991,
      "Ġamou": 1992,
      "umer": 1993,
      "ĠGo": 1994,
      "Ġapprendre": 1995,
      "Ġord": 1996,
      "Ġrester": 1997,
      "Ġvoud": 1998,
      "ĠcoÃ»": 1999,
      "Ġtravaille": 2000,
      "Ġlongtemps": 2001,
      "Ġbless": 2002,
      "Ġnews": 2003,
      "Ġfamily": 2004,
      "Ġseulement": 2005,
      "Ġcalled": 2006,
      "Ġgirl": 2007,
      "Ġtravailler": 2008,
      "vision": 2009,
      "Ġaucune": 2010,
      "Ġfatig": 2011,
      "Ġbeautiful": 2012,
      "ĠintÃ©ress": 2013,
      "Ġfilm": 2014,
      "Ġdinner": 2015,
      "ĠmÃ©decin": 2016,
      "ctu": 2017,
      "fait": 2018,
      "uro": 2019,
      "vie": 2020,
      "Ġutilis": 2021,
      "Ġty": 2022,
      "Ġtried": 2023,
      "Ġaur": 2024,
      "Ġaider": 2025,
      "ĠdÃ®": 2026,
      "Ġdays": 2027,
      "Ġsl": 2028,
      "Ġsitu": 2029,
      "heure": 2030,
      "Ġcop": 2031,
      "Ġmang": 2032,
      "Ġmight": 2033,
      "Ã©ro": 2034,
      "ited": 2035,
      "Ġfa": 2036,
      "Ġfen": 2037,
      "Ġfood": 2038,
      "Ġface": 2039,
      "quÃ©": 2040,
      "Ġbought": 2041,
      "llow": 2042,
      "ĠTe": 2043,
      "Ġvit": 2044,
      "Ġhours": 2045,
      "Ġgave": 2046,
      "Ġuntil": 2047,
      "Ġquelle": 2048,
      "Ġsuch": 2049,
      "ĠSome": 2050,
      "Ġhaven": 2051,
      "Ġhaving": 2052,
      "ĠAr": 2053,
      "Ġcoming": 2054,
      "aurant": 2055,
      "Ġfroid": 2056,
      "ige": 2057,
      "Ġfaites": 2058,
      "Ġcomprendre": 2059,
      "Ġdist": 2060,
      "cient": 2061,
      "ared": 2062,
      "Ġmari": 2063,
      "asser": 2064,
      "Ġcheveux": 2065,
      "Ġcoff": 2066,
      "Ġentendu": 2067,
      "Ġperm": 2068,
      "Ġlivres": 2069,
      "Ġreading": 2070,
      "Ġtennis": 2071,
      "Ġansw": 2072,
      "Ġintellig": 2073,
      "Ġrestaurant": 2074,
      "Ġstarted": 2075,
      "Ġturned": 2076,
      "ĠJapanese": 2077,
      "Ġsecret": 2078,
      "Ġsituation": 2079,
      "ced": 2080,
      "gg": 2081,
      "ian": 2082,
      "loi": 2083,
      "where": 2084,
      "yez": 2085,
      "oud": 2086,
      "Ġair": 2087,
      "Ġsun": 2088,
      "iner": 2089,
      "Ġcook": 2090,
      "Ġcost": 2091,
      "Ġcours": 2092,
      "Ã©d": 2093,
      "era": 2094,
      "Ġwin": 2095,
      "Ġfeu": 2096,
      "Ġbro": 2097,
      "ating": 2098,
      "Ġhigh": 2099,
      "Ġtoget": 2100,
      "ettes": 2101,
      "rions": 2102,
      "Ġreven": 2103,
      "Ġinter": 2104,
      "Ġsub": 2105,
      "Ġsujet": 2106,
      "alis": 2107,
      "ĠHer": 2108,
      "Ġchau": 2109,
      "Ġrappe": 2110,
      "ĠAm": 2111,
      "Ġparce": 2112,
      "Ġwasn": 2113,
      "pped": 2114,
      "Ġresp": 2115,
      "ression": 2116,
      "ignore": 2117,
      "ĠtÃ©lÃ©phone": 2118,
      "Ġlanguage": 2119,
      "Ġlaisser": 2120,
      "ĠdÃ©solÃ©": 2121,
      "Ġeyes": 2122,
      "Ġwoman": 2123,
      "Ġwindow": 2124,
      "jeuner": 2125,
      "Ġbicycle": 2126,
      "Ġtogether": 2127,
      "lse": 2128,
      "ma": 2129,
      "ming": 2130,
      "most": 2131,
      "ness": 2132,
      "ĠtÃªte": 2133,
      "Ġpic": 2134,
      "Ġpois": 2135,
      "Ġsau": 2136,
      "Ġsac": 2137,
      "Ġsince": 2138,
      "Ġlu": 2139,
      "ĠcÅĵur": 2140,
      "Ġmess": 2141,
      "Ã©p": 2142,
      "Ġni": 2143,
      "Ġnoir": 2144,
      "Ġwish": 2145,
      "Ġwife": 2146,
      "Ġfig": 2147,
      "Ġbout": 2148,
      "Ġvas": 2149,
      "Ġvers": 2150,
      "Ġguy": 2151,
      "Ġown": 2152,
      "rible": 2153,
      "Ġinform": 2154,
      "antÃ©": 2155,
      "Ġelse": 2156,
      "ĠCes": 2157,
      "Ã¨mes": 2158,
      "ĠLay": 2159,
      "Ġdoll": 2160,
      "Ġits": 2161,
      "ĠdonnÃ©": 2162,
      "ured": 2163,
      "Ġprod": 2164,
      "Ġgetting": 2165,
      "Ġvoulez": 2166,
      "Ġworking": 2167,
      "Ġeverybody": 2168,
      "Ġdix": 2169,
      "Ġsuppose": 2170,
      "Ġ10": 2171,
      "Ġjoue": 2172,
      "Ġprie": 2173,
      "riture": 2174,
      "ĠdÃ©teste": 2175,
      "Ġturn": 2176,
      "Ġdecided": 2177,
      "Ġvivre": 2178,
      "Ġtrip": 2179,
      "Ġopinion": 2180,
      "Ġlisten": 2181,
      "Ġpiano": 2182,
      "Ġanswer": 2183,
      "ĠLayla": 2184,
      "ball": 2185,
      "con": 2186,
      "cess": 2187,
      "fort": 2188,
      "rÃ©s": 2189,
      "ward": 2190,
      "Ġz": 2191,
      "Ġir": 2192,
      "Ġaide": 2193,
      "Ġpost": 2194,
      "Ġsound": 2195,
      "Ġsick": 2196,
      "ences": 2197,
      "Ġmil": 2198,
      "Ġnos": 2199,
      "asin": 2200,
      "Ġbir": 2201,
      "Ġvin": 2202,
      "Ġvois": 2203,
      "Ġvient": 2204,
      "aie": 2205,
      "rir": 2206,
      "Ġleg": 2207,
      "Ġsuff": 2208,
      "Ġbelle": 2209,
      "ĠSa": 2210,
      "ĠSp": 2211,
      "Ġtrad": 2212,
      "Ġchant": 2213,
      "ĠEuro": 2214,
      "Ġrac": 2215,
      "Ġlived": 2216,
      "ĠNob": 2217,
      "Ġcelui": 2218,
      "Ġcombien": 2219,
      "Ġtellement": 2220,
      "ĠDonne": 2221,
      "ĠPeu": 2222,
      "ghter": 2223,
      "ĠprÃ¨s": 2224,
      "Ġwhile": 2225,
      "Ġsurv": 2226,
      "Ġcompany": 2227,
      "ĠThese": 2228,
      "Ġthinking": 2229,
      "Ġdevrait": 2230,
      "illez": 2231,
      "assÃ©": 2232,
      "Ġappris": 2233,
      "Ġseems": 2234,
      "Ġesp": 2235,
      "Ġphr": 2236,
      "Ġpeine": 2237,
      "Ġgrande": 2238,
      "Ġattend": 2239,
      "Ġvoulait": 2240,
      "Ġfinished": 2241,
      "ĠÃ©crit": 2242,
      "Ġenfant": 2243,
      "erreur": 2244,
      "Ġmeeting": 2245,
      "ĠEveryone": 2246,
      "Ġpremier": 2247,
      "ĠprÃ©sent": 2248,
      "Ġlorsqu": 2249,
      "accord": 2250,
      "Ġtravers": 2251,
      "Ġnourriture": 2252,
      "Ġthrough": 2253,
      "Ġanglais": 2254,
      "ĠcafÃ©": 2255,
      "ĠdÃ®ner": 2256,
      "Ġcoffee": 2257,
      "cl": 2258,
      "fer": 2259,
      "hors": 2260,
      "lent": 2261,
      "port": 2262,
      "tte": 2263,
      "Ġ3": 2264,
      "Ġtant": 2265,
      "Ġdro": 2266,
      "Ġsour": 2267,
      "Ġste": 2268,
      "Ġcal": 2269,
      "ites": 2270,
      "Ġfou": 2271,
      "Ġbag": 2272,
      "Ġdevez": 2273,
      "Ġhon": 2274,
      "ork": 2275,
      "vel": 2276,
      "Ġgent": 2277,
      "usÃ©": 2278,
      "aise": 2279,
      "rire": 2280,
      "riÃ¨re": 2281,
      "Ġsucc": 2282,
      "ĠSh": 2283,
      "ication": 2284,
      "Ġrap": 2285,
      "ĠDi": 2286,
      "ĠdÃ©f": 2287,
      "quelle": 2288,
      "aller": 2289,
      "urer": 2290,
      "Ġsois": 2291,
      "Ġfruit": 2292,
      "ustral": 2293,
      "Ġexac": 2294,
      "Ġexpect": 2295,
      "Ġrich": 2296,
      "ĠOur": 2297,
      "ĠmaniÃ¨re": 2298,
      "apprÃ©c": 2299,
      "Ġanyone": 2300,
      "Ġpartie": 2301,
      "ĠrÃ©f": 2302,
      "Ã§ons": 2303,
      "ĠGive": 2304,
      "prise": 2305,
      "aby": 2306,
      "Ġwrite": 2307,
      "Ġtax": 2308,
      "Ġpied": 2309,
      "Ġnouvelle": 2310,
      "Ġbecome": 2311,
      "Ġjouer": 2312,
      "Ġmusic": 2313,
      "Ġglad": 2314,
      "ĠrÃ©pon": 2315,
      "Ġpresque": 2316,
      "ĠproblÃ¨mes": 2317,
      "ĠpremiÃ¨re": 2318,
      "Ġnumber": 2319,
      "ĠcolÃ¨re": 2320,
      "Ġembarr": 2321,
      "Ġcomplete": 2322,
      "Ġpretty": 2323,
      "Ġpublic": 2324,
      "Ġfavor": 2325,
      "cte": 2326,
      "fois": 2327,
      "ied": 2328,
      "joy": 2329,
      "mmer": 2330,
      "Ã¯": 2331,
      "Ġerreur": 2332,
      "Ġtre": 2333,
      "Ġpun": 2334,
      "Ġscient": 2335,
      "enf": 2336,
      "ines": 2337,
      "intÃ©": 2338,
      "Ġcry": 2339,
      "Ġmois": 2340,
      "Ã©di": 2341,
      "Ġfit": 2342,
      "Ġfast": 2343,
      "Ġbat": 2344,
      "Ġbure": 2345,
      "ĠTV": 2346,
      "ĠTake": 2347,
      "atre": 2348,
      "Ġdehors": 2349,
      "arrÃª": 2350,
      "Ġvieux": 2351,
      "ĠvÃ©l": 2352,
      "Ġhate": 2353,
      "aig": 2354,
      "lect": 2355,
      "Ġlait": 2356,
      "Ġlaquelle": 2357,
      "Ġreas": 2358,
      "Ġhead": 2359,
      "Ġheard": 2360,
      "iment": 2361,
      "Ġsuiv": 2362,
      "llem": 2363,
      "ĠCould": 2364,
      "ĠLaisse": 2365,
      "utÃ´t": 2366,
      "ower": 2367,
      "Ġris": 2368,
      "ĠAl": 2369,
      "iel": 2370,
      "Ġpark": 2371,
      "ĠDans": 2372,
      "Ġforget": 2373,
      "resse": 2374,
      "illage": 2375,
      "Ġkn": 2376,
      "Ġweather": 2377,
      "ĠdÃ©b": 2378,
      "Ġstory": 2379,
      "Ġsold": 2380,
      "ult": 2381,
      "Ġsho": 2382,
      "Ġamis": 2383,
      "Ġworry": 2384,
      "Ġcompte": 2385,
      "Ġdevriez": 2386,
      "Ġpeuvent": 2387,
      "Ġclose": 2388,
      "Ġclasse": 2389,
      "ĠCome": 2390,
      "ĠGerm": 2391,
      "ressed": 2392,
      "Ġblack": 2393,
      "airs": 2394,
      "Ġnouvelles": 2395,
      "Ġfuture": 2396,
      "Ġregarder": 2397,
      "Ġcause": 2398,
      "Ġimag": 2399,
      "Ġglass": 2400,
      "Ġendroit": 2401,
      "Ġtrying": 2402,
      "Ġgirls": 2403,
      "Ġdispos": 2404,
      "Ġwaiting": 2405,
      "ternet": 2406,
      "Ġpatient": 2407,
      "Ġmagasin": 2408,
      "iction": 2409,
      "Ġrouge": 2410,
      "avantage": 2411,
      "Ġmeilleur": 2412,
      "Ġcorrect": 2413,
      "ĠoubliÃ©": 2414,
      "ĠfaÃ§on": 2415,
      "Ġdollars": 2416,
      "ĠNobody": 2417,
      "Ġbureau": 2418,
      "ever": 2419,
      "iquer": 2420,
      "ron": 2421,
      "rist": 2422,
      "uv": 2423,
      "ream": 2424,
      "Ġdir": 2425,
      "Ġdau": 2426,
      "Ġdroit": 2427,
      "Ġdavantage": 2428,
      "Ġpauv": 2429,
      "ĠsÃ©": 2430,
      "Ġsit": 2431,
      "Ġsign": 2432,
      "ĠsÃ©ri": 2433,
      "ĠsantÃ©": 2434,
      "Ġcir": 2435,
      "Ġmange": 2436,
      "ane": 2437,
      "ann": 2438,
      "Ġfact": 2439,
      "ased": 2440,
      "ettre": 2441,
      "ush": 2442,
      "Ġleav": 2443,
      "cep": 2444,
      "Ġhealth": 2445,
      "Ġeach": 2446,
      "ides": 2447,
      "semble": 2448,
      "ĠplutÃ´t": 2449,
      "Ġless": 2450,
      "ĠPeux": 2451,
      "adore": 2452,
      "avait": 2453,
      "Ġkiss": 2454,
      "Ãªtes": 2455,
      "Ġyours": 2456,
      "ĠdÃ©jeuner": 2457,
      "Ġstore": 2458,
      "ĠVeux": 2459,
      "Ġdess": 2460,
      "arde": 2461,
      "orts": 2462,
      "Ġsoci": 2463,
      "igne": 2464,
      "Ġexist": 2465,
      "Ġalmost": 2466,
      "Ġils": 2467,
      "ĠOne": 2468,
      "ately": 2469,
      "Ġfell": 2470,
      "Ġchemin": 2471,
      "ably": 2472,
      "Ġspend": 2473,
      "Ġarriv": 2474,
      "Ġoffice": 2475,
      "Ġfini": 2476,
      "Ġconnaiss": 2477,
      "Ġretour": 2478,
      "Ġmovie": 2479,
      "Ġpouvoir": 2480,
      "Ġidi": 2481,
      "Ġrendre": 2482,
      "Ġmettre": 2483,
      "Ġmonth": 2484,
      "ĠKe": 2485,
      "Ġfollow": 2486,
      "espÃ¨re": 2487,
      "Ġsecond": 2488,
      "ĠoccupÃ©": 2489,
      "ĠprÃ©fÃ©r": 2490,
      "Ġcertain": 2491,
      "Ġensemble": 2492,
      "Ġstudents": 2493,
      "habitude": 2494,
      "Ġchaque": 2495,
      "Ġrespons": 2496,
      "ĠEurope": 2497,
      "ĠvÃ©lo": 2498,
      "Ġdaughter": 2499,
      "ables": 2500,
      "bres": 2501,
      "em": 2502,
      "elles": 2503,
      "gle": 2504,
      "io": 2505,
      "iver": 2506,
      "lot": 2507,
      "less": 2508,
      "mon": 2509,
      "oon": 2510,
      "oor": 2511,
      "occ": 2512,
      "rap": 2513,
      "uri": 2514,
      "ume": 2515,
      "Ġain": 2516,
      "enn": 2517,
      "enir": 2518,
      "istes": 2519,
      "ination": 2520,
      "Ġmen": 2521,
      "Ġmaking": 2522,
      "erci": 2523,
      "Ġfau": 2524,
      "Ġfore": 2525,
      "Ġfire": 2526,
      "Ġbur": 2527,
      "Ġdeath": 2528,
      "ĠJust": 2529,
      "ĠJoh": 2530,
      "aille": 2531,
      "ĠÃ¢": 2532,
      "Ġgame": 2533,
      "Ġpast": 2534,
      "Ġjoin": 2535,
      "rog": 2536,
      "Ġenjoy": 2537,
      "apon": 2538,
      "Ġlieu": 2539,
      "Ġplais": 2540,
      "ĠApp": 2541,
      "tur": 2542,
      "Ġkid": 2543,
      "nel": 2544,
      "Ġwear": 2545,
      "Ġpourrais": 2546,
      "ĠÃ©tais": 2547,
      "ards": 2548,
      "Ġconv": 2549,
      "Ġriche": 2550,
      "Ġamie": 2551,
      "Ġwords": 2552,
      "ĠOh": 2553,
      "usement": 2554,
      "oyÃ©": 2555,
      "oyer": 2556,
      "oyez": 2557,
      "Ġfelt": 2558,
      "ists": 2559,
      "Ġserait": 2560,
      "ĠÃ©v": 2561,
      "Ġchem": 2562,
      "Ġphone": 2563,
      "Ġcontre": 2564,
      "Ġliving": 2565,
      "Ġpasser": 2566,
      "Ġsavait": 2567,
      "ĠpensÃ©": 2568,
      "Ġpenser": 2569,
      "Ġdied": 2570,
      "Ġmalade": 2571,
      "ĠdÃ©cidÃ©": 2572,
      "Ġsupposed": 2573,
      "Ġconnais": 2574,
      "Ġpoor": 2575,
      "Ġpouvons": 2576,
      "Ġlearned": 2577,
      "ĠgarÃ§ons": 2578,
      "Ġdernier": 2579,
      "Ġaimer": 2580,
      "Ġmots": 2581,
      "oking": 2582,
      "Ġhands": 2583,
      "ĠsÃ»re": 2584,
      "Ġhurt": 2585,
      "Ġlorsque": 2586,
      "Ġaucun": 2587,
      "Ġprend": 2588,
      "ĠprÃªt": 2589,
      "Ġdormir": 2590,
      "ĠimmÃ©di": 2591,
      "Ġborn": 2592,
      "Ġprobable": 2593,
      "Ġkilled": 2594,
      "Ġadvice": 2595,
      "Ġlucky": 2596,
      "Ġforgot": 2597,
      "ĠTell": 2598,
      "lic": 2599,
      "ze": 2600,
      "Ġdark": 2601,
      "Ġdiction": 2602,
      "Ġsil": 2603,
      "Ġsoi": 2604,
      "ina": 2605,
      "inst": 2606,
      "Ġcut": 2607,
      "iter": 2608,
      "Ġnager": 2609,
      "Ġwine": 2610,
      "Ġfils": 2611,
      "ĠbÃ©": 2612,
      "Ġbar": 2613,
      "Ġbill": 2614,
      "Ġball": 2615,
      "ĠbiÃ¨re": 2616,
      "Ġbaby": 2617,
      "ateur": 2618,
      "ative": 2619,
      "Ġvillage": 2620,
      "Ġquatre": 2621,
      "aim": 2622,
      "Ġgare": 2623,
      "Ġheav": 2624,
      "Ġsuc": 2625,
      "Ġev": 2626,
      "Ġangry": 2627,
      "uteur": 2628,
      "ĠMr": 2629,
      "ĠrÃ©c": 2630,
      "irt": 2631,
      "ĠNot": 2632,
      "ĠAmer": 2633,
      "Ġcomes": 2634,
      "Ġtemp": 2635,
      "ĠDes": 2636,
      "aught": 2637,
      "amp": 2638,
      "amment": 2639,
      "ande": 2640,
      "tures": 2641,
      "ĠÃ©tr": 2642,
      "Ãªcher": 2643,
      "Ġpron": 2644,
      "Ġdonner": 2645,
      "Ġallons": 2646,
      "Ġprodu": 2647,
      "Ġrid": 2648,
      "enses": 2649,
      "ĠThank": 2650,
      "Ġusu": 2651,
      "Ġserais": 2652,
      "Ġcraz": 2653,
      "Ġappre": 2654,
      "ĠNew": 2655,
      "Ġrespect": 2656,
      "Ġressemble": 2657,
      "Ġworks": 2658,
      "Ġago": 2659,
      "Ġthank": 2660,
      "Ġarrived": 2661,
      "Ġsomeone": 2662,
      "Ġcommun": 2663,
      "Ġtomber": 2664,
      "Ġ19": 2665,
      "Ġagainst": 2666,
      "Ġprix": 2667,
      "Ġregarde": 2668,
      "Ġothers": 2669,
      "Ġmusique": 2670,
      "Ġpayer": 2671,
      "Ġtrouble": 2672,
      "Ġdispose": 2673,
      "Ġexper": 2674,
      "Ġlangues": 2675,
      "Ġcareful": 2676,
      "Ġ20": 2677,
      "ĠlaissÃ©": 2678,
      "ĠessayÃ©": 2679,
      "Ġfaim": 2680,
      "...": 2681,
      "Ġcuisine": 2682,
      "Ġbehind": 2683,
      "Ġdifferent": 2684,
      "Ġsatis": 2685,
      "ĠfatiguÃ©": 2686,
      "ĠfenÃªtre": 2687,
      "Ġmilk": 2688,
      "ĠPeut": 2689,
      "Ġrapide": 2690,
      "ĠJohn": 2691,
      "ĠAmeric": 2692,
      "cul": 2693,
      "gy": 2694,
      "iend": 2695,
      "ieurs": 2696,
      "na": 2697,
      "uf": 2698,
      "ump": 2699,
      "Ġtas": 2700,
      "Ġable": 2701,
      "Ġpress": 2702,
      "Ġsy": 2703,
      "Ġsus": 2704,
      "Ġsand": 2705,
      "Ġsnow": 2706,
      "enne": 2707,
      "isc": 2708,
      "Ġcri": 2709,
      "Ġcity": 2710,
      "Ġmed": 2711,
      "Ġmoy": 2712,
      "Ã©li": 2713,
      "anche": 2714,
      "Ġnu": 2715,
      "ĠnÃ©c": 2716,
      "Ġfon": 2717,
      "Ġfont": 2718,
      "Ġfond": 2719,
      "Ġban": 2720,
      "ĠTous": 2721,
      "Ġdead": 2722,
      "Ġquite": 2723,
      "unk": 2724,
      "ails": 2725,
      "ĠgÃ¢": 2726,
      "Ġnecess": 2727,
      "tez": 2728,
      "oice": 2729,
      "room": 2730,
      "Ġearth": 2731,
      "Ã¨ne": 2732,
      "ĠSm": 2733,
      "Ġtrust": 2734,
      "Ġtrave": 2735,
      "Ġchanger": 2736,
      "ĠNotre": 2737,
      "ĠAp": 2738,
      "Ġtele": 2739,
      "Ġteach": 2740,
      "Ġparv": 2741,
      "ĠDis": 2742,
      "ĠPren": 2743,
      "avons": 2744,
      "urg": 2745,
      "ĠdÃ©m": 2746,
      "Ġstand": 2747,
      "ĠVou": 2748,
      "Ġargent": 2749,
      "Ġsafe": 2750,
      "aken": 2751,
      "Ġmanque": 2752,
      "ĠWhich": 2753,
      "Ġverre": 2754,
      "importe": 2755,
      "ouvrir": 2756,
      "Ġserious": 2757,
      "Ġtouch": 2758,
      "Ġneeds": 2759,
      "Ġwouldn": 2760,
      "Ġrentre": 2761,
      "Ġcontent": 2762,
      "Ġarriver": 2763,
      "Ġwhole": 2764,
      "fect": 2765,
      "ĠprÃ©v": 2766,
      "Ġheureuse": 2767,
      "ĠderriÃ¨re": 2768,
      "Ġbetwe": 2769,
      "ĠChrist": 2770,
      "Ġpolit": 2771,
      "Ġactu": 2772,
      "Ġrencontrer": 2773,
      "Ġreconn": 2774,
      "exp": 2775,
      "Ġpuisse": 2776,
      "Ġproblems": 2777,
      "Ġinterested": 2778,
      "ĠcommencÃ©": 2779,
      "Ġviend": 2780,
      "Ġstrong": 2781,
      "ĠÃīt": 2782,
      "Ġbegin": 2783,
      "Ġconcent": 2784,
      "Ġstudent": 2785,
      "Ġtransl": 2786,
      "Ġnature": 2787,
      "Ġlarge": 2788,
      "Ġsurprised": 2789,
      "Ġvacances": 2790,
      "Ġanimal": 2791,
      "Ġexactly": 2792,
      "Ġamoureux": 2793,
      "ĠmangÃ©": 2794,
      "Ġintelligent": 2795,
      "Ġembarrass": 2796,
      "Ġpauvre": 2797,
      "Ġainsi": 2798,
      "ĠimmÃ©diate": 2799,
      "Ġcrazy": 2800,
      "Ġappreci": 2801,
      "ĠnÃ©cess": 2802,
      "Ġbetween": 2803,
      "ah": 2804,
      "bil": 2805,
      "gn": 2806,
      "gar": 2807,
      "ny": 2808,
      "pir": 2809,
      "ru": 2810,
      "rÃ©e": 2811,
      "rÃªte": 2812,
      "so": 2813,
      "ttes": 2814,
      "uer": 2815,
      "Ġ;": 2816,
      "Ġill": 2817,
      "Ġtim": 2818,
      "Ġtick": 2819,
      "Ġpou": 2820,
      "Ġset": 2821,
      "Ġsout": 2822,
      "Ġlose": 2823,
      "Ġlater": 2824,
      "enc": 2825,
      "isÃ©": 2826,
      "ision": 2827,
      "inq": 2828,
      "Ġcoin": 2829,
      "Ġmour": 2830,
      "its": 2831,
      "ither": 2832,
      "itÃ©s": 2833,
      "Ġfive": 2834,
      "Ġfish": 2835,
      "Ġfleur": 2836,
      "Ġfumer": 2837,
      "ash": 2838,
      "lly": 2839,
      "ĠTr": 2840,
      "ĠTerre": 2841,
      "Ġvir": 2842,
      "Ġvide": 2843,
      "Ġhal": 2844,
      "ĠJim": 2845,
      "Ġgag": 2846,
      "Ġguit": 2847,
      "Ġgrow": 2848,
      "Ġthen": 2849,
      "user": 2850,
      "Ġjapon": 2851,
      "euillez": 2852,
      "Ġnear": 2853,
      "ries": 2854,
      "Ġlau": 2855,
      "Ġsuper": 2856,
      "Ġsummer": 2857,
      "Ġelles": 2858,
      "Ġbeer": 2859,
      "idi": 2860,
      "ĠSe": 2861,
      "Ġtrait": 2862,
      "Ġchois": 2863,
      "ĠMes": 2864,
      "ĠEarth": 2865,
      "Ġrad": 2866,
      "Ġrather": 2867,
      "Ġlibre": 2868,
      "Ġplup": 2869,
      "aines": 2870,
      "Ġtelle": 2871,
      "Ġparc": 2872,
      "amour": 2873,
      "ĠPouvez": 2874,
      "Ġdonc": 2875,
      "olie": 2876,
      "ĠVeuillez": 2877,
      "Ġknown": 2878,
      "Ġshot": 2879,
      "Ġsavez": 2880,
      "Ġalors": 2881,
      "Ġcompris": 2882,
      "Ġthinks": 2883,
      "ched": 2884,
      "Ġdevoir": 2885,
      "Ġparticul": 2886,
      "Ġmarche": 2887,
      "Ġmarcher": 2888,
      "ĠmarchÃ©": 2889,
      "Ġserai": 2890,
      "Ġorder": 2891,
      "Ġlonger": 2892,
      "Ġrock": 2893,
      "Ġtonight": 2894,
      "Ġpersonnes": 2895,
      "Ġcommence": 2896,
      "Ġvoulons": 2897,
      "Ġvenu": 2898,
      "Ġconstr": 2899,
      "Ã©rience": 2900,
      "ĠInternet": 2901,
      "Ġbecame": 2902,
      "ĠconnaÃ®t": 2903,
      "Ġsentence": 2904,
      "Ġfloor": 2905,
      "Ġpouvait": 2906,
      "Ġplaying": 2907,
      "Ġguess": 2908,
      "Ġpromis": 2909,
      "Ġpromise": 2910,
      "Ġswe": 2911,
      "othes": 2912,
      "Ġcouple": 2913,
      "Ġenvie": 2914,
      "Ġsleeping": 2915,
      "Ġhurry": 2916,
      "Ġfoot": 2917,
      "Ġemploi": 2918,
      "Ġessayer": 2919,
      "Ġboulot": 2920,
      "Ġobject": 2921,
      "ĠdÃ©solÃ©e": 2922,
      "Ġviol": 2923,
      "Ġterrible": 2924,
      "Ġlunch": 2925,
      "Ġwriting": 2926,
      "Ġswimming": 2927,
      "Ġprofesseur": 2928,
      "Ġgrosse": 2929,
      "Ġprochain": 2930,
      "Ġhistoire": 2931,
      "Ġordin": 2932,
      "Ġvoudrais": 2933,
      "Ġchaud": 2934,
      "Ġmessage": 2935,
      "Ġproduit": 2936,
      "Ġsurviv": 2937,
      "ĠDieu": 2938,
      "Ġexactement": 2939,
      "apprÃ©cie": 2940,
      "Ġscientif": 2941,
      "ĠKeep": 2942,
      "ĠbÃ©bÃ©": 2943,
      "ĠVoulez": 2944,
      "ĠimmÃ©diatement": 2945,
      "ĠnÃ©cessaire": 2946,
      "Ġplupart": 2947,
      "bes": 2948,
      "cal": 2949,
      "cuse": 2950,
      "gr": 2951,
      "hy": 2952,
      "hor": 2953,
      "hÃ´": 2954,
      "lus": 2955,
      "lÃł": 2956,
      "mat": 2957,
      "yo": 2958,
      "«l": 2959,
      "Ã«l": 2960,
      "Ġing": 2961,
      "Ġterre": 2962,
      "Ġtaking": 2963,
      "ouver": 2964,
      "oubl": 2965,
      "Ġdest": 2966,
      "Ġpie": 2967,
      "Ġsong": 2968,
      "Ġsorte": 2969,
      "Ġlis": 2970,
      "Ġleurs": 2971,
      "ones": 2972,
      "iness": 2973,
      "Ġcake": 2974,
      "Ġcinq": 2975,
      "erai": 2976,
      "Ġnorm": 2977,
      "Ġboth": 2978,
      "ĠTon": 2979,
      "ĠTok": 2980,
      "Ġval": 2981,
      "Ġvendre": 2982,
      "Ġtown": 2983,
      "union": 2984,
      "Ġgau": 2985,
      "edi": 2986,
      "Ġneige": 2987,
      "ospital": 2988,
      "Ġleast": 2989,
      "ili": 2990,
      "Ġinvent": 2991,
      "oie": 2992,
      "ceed": 2993,
      "iments": 2994,
      "Ġsucre": 2995,
      "Ġeng": 2996,
      "Ã¨tement": 2997,
      "ĠLors": 2998,
      "ape": 2999,
      "ĠMerci": 3000,
      "Ġrum": 3001,
      "Ġrare": 3002,
      "Ġplu": 3003,
      "ĠNow": 3004,
      "ĠAllez": 3005,
      "ĠAustral": 3006,
      "Ġcelle": 3007,
      "ĠparlÃ©": 3008,
      "ĠprÃ©c": 3009,
      "Ġdonne": 3010,
      "Ġsoyez": 3011,
      "Ġfront": 3012,
      "Ġconcer": 3013,
      "Ġdevrions": 3014,
      "ĠFais": 3015,
      "Ġparti": 3016,
      "ĠComme": 3017,
      "Ã§u": 3018,
      "Ġseem": 3019,
      "Ġlooked": 3020,
      "Ã®te": 3021,
      "Ġagree": 3022,
      "Ġcolle": 3023,
      "Ġimpression": 3024,
      "lfriend": 3025,
      "ientÃ´t": 3026,
      "lÃ©ch": 3027,
      "Ġdirect": 3028,
      "Ġprefer": 3029,
      "Ġrent": 3030,
      "Ã¢t": 3031,
      "Ġpenses": 3032,
      "Ġmains": 3033,
      "Åĵuf": 3034,
      "ized": 3035,
      "Ġcourse": 3036,
      "Ġaccept": 3037,
      "appelle": 3038,
      "ĠrencontrÃ©": 3039,
      "ĠtÃ©lÃ©vision": 3040,
      "Ġlanguages": 3041,
      "Ġconfi": 3042,
      "Ġphotos": 3043,
      "Ġcondition": 3044,
      "Ġefforts": 3045,
      "ĠboÃ®te": 3046,
      "Ġclean": 3047,
      "Ġclear": 3048,
      "ĠnumÃ©ro": 3049,
      "Ġroute": 3050,
      "Ġinteresting": 3051,
      "Ġenseign": 3052,
      "Ġopened": 3053,
      "Ġwatching": 3054,
      "Ġchauss": 3055,
      "ĠExcuse": 3056,
      "Ġinformation": 3057,
      "arrÃªter": 3058,
      "Ġreason": 3059,
      "llemand": 3060,
      "Ġidiot": 3061,
      "Ġappreciate": 3062,
      "Ġhalf": 3063,
      "Ġjaponais": 3064,
      "ĠTokyo": 3065,
      "cu": 3066,
      "cent": 3067,
      "dd": 3068,
      "ered": 3069,
      "gu": 3070,
      "gment": 3071,
      "lÃ¨": 3072,
      "land": 3073,
      "mas": 3074,
      "naire": 3075,
      "ove": 3076,
      "ps": 3077,
      "ple": 3078,
      "pare": 3079,
      "pagne": 3080,
      "rom": 3081,
      "rons": 3082,
      "uc": 3083,
      "uge": 3084,
      "Ã§a": 3085,
      "Ġtent": 3086,
      "Ġtest": 3087,
      "Ġtreat": 3088,
      "oun": 3089,
      "rew": 3090,
      "Ġdate": 3091,
      "Ġdress": 3092,
      "Ġdream": 3093,
      "Ġsense": 3094,
      "Ġlum": 3095,
      "onde": 3096,
      "Ġcit": 3097,
      "Ġcent": 3098,
      "Ġcul": 3099,
      "Ġcaught": 3100,
      "Ġmill": 3101,
      "Ã©v": 3102,
      "Ġferm": 3103,
      "ases": 3104,
      "ĠbientÃ´t": 3105,
      "ĠvÃ©c": 3106,
      "Ġvaut": 3107,
      "Ġviens": 3108,
      "Ġhospital": 3109,
      "unes": 3110,
      "Ġjet": 3111,
      "ossible": 3112,
      "Ġrece": 3113,
      "Ġrecher": 3114,
      "Ġretur": 3115,
      "oici": 3116,
      "Ġmean": 3117,
      "Ġsuit": 3118,
      "Ġenn": 3119,
      "aper": 3120,
      "ayer": 3121,
      "ics": 3122,
      "outer": 3123,
      "Ã©tr": 3124,
      "Ġchap": 3125,
      "Ġchante": 3126,
      "Ġchoix": 3127,
      "ĠEt": 3128,
      "Ġrapp": 3129,
      "Ġsel": 3130,
      "irai": 3131,
      "ĠAh": 3132,
      "agit": 3133,
      "Ġwash": 3134,
      "uritÃ©": 3135,
      "Ġpract": 3136,
      "Ġdesc": 3137,
      "uel": 3138,
      "ensÃ©": 3139,
      "ensive": 3140,
      "Ã©curitÃ©": 3141,
      "Ġamb": 3142,
      "Ġalso": 3143,
      "cier": 3144,
      "cial": 3145,
      "Ġdevant": 3146,
      "bli": 3147,
      "autres": 3148,
      "ĠrÃ©union": 3149,
      "ĠÃ©ch": 3150,
      "Ġneeded": 3151,
      "Ġappro": 3152,
      "Ġhommes": 3153,
      "Ã´le": 3154,
      "Ġcoll": 3155,
      "Ġperd": 3156,
      "Ġperdre": 3157,
      "Ġpleurer": 3158,
      "Ġsport": 3159,
      "Ġcontrib": 3160,
      "Ġtelling": 3161,
      "Ġattendre": 3162,
      "Ã¢che": 3163,
      "Ġmath": 3164,
      "Ġposer": 3165,
      "Ġdipl": 3166,
      "Ġsaying": 3167,
      "Ġtenir": 3168,
      "Ġpouvais": 3169,
      "Ġferai": 3170,
      "Ġcourant": 3171,
      "Ġgirlfriend": 3172,
      "ĠmÃ©d": 3173,
      "Ġeasily": 3174,
      "Ġboys": 3175,
      "Ġchats": 3176,
      "ĠEverybody": 3177,
      "Ġconduire": 3178,
      "Ġmagaz": 3179,
      "Ġhold": 3180,
      "Ġbox": 3181,
      "Ġcertaine": 3182,
      "ĠcomplÃ¨tement": 3183,
      "Ġgenre": 3184,
      "Ġeye": 3185,
      "ĠchangÃ©": 3186,
      "ĠMaybe": 3187,
      "Ġprobably": 3188,
      "Ġhotel": 3189,
      "Ġwritten": 3190,
      "Ġdrive": 3191,
      "Ġhungry": 3192,
      "Ġaddress": 3193,
      "Ġstupid": 3194,
      "Ġcomprends": 3195,
      "Ġfix": 3196,
      "Ġutiliser": 3197,
      "Ġtype": 3198,
      "Ġbroke": 3199,
      "Ġpicture": 3200,
      "Ġpoisson": 3201,
      "Ġbirth": 3202,
      "Ġphrase": 3203,
      "ĠrÃ©flÃ©ch": 3204,
      "Ġfavorite": 3205,
      "Ġleaving": 3206,
      "ĠÃ¢ge": 3207,
      "Ġchemise": 3208,
      "Ġsucceed": 3209,
      "Ġsandw": 3210,
      "Ġtravel": 3211,
      "Ġrentrer": 3212,
      "Ġlaugh": 3213,
      "aw": 3214,
      "aff": 3215,
      "eff": 3216,
      "fast": 3217,
      "fied": 3218,
      "gne": 3219,
      "hait": 3220,
      "hum": 3221,
      "hist": 3222,
      "ket": 3223,
      "midi": 3224,
      "opp": 3225,
      "ras": 3226,
      "side": 3227,
      "val": 3228,
      "zz": 3229,
      "Ġ5": 3230,
      "ĠâĢ": 3231,
      "Ġait": 3232,
      "Ġdim": 3233,
      "Ġpous": 3234,
      "Ġpot": 3235,
      "Ġpoi": 3236,
      "Ġspr": 3237,
      "ĠsÃ©curitÃ©": 3238,
      "ism": 3239,
      "Ġmam": 3240,
      "anish": 3241,
      "itted": 3242,
      "Ġfine": 3243,
      "Ġbois": 3244,
      "Ġboire": 3245,
      "arre": 3246,
      "Ġhar": 3247,
      "Ġhour": 3248,
      "Ġtop": 3249,
      "Ġtot": 3250,
      "ĠJane": 3251,
      "veillÃ©": 3252,
      "Ġgiv": 3253,
      "Ġthir": 3254,
      "Ġobl": 3255,
      "tel": 3256,
      "Ġrequ": 3257,
      "antes": 3258,
      "Ġsugar": 3259,
      "ĠCet": 3260,
      "ĠCert": 3261,
      "Ã¨que": 3262,
      "owers": 3263,
      "ĠSes": 3264,
      "ĠSun": 3265,
      "Ġcho": 3266,
      "Ġchans": 3267,
      "Ġchoc": 3268,
      "Ġchoice": 3269,
      "ĠrÃª": 3270,
      "Ġserez": 3271,
      "Ġteam": 3272,
      "Ġparl": 3273,
      "Ġparfois": 3274,
      "ĠDites": 3275,
      "ĠPenses": 3276,
      "Ġweren": 3277,
      "ended": 3278,
      "ĠÃ©tiez": 3279,
      "ĠÃ©tud": 3280,
      "Ġprud": 3281,
      "ĠdÃ©g": 3282,
      "olu": 3283,
      "Ġstat": 3284,
      "quel": 3285,
      "orer": 3286,
      "Ġfrapp": 3287,
      "ĠItal": 3288,
      "Ġshirt": 3289,
      "Ġride": 3290,
      "Ġarrog": 3291,
      "Ġherself": 3292,
      "Ġcomputer": 3293,
      "Ġanybody": 3294,
      "ettez": 3295,
      "areil": 3296,
      "Ġcrit": 3297,
      "Ġmach": 3298,
      "Ġreste": 3299,
      "Ġpensez": 3300,
      "Ġentendre": 3301,
      "ĠPourriez": 3302,
      "Ġpleuv": 3303,
      "Ġcontin": 3304,
      "ission": 3305,
      "Ã¢mes": 3306,
      "ignor": 3307,
      "Ġsembl": 3308,
      "Ġconst": 3309,
      "Ġregre": 3310,
      "Ġsmoke": 3311,
      "aÃ®tre": 3312,
      "Ġsupport": 3313,
      "Ġpropre": 3314,
      "Ġkept": 3315,
      "Ġveulent": 3316,
      "Ġrendu": 3317,
      "Ġmontre": 3318,
      "Ġsouhait": 3319,
      "Ġcats": 3320,
      "Ġcatch": 3321,
      "Ġlearning": 3322,
      "Ġsouviens": 3323,
      "Ġfemmes": 3324,
      "Ġrecomm": 3325,
      "ternoon": 3326,
      "Ġexpensive": 3327,
      "Ġdiscuter": 3328,
      "ĠprÃ©sident": 3329,
      "Ġstayed": 3330,
      "Ġevening": 3331,
      "Ġcapable": 3332,
      "Ġhabite": 3333,
      "Ġexplain": 3334,
      "Ġchanged": 3335,
      "Ġimmedi": 3336,
      "quipe": 3337,
      "Ġcharge": 3338,
      "Ġdevenu": 3339,
      "Ġdevenir": 3340,
      "ĠgÃ©nÃ©r": 3341,
      "ĠarrÃªtÃ©": 3342,
      "ĠÃ©galement": 3343,
      "Ġmistake": 3344,
      "ĠGod": 3345,
      "faite": 3346,
      "Ġslow": 3347,
      "Ġtaxi": 3348,
      "Ġcompletely": 3349,
      "Ġheavy": 3350,
      "Ġexperience": 3351,
      "Ġfonction": 3352,
      "ĠgÃ¢teau": 3353,
      "Ġticket": 3354,
      "Ġradio": 3355,
      "Ġconfiance": 3356,
      "Ġsandwich": 3357,
      "Ġoblig": 3358,
      "bs": 3359,
      "bas": 3360,
      "bor": 3361,
      "ef": 3362,
      "fin": 3363,
      "gÃ©": 3364,
      "ged": 3365,
      "ik": 3366,
      "iÃ¨res": 3367,
      "ken": 3368,
      "old": 3369,
      "tain": 3370,
      "vant": 3371,
      "Ġ4": 3372,
      "Ġum": 3373,
      "Ġtree": 3374,
      "reuse": 3375,
      "Ġden": 3376,
      "Ġdent": 3377,
      "Ġdort": 3378,
      "Ġdiv": 3379,
      "Ġdange": 3380,
      "Ġpick": 3381,
      "Ġporter": 3382,
      "Ġsqu": 3383,
      "ĠlÃ©g": 3384,
      "isme": 3385,
      "ined": 3386,
      "Ġcos": 3387,
      "Ġceux": 3388,
      "Ġcase": 3389,
      "Ġcuri": 3390,
      "Ġmit": 3391,
      "Ġment": 3392,
      "ĠmÃ©t": 3393,
      "Ġmign": 3394,
      "itive": 3395,
      "ĠnÃ©": 3396,
      "Ġwhe": 3397,
      "Ġfus": 3398,
      "Ġfuck": 3399,
      "asion": 3400,
      "aster": 3401,
      "Ġble": 3402,
      "Ġbot": 3403,
      "ĠbÃ¢t": 3404,
      "lling": 3405,
      "atch": 3406,
      "atif": 3407,
      "Ġvont": 3408,
      "Ġvict": 3409,
      "Ġhang": 3410,
      "ĠhÃ´": 3411,
      "Ġquick": 3412,
      "univers": 3413,
      "ett": 3414,
      "ĠgÃ©": 3415,
      "Ġgun": 3416,
      "Ġgone": 3417,
      "Ġneigh": 3418,
      "osc": 3419,
      "ric": 3420,
      "rier": 3421,
      "Ġrepr": 3422,
      "Ġinn": 3423,
      "Ġincre": 3424,
      "Ġsuite": 3425,
      "Ġsugg": 3426,
      "Ġegg": 3427,
      "ĠLind": 3428,
      "ĠLaissez": 3429,
      "owed": 3430,
      "alitÃ©": 3431,
      "ices": 3432,
      "icle": 3433,
      "Ã©tud": 3434,
      "Ġplain": 3435,
      "Ġplays": 3436,
      "ĠAnd": 3437,
      "Ġparap": 3438,
      "aged": 3439,
      "Ġform": 3440,
      "resp": 3441,
      "amed": 3442,
      "ontÃ©": 3443,
      "ters": 3444,
      "ĠPas": 3445,
      "ĠPut": 3446,
      "rente": 3447,
      "tume": 3448,
      "illed": 3449,
      "Ãªt": 3450,
      "Ġaugment": 3451,
      "olution": 3452,
      "Ġallait": 3453,
      "ĠVoici": 3454,
      "Ġatte": 3455,
      "ĠtuÃ©": 3456,
      "Ġavais": 3457,
      "orth": 3458,
      "Ġsole": 3459,
      "Ġshort": 3460,
      "Ġamus": 3461,
      "irer": 3462,
      "Ġcompagn": 3463,
      "Ġhasn": 3464,
      "ived": 3465,
      "Ġquelcon": 3466,
      "Ġclim": 3467,
      "Ġclosed": 3468,
      "Ġclothes": 3469,
      "Ġmarry": 3470,
      "Ġcross": 3471,
      "prit": 3472,
      "Ġadvis": 3473,
      "Ġworked": 3474,
      "Ġcoat": 3475,
      "Ġdites": 3476,
      "Ġimpat": 3477,
      "Ġimpro": 3478,
      "Ġimpossible": 3479,
      "Ġshouldn": 3480,
      "Ġrende": 3481,
      "brell": 3482,
      "ĠbrÃ»": 3483,
      "Ã¢tre": 3484,
      "Ġcommand": 3485,
      "Ġwrote": 3486,
      "Ġposte": 3487,
      "Ġafternoon": 3488,
      "ĠÃ©crire": 3489,
      "Ġjourn": 3490,
      "Ġmalad": 3491,
      "Ã©ric": 3492,
      "Ġspeaks": 3493,
      "Ġdemander": 3494,
      "Ġsometimes": 3495,
      "Ġsmoking": 3496,
      "Ġ15": 3497,
      "Ġvisite": 3498,
      "Ġkey": 3499,
      "Ġkeys": 3500,
      "Ġfeeling": 3501,
      "Ġdrunk": 3502,
      "Ġaccep": 3503,
      "Ġminute": 3504,
      "Ġfaisait": 3505,
      "Ġpresent": 3506,
      "anced": 3507,
      "Ġ200": 3508,
      "Ġenvir": 3509,
      "ĠenvoyÃ©": 3510,
      "Ġinside": 3511,
      "Ġinvited": 3512,
      "ĠappelÃ©": 3513,
      "accident": 3514,
      "Ġpuiss": 3515,
      "Ġfacilement": 3516,
      "ĠAuc": 3517,
      "Ġeffe": 3518,
      "ĠAny": 3519,
      "ĠprÃ©fÃ¨re": 3520,
      "Ġcomplain": 3521,
      "Ġabsent": 3522,
      "Ġbuild": 3523,
      "Ġbegan": 3524,
      "agnol": 3525,
      "Ġfull": 3526,
      "Ġfurent": 3527,
      "Ġpaper": 3528,
      "ĠÃ©tudiants": 3529,
      "Ġmount": 3530,
      "Ġdangerous": 3531,
      "ĠStop": 3532,
      "ĠToday": 3533,
      "ĠArrÃªte": 3534,
      "Ġrevenir": 3535,
      "Ġlegs": 3536,
      "ĠSpanish": 3537,
      "ĠsuccÃ¨s": 3538,
      "ĠrÃ©ponse": 3539,
      "Ġcrying": 3540,
      "ĠdÃ©but": 3541,
      "ĠGerman": 3542,
      "Ġprobablement": 3543,
      "Ġpronon": 3544,
      "Ġrapidement": 3545,
      "Ġnecessary": 3546,
      "ĠSmith": 3547,
      "Ġparviens": 3548,
      "Ġfleurs": 3549,
      "ĠLorsque": 3550,
      "Ġbirthday": 3551,
      "Ġmachine": 3552,
      "Ġumbrell": 3553,
      "Ġcostume": 3554,
      "Ġquickly": 3555,
      "ĠLinda": 3556,
      "alle": 3557,
      "aque": 3558,
      "by": 3559,
      "band": 3560,
      "for": 3561,
      "ges": 3562,
      "gan": 3563,
      "gue": 3564,
      "mi": 3565,
      "mment": 3566,
      "mÃ¨re": 3567,
      "pes": 3568,
      "ta": 3569,
      "ton": 3570,
      "Ġer": 3571,
      "Ġtal": 3572,
      "Ġtakes": 3573,
      "Ġtaille": 3574,
      "Ġtaken": 3575,
      "oute": 3576,
      "oudre": 3577,
      "Ġdance": 3578,
      "Ġpen": 3579,
      "Ġlend": 3580,
      "ener": 3581,
      "isamment": 3582,
      "inte": 3583,
      "inter": 3584,
      "ĠcÃ´": 3585,
      "Ġcute": 3586,
      "ĠcinÃ©": 3587,
      "Ġmoit": 3588,
      "erc": 3589,
      "annÃ©e": 3590,
      "itch": 3591,
      "Ġnerve": 3592,
      "Ġfre": 3593,
      "Ġfasse": 3594,
      "omb": 3595,
      "quent": 3596,
      "ata": 3597,
      "Ġdeal": 3598,
      "Ġve": 3599,
      "Ġhat": 3600,
      "Ġhus": 3601,
      "Ġhors": 3602,
      "Ġquot": 3603,
      "enty": 3604,
      "eth": 3605,
      "ety": 3606,
      "Ġgives": 3607,
      "Ġunivers": 3608,
      "Ġopp": 3609,
      "Ġoise": 3610,
      "ots": 3611,
      "eure": 3612,
      "Ġlaw": 3613,
      "ilt": 3614,
      "ilos": 3615,
      "oivent": 3616,
      "Ã¨de": 3617,
      "ĠannÃ©e": 3618,
      "ows": 3619,
      "icon": 3620,
      "iche": 3621,
      "Ġran": 3622,
      "Ġlibr": 3623,
      "Ġsea": 3624,
      "ira": 3625,
      "ĠNon": 3626,
      "ĠAf": 3627,
      "ieuse": 3628,
      "Ġforward": 3629,
      "rest": 3630,
      "ama": 3631,
      "adm": 3632,
      "Ġjeunes": 3633,
      "ĠHere": 3634,
      "ury": 3635,
      "ural": 3636,
      "Ġprat": 3637,
      "ĠprÃªte": 3638,
      "iennent": 3639,
      "ĠdÃ©r": 3640,
      "Ġstars": 3641,
      "ĠallÃ©s": 3642,
      "ĠVotre": 3643,
      "Ġath": 3644,
      "Ġplusieurs": 3645,
      "essaie": 3646,
      "Ġriv": 3647,
      "Ġriver": 3648,
      "ĠOui": 3649,
      "Ġmanteau": 3650,
      "ĠFe": 3651,
      "ĠsiÃ¨": 3652,
      "sibil": 3653,
      "istance": 3654,
      "ĠclÃ©": 3655,
      "ĠclÃ©s": 3656,
      "ĠrÃ©g": 3657,
      "ĠrÃ©ussi": 3658,
      "Ġmarier": 3659,
      "ĠÃ©quipe": 3660,
      "Ã»t": 3661,
      "ĠapprÃ©c": 3662,
      "Ġmaj": 3663,
      "tenir": 3664,
      "Ġautor": 3665,
      "Ġautour": 3666,
      "acked": 3667,
      "Ã©rÃ©": 3668,
      "ĠUS": 3669,
      "Ġeveryone": 3670,
      "Ġperfect": 3671,
      "Ġplein": 3672,
      "Ġpleut": 3673,
      "Ġspoke": 3674,
      "Ġblood": 3675,
      "adeau": 3676,
      "Ġsavent": 3677,
      "Ġtalked": 3678,
      "Ġloved": 3679,
      "Ġspeaking": 3680,
      "ĠdÃ©cl": 3681,
      "Åĵil": 3682,
      "Ġeaten": 3683,
      "ĠconnaÃ®tre": 3684,
      "Ġfamous": 3685,
      "Ġflu": 3686,
      "Ġflowers": 3687,
      "Ġfeelings": 3688,
      "ĠChin": 3689,
      "ĠregardÃ©": 3690,
      "Ġfera": 3691,
      "ĠNoÃ«l": 3692,
      "Ġsoul": 3693,
      "ĠQuelqu": 3694,
      "Ġslept": 3695,
      "ĠrÃ©pond": 3696,
      "Ġaimes": 3697,
      "Ġpresident": 3698,
      "Ġmoindre": 3699,
      "ternation": 3700,
      "attend": 3701,
      "Ġinvol": 3702,
      "ĠrÃ©soudre": 3703,
      "intention": 3704,
      "ĠoccupÃ©e": 3705,
      "Ġwalked": 3706,
      "Ġhabit": 3707,
      "ĠprÃªter": 3708,
      "Ġcommencer": 3709,
      "Ġdormi": 3710,
      "iversaire": 3711,
      "acheter": 3712,
      "ĠReg": 3713,
      "Ġfallu": 3714,
      "Ġconseils": 3715,
      "Ġbike": 3716,
      "Ġbibli": 3717,
      "Ġinstant": 3718,
      "Ġinstru": 3719,
      "ception": 3720,
      "Ġbreakfast": 3721,
      "Ġprinci": 3722,
      "ĠarrÃªter": 3723,
      "Ġrevoir": 3724,
      "Ġnombreux": 3725,
      "ĠterminÃ©": 3726,
      "ĠthÃ©or": 3727,
      "Ġprochaine": 3728,
      "ĠblessÃ©": 3729,
      "Ġaurait": 3730,
      "Ġbroken": 3731,
      "Ġfigure": 3732,
      "Ġfigured": 3733,
      "Ġshoes": 3734,
      "ĠsÃ©rie": 3735,
      "ĠsociÃ©tÃ©": 3736,
      "Ġwearing": 3737,
      "iendra": 3738,
      "Ġordinateur": 3739,
      "Ġnormal": 3740,
      "ĠvÃ©cu": 3741,
      "Ġchapeau": 3742,
      "Ġlaughing": 3743,
      "histoire": 3744,
      "Ġimmediately": 3745,
      "Ġinnoc": 3746,
      "Ġsoleil": 3747,
      "ĠcÃ´tÃ©": 3748,
      "ĠmoitiÃ©": 3749,
      "Ġhusband": 3750,
      "Ġquotid": 3751,
      "Ġbiblioth": 3752,
      "Unis": 3753,
      "af": 3754,
      "ctement": 3755,
      "dÃ©": 3756,
      "dess": 3757,
      "fl": 3758,
      "friend": 3759,
      "flu": 3760,
      "gie": 3761,
      "ha": 3762,
      "iÃ¨me": 3763,
      "jets": 3764,
      "oil": 3765,
      "ray": 3766,
      "uve": 3767,
      "uction": 3768,
      "work": 3769,
      "Ġ/": 3770,
      "Ġeux": 3771,
      "Ġouv": 3772,
      "Ġignor": 3773,
      "Ġtor": 3774,
      "Ġtall": 3775,
      "oux": 3776,
      "oupe": 3777,
      "Ġage": 3778,
      "Ġallez": 3779,
      "Ġdie": 3780,
      "Ġdra": 3781,
      "Ġpire": 3782,
      "Ġsang": 3783,
      "Ġsli": 3784,
      "Ġsauv": 3785,
      "esse": 3786,
      "onner": 3787,
      "hec": 3788,
      "heur": 3789,
      "Ġcous": 3790,
      "Ġcur": 3791,
      "Ġmout": 3792,
      "Ġmur": 3793,
      "ituteur": 3794,
      "omen": 3795,
      "omet": 3796,
      "Ġbas": 3797,
      "Ġbase": 3798,
      "Ġbody": 3799,
      "Ġborrow": 3800,
      "Ġballe": 3801,
      "ĠTur": 3802,
      "Ġdel": 3803,
      "arch": 3804,
      "ĠvidÃ©": 3805,
      "Ġhit": 3806,
      "Ġtoile": 3807,
      "leep": 3808,
      "Ġuncle": 3809,
      "rieur": 3810,
      "ĠlevÃ©": 3811,
      "anto": 3812,
      "Ġmel": 3813,
      "Ġmem": 3814,
      "rol": 3815,
      "road": 3816,
      "imag": 3817,
      "Ġsuic": 3818,
      "Ġelect": 3819,
      "ĠLook": 3820,
      "idd": 3821,
      "idence": 3822,
      "ĠWill": 3823,
      "ayez": 3824,
      "meil": 3825,
      "ĠMal": 3826,
      "ĠMain": 3827,
      "ĠMont": 3828,
      "ĠMÃªme": 3829,
      "ĠEven": 3830,
      "Ġlie": 3831,
      "Ġlies": 3832,
      "Ġseat": 3833,
      "Ġself": 3834,
      "irÃ©": 3835,
      "key": 3836,
      "ief": 3837,
      "Ġtears": 3838,
      "Ġparlez": 3839,
      "Ġparles": 3840,
      "ames": 3841,
      "onter": 3842,
      "onst": 3843,
      "ader": 3844,
      "iller": 3845,
      "Ġkitch": 3846,
      "urance": 3847,
      "ĠÃ©tions": 3848,
      "ĠdÃ©l": 3849,
      "oles": 3850,
      "olÃ©": 3851,
      "Ġstre": 3852,
      "ĠallÃ©e": 3853,
      "ored": 3854,
      "Ġgoes": 3855,
      "Ġprojet": 3856,
      "ctive": 3857,
      "ctions": 3858,
      "Ġtuer": 3859,
      "Ġavance": 3860,
      "igner": 3861,
      "dered": 3862,
      "ules": 3863,
      "Ġshall": 3864,
      "Ġshop": 3865,
      "essayer": 3866,
      "Ġrire": 3867,
      "Ġarm": 3868,
      "Ġsommeil": 3869,
      "ointed": 3870,
      "irez": 3871,
      "Ġalive": 3872,
      "Ġcomporte": 3873,
      "chez": 3874,
      "Ġdish": 3875,
      "Ġdisapp": 3876,
      "indre": 3877,
      "ciation": 3878,
      "ĠFor": 3879,
      "ffic": 3880,
      "Ġusing": 3881,
      "Ġgets": 3882,
      "ĠGr": 3883,
      "ĠGarde": 3884,
      "Ġcarte": 3885,
      "Ġcarry": 3886,
      "Ġadresse": 3887,
      "Ġjambes": 3888,
      "iÃ¨rement": 3889,
      "venu": 3890,
      "Ġrob": 3891,
      "Ġroad": 3892,
      "Ġesc": 3893,
      "Ġpleased": 3894,
      "Ġpein": 3895,
      "Ġblanc": 3896,
      "ĠRien": 3897,
      "Ġouvert": 3898,
      "ormais": 3899,
      "Ġattrap": 3900,
      "onnÃ©": 3901,
      "Ġposs": 3902,
      "Ġvieil": 3903,
      "ildren": 3904,
      "ĠÃ©cl": 3905,
      "Ã©rique": 3906,
      "Ġsmart": 3907,
      "Ġintro": 3908,
      "Ġtomb": 3909,
      "Ġvoitures": 3910,
      "Ġpull": 3911,
      "Ġeating": 3912,
      "ĠCanad": 3913,
      "ĠdÃ©sormais": 3914,
      "Ġsentiments": 3915,
      "Ġapolog": 3916,
      "Ġplayed": 3917,
      "izarre": 3918,
      "Ġferais": 3919,
      "Ġcourt": 3920,
      "Ġsouff": 3921,
      "Ġmoral": 3922,
      "Ġunderstood": 3923,
      "expl": 3924,
      "Ġincon": 3925,
      "ĠinvitÃ©": 3926,
      "Ġdiscours": 3927,
      "Ġappel": 3928,
      "Ġportait": 3929,
      "Ã©lic": 3930,
      "Ġsurprise": 3931,
      "Ġlunettes": 3932,
      "Ġembr": 3933,
      "Ġconcert": 3934,
      "Ġcherche": 3935,
      "Ġfortune": 3936,
      "Ġskin": 3937,
      "entreprise": 3938,
      "Ġservi": 3939,
      "Ġservice": 3940,
      "Ġstudying": 3941,
      "Ġprofession": 3942,
      "Ġmauvaise": 3943,
      "Ġquitter": 3944,
      "Ġrealize": 3945,
      "Ġpopular": 3946,
      "Ġstupide": 3947,
      "Ġanimaux": 3948,
      "ĠthÃ©Ã¢tre": 3949,
      "Ġhistory": 3950,
      "Ġguys": 3951,
      "Ġzoo": 3952,
      "Ġchanter": 3953,
      "ĠDonnez": 3954,
      "Ġ30": 3955,
      "Ġsuccess": 3956,
      "Ġpieds": 3957,
      "ĠrÃ©pondre": 3958,
      "Ġglasses": 3959,
      "Ġsignif": 3960,
      "ĠprÃ©fÃ©rÃ©e": 3961,
      "occup": 3962,
      "Ġkids": 3963,
      "instant": 3964,
      "ĠAppe": 3965,
      "ĠChristmas": 3966,
      "expÃ©rience": 3967,
      "ĠÃītats": 3968,
      "Ġembarrassed": 3969,
      "Ġchoisir": 3970,
      "Ġfootball": 3971,
      "hÃ´pital": 3972,
      "Ġgauche": 3973,
      "Ġpluie": 3974,
      "Ġenseignant": 3975,
      "Ġchaussures": 3976,
      "ĠlumiÃ¨re": 3977,
      "Ã©tranger": 3978,
      "Ġdiplom": 3979,
      "Ġmagazine": 3980,
      "Ġchocol": 3981,
      "Ġdangereux": 3982,
      "ĠreprÃ©s": 3983,
      "Ġjournal": 3984,
      "Ġbuilding": 3985,
      "Ġmountain": 3986,
      "Ġlibrary": 3987,
      "ĠriviÃ¨re": 3988,
      "ĠChinese": 3989,
      "ĠthÃ©orie": 3990,
      "Ġinnocent": 3991,
      "ĠbibliothÃ¨que": 3992,
      "ĠMaintenant": 3993,
      "Ġkitchen": 3994,
      "bed": 3995,
      "dit": 3996,
      "ech": 3997,
      "fu": 3998,
      "gress": 3999
    },
    "merges": [
      [
        "Ġ",
        "t"
      ],
      [
        "o",
        "u"
      ],
      [
        "Ġ",
        "a"
      ],
      [
        "r",
        "e"
      ],
      [
        "Ġ",
        "d"
      ],
      [
        "Ġ",
        "p"
      ],
      [
        "Ġ",
        "s"
      ],
      [
        "e",
        "s"
      ],
      [
        "Ġ",
        "l"
      ],
      [
        "e",
        "n"
      ],
      [
        "o",
        "n"
      ],
      [
        "i",
        "s"
      ],
      [
        "i",
        "n"
      ],
      [
        "h",
        "e"
      ],
      [
        "Ġ",
        "c"
      ],
      [
        "Ġ",
        "m"
      ],
      [
        "Ã",
        "©"
      ],
      [
        "e",
        "r"
      ],
      [
        "a",
        "n"
      ],
      [
        "Ġ",
        "I"
      ],
      [
        "i",
        "t"
      ],
      [
        "Ġ",
        "n"
      ],
      [
        "Ġ",
        "w"
      ],
      [
        "Ġ",
        "f"
      ],
      [
        "o",
        "m"
      ],
      [
        "a",
        "s"
      ],
      [
        "q",
        "u"
      ],
      [
        "Ġ",
        "b"
      ],
      [
        "l",
        "l"
      ],
      [
        "Ġ",
        "T"
      ],
      [
        "a",
        "t"
      ],
      [
        "Ġd",
        "e"
      ],
      [
        "a",
        "r"
      ],
      [
        "Ġ",
        "v"
      ],
      [
        "Ġ",
        "h"
      ],
      [
        "Ġ",
        "y"
      ],
      [
        "o",
        "r"
      ],
      [
        "Ġt",
        "o"
      ],
      [
        "Ġ",
        "qu"
      ],
      [
        "Ġ",
        "J"
      ],
      [
        "en",
        "t"
      ],
      [
        "Ġt",
        "he"
      ],
      [
        "Ġy",
        "ou"
      ],
      [
        "v",
        "e"
      ],
      [
        "ou",
        "s"
      ],
      [
        "u",
        "n"
      ],
      [
        "a",
        "i"
      ],
      [
        "es",
        "t"
      ],
      [
        "l",
        "e"
      ],
      [
        "in",
        "g"
      ],
      [
        "Ġ",
        "Ã"
      ],
      [
        "e",
        "t"
      ],
      [
        "Ġ",
        "g"
      ],
      [
        "Ġt",
        "h"
      ],
      [
        "u",
        "s"
      ],
      [
        "e",
        "d"
      ],
      [
        "Ġp",
        "as"
      ],
      [
        "a",
        "is"
      ],
      [
        "ĠJ",
        "e"
      ],
      [
        "Ġ",
        "un"
      ],
      [
        "Ġ",
        "o"
      ],
      [
        "Ġ",
        "j"
      ],
      [
        "o",
        "t"
      ],
      [
        "Ġ",
        "?"
      ],
      [
        "Ġqu",
        "e"
      ],
      [
        "e",
        "u"
      ],
      [
        "Ġn",
        "e"
      ],
      [
        "ĠT",
        "om"
      ],
      [
        "o",
        "s"
      ],
      [
        "ou",
        "r"
      ],
      [
        "r",
        "i"
      ],
      [
        "Ġl",
        "e"
      ],
      [
        "Ġl",
        "a"
      ],
      [
        "t",
        "e"
      ],
      [
        "i",
        "l"
      ],
      [
        "Ġ",
        "re"
      ],
      [
        "Ġ",
        "in"
      ],
      [
        "Ġ",
        "is"
      ],
      [
        "ĠÃ",
        "ł"
      ],
      [
        "o",
        "i"
      ],
      [
        "an",
        "t"
      ],
      [
        "a",
        "it"
      ],
      [
        "c",
        "e"
      ],
      [
        "Ġ",
        "he"
      ],
      [
        "Ġm",
        "e"
      ],
      [
        "r",
        "o"
      ],
      [
        "i",
        "m"
      ],
      [
        "Ġs",
        "u"
      ],
      [
        "ll",
        "e"
      ],
      [
        "Ġ",
        "e"
      ],
      [
        "Ġ",
        "C"
      ],
      [
        "'",
        "t"
      ],
      [
        "Ġb",
        "e"
      ],
      [
        "Ġ",
        "en"
      ],
      [
        "Ã",
        "¨"
      ],
      [
        "Ġ",
        "L"
      ],
      [
        "Ġa",
        "n"
      ],
      [
        "Ġ",
        "est"
      ],
      [
        "Ġo",
        "f"
      ],
      [
        "i",
        "d"
      ],
      [
        "i",
        "on"
      ],
      [
        "a",
        "p"
      ],
      [
        "Ġ",
        "W"
      ],
      [
        "u",
        "t"
      ],
      [
        "a",
        "y"
      ],
      [
        "o",
        "w"
      ],
      [
        "Ġ",
        "S"
      ],
      [
        "ĠI",
        "l"
      ],
      [
        "Ġd",
        "o"
      ],
      [
        "a",
        "l"
      ],
      [
        "Ġ",
        "H"
      ],
      [
        "i",
        "c"
      ],
      [
        "Ġt",
        "r"
      ],
      [
        "ou",
        "t"
      ],
      [
        "Ã©",
        "t"
      ],
      [
        "Ġh",
        "a"
      ],
      [
        "Ġc",
        "h"
      ],
      [
        "m",
        "e"
      ],
      [
        "Ġ",
        "M"
      ],
      [
        "s",
        "e"
      ],
      [
        "Ġ",
        "E"
      ],
      [
        "ĠT",
        "he"
      ],
      [
        "Ġ",
        "on"
      ],
      [
        "m",
        "ent"
      ],
      [
        "Ġ",
        "r"
      ],
      [
        "c",
        "h"
      ],
      [
        "Ġl",
        "i"
      ],
      [
        "Ġ",
        "."
      ],
      [
        "v",
        "er"
      ],
      [
        "Ġs",
        "e"
      ],
      [
        "Ġp",
        "l"
      ],
      [
        "'",
        "s"
      ],
      [
        "i",
        "r"
      ],
      [
        "a",
        "in"
      ],
      [
        "Ġ",
        "N"
      ],
      [
        "Ġ",
        "A"
      ],
      [
        "k",
        "e"
      ],
      [
        "i",
        "e"
      ],
      [
        "Ġc",
        "e"
      ],
      [
        "l",
        "d"
      ],
      [
        "Ġc",
        "om"
      ],
      [
        "Ġt",
        "e"
      ],
      [
        "Ġp",
        "ar"
      ],
      [
        "Ġth",
        "at"
      ],
      [
        "a",
        "g"
      ],
      [
        "Ġ",
        "D"
      ],
      [
        "a",
        "u"
      ],
      [
        "Ġf",
        "or"
      ],
      [
        "re",
        "s"
      ],
      [
        "a",
        "m"
      ],
      [
        "Ġ",
        "Y"
      ],
      [
        "on",
        "t"
      ],
      [
        "Ġv",
        "ous"
      ],
      [
        "h",
        "at"
      ],
      [
        "o",
        "o"
      ],
      [
        "on",
        "s"
      ],
      [
        "Ġw",
        "as"
      ],
      [
        "Ġl",
        "es"
      ],
      [
        "a",
        "c"
      ],
      [
        "Ġun",
        "e"
      ],
      [
        "t",
        "er"
      ],
      [
        "an",
        "d"
      ],
      [
        "Ġ",
        "P"
      ],
      [
        "a",
        "d"
      ],
      [
        "Ġ",
        "it"
      ],
      [
        "re",
        "n"
      ],
      [
        "Ġj",
        "e"
      ],
      [
        "t",
        "u"
      ],
      [
        "ĠH",
        "e"
      ],
      [
        "Ġn",
        "ot"
      ],
      [
        "Ġha",
        "ve"
      ],
      [
        "eu",
        "x"
      ],
      [
        "i",
        "ll"
      ],
      [
        "ĠY",
        "ou"
      ],
      [
        "an",
        "s"
      ],
      [
        "g",
        "h"
      ],
      [
        "a",
        "v"
      ],
      [
        "Ġ",
        "k"
      ],
      [
        "n",
        "e"
      ],
      [
        "Ġw",
        "e"
      ],
      [
        "Ġp",
        "our"
      ],
      [
        "u",
        "r"
      ],
      [
        "en",
        "d"
      ],
      [
        "Ġa",
        "s"
      ],
      [
        "Ġ",
        "Ã©t"
      ],
      [
        "he",
        "r"
      ],
      [
        "b",
        "le"
      ],
      [
        "Ã",
        "ª"
      ],
      [
        "Ġp",
        "r"
      ],
      [
        "i",
        "en"
      ],
      [
        "Ġa",
        "u"
      ],
      [
        "Ġd",
        "on"
      ],
      [
        "Ġyou",
        "r"
      ],
      [
        "p",
        "e"
      ],
      [
        "Ġd",
        "Ã©"
      ],
      [
        "ai",
        "re"
      ],
      [
        "o",
        "l"
      ],
      [
        "Ġ",
        "!"
      ],
      [
        "an",
        "g"
      ],
      [
        "l",
        "y"
      ],
      [
        "Ġs",
        "t"
      ],
      [
        "qu",
        "e"
      ],
      [
        "Ã©",
        "e"
      ],
      [
        "Ġa",
        "ll"
      ],
      [
        "o",
        "re"
      ],
      [
        "Ġ",
        "V"
      ],
      [
        "Ġa",
        "re"
      ],
      [
        "Ġd",
        "es"
      ],
      [
        "Ġsu",
        "is"
      ],
      [
        "a",
        "ll"
      ],
      [
        "i",
        "f"
      ],
      [
        "ou",
        "ld"
      ],
      [
        "Ġm",
        "y"
      ],
      [
        "u",
        "e"
      ],
      [
        "Ġc",
        "an"
      ],
      [
        "Ġth",
        "is"
      ],
      [
        "Ã¨",
        "re"
      ],
      [
        "Ġan",
        "d"
      ],
      [
        "Ġa",
        "t"
      ],
      [
        "Ġw",
        "ant"
      ],
      [
        "u",
        "re"
      ],
      [
        "it",
        "h"
      ],
      [
        "oi",
        "r"
      ],
      [
        "ar",
        "d"
      ],
      [
        "t",
        "re"
      ],
      [
        "Ġg",
        "o"
      ],
      [
        "gh",
        "t"
      ],
      [
        "ap",
        "os"
      ],
      [
        "u",
        "i"
      ],
      [
        "Ġp",
        "ro"
      ],
      [
        "Ġ",
        "et"
      ],
      [
        "'",
        "m"
      ],
      [
        "Ġd",
        "ans"
      ],
      [
        "v",
        "ous"
      ],
      [
        "c",
        "t"
      ],
      [
        "n",
        "ow"
      ],
      [
        "Ġt",
        "u"
      ],
      [
        "Ġa",
        "v"
      ],
      [
        "Ġw",
        "ith"
      ],
      [
        "ĠS",
        "he"
      ],
      [
        "s",
        "t"
      ],
      [
        "ĠW",
        "e"
      ],
      [
        "or",
        "t"
      ],
      [
        "Ġs",
        "o"
      ],
      [
        "Ġf",
        "r"
      ],
      [
        "Ġm",
        "on"
      ],
      [
        "ĠE",
        "lle"
      ],
      [
        "i",
        "g"
      ],
      [
        "Ġk",
        "now"
      ],
      [
        "m",
        "p"
      ],
      [
        "ĠI",
        "t"
      ],
      [
        "Ġw",
        "h"
      ],
      [
        "Ġa",
        "ve"
      ],
      [
        "Ġli",
        "ke"
      ],
      [
        "at",
        "ion"
      ],
      [
        "d",
        "e"
      ],
      [
        "u",
        "l"
      ],
      [
        "Ġpl",
        "us"
      ],
      [
        "ĠN",
        "ous"
      ],
      [
        "Ġ",
        "Q"
      ],
      [
        "Ġc",
        "on"
      ],
      [
        "p",
        "p"
      ],
      [
        "Ġs",
        "h"
      ],
      [
        "Ġd",
        "id"
      ],
      [
        "Ġh",
        "is"
      ],
      [
        "es",
        "s"
      ],
      [
        "us",
        "t"
      ],
      [
        "Ġd",
        "u"
      ],
      [
        "Ġe",
        "x"
      ],
      [
        "Ġ",
        "ri"
      ],
      [
        "Ġa",
        "r"
      ],
      [
        "eu",
        "r"
      ],
      [
        "Ġsu",
        "r"
      ],
      [
        "Ġf",
        "aire"
      ],
      [
        "Ġs",
        "om"
      ],
      [
        "in",
        "k"
      ],
      [
        "os",
        "e"
      ],
      [
        "'",
        "re"
      ],
      [
        "en",
        "s"
      ],
      [
        "ĠM",
        "ar"
      ],
      [
        "t",
        "es"
      ],
      [
        "Ã©",
        "c"
      ],
      [
        "er",
        "s"
      ],
      [
        "h",
        "ing"
      ],
      [
        "oo",
        "k"
      ],
      [
        "ĠT",
        "u"
      ],
      [
        "Ġa",
        "m"
      ],
      [
        "Ġqu",
        "i"
      ],
      [
        "o",
        "in"
      ],
      [
        "Ġs",
        "a"
      ],
      [
        "ĠÃ",
        "ª"
      ],
      [
        "Ã¨",
        "s"
      ],
      [
        "Ġf",
        "ait"
      ],
      [
        "Ġn",
        "ous"
      ],
      [
        "ag",
        "e"
      ],
      [
        "Ã©",
        "s"
      ],
      [
        "i",
        "re"
      ],
      [
        "Ġa",
        "b"
      ],
      [
        "ĠV",
        "ous"
      ],
      [
        "a",
        "k"
      ],
      [
        "Ġw",
        "or"
      ],
      [
        "Ġh",
        "im"
      ],
      [
        "Ġhe",
        "r"
      ],
      [
        "Ġt",
        "out"
      ],
      [
        "Ġa",
        "l"
      ],
      [
        "u",
        "p"
      ],
      [
        "Ġ",
        "il"
      ],
      [
        "Ġave",
        "c"
      ],
      [
        "Ġcom",
        "p"
      ],
      [
        "im",
        "e"
      ],
      [
        "ĠL",
        "e"
      ],
      [
        "Ġ",
        "O"
      ],
      [
        "Ġw",
        "hat"
      ],
      [
        "on",
        "g"
      ],
      [
        "ĠT",
        "h"
      ],
      [
        "Ġ",
        "B"
      ],
      [
        "in",
        "e"
      ],
      [
        "Ġth",
        "ink"
      ],
      [
        "c",
        "he"
      ],
      [
        "o",
        "p"
      ],
      [
        "it",
        "e"
      ],
      [
        "Ġh",
        "as"
      ],
      [
        "ĠL",
        "a"
      ],
      [
        "r",
        "ai"
      ],
      [
        "Ġd",
        "is"
      ],
      [
        "Ġm",
        "an"
      ],
      [
        "us",
        "e"
      ],
      [
        "at",
        "e"
      ],
      [
        "ĠW",
        "h"
      ],
      [
        "in",
        "d"
      ],
      [
        "on",
        "e"
      ],
      [
        "ap",
        "p"
      ],
      [
        "ĠW",
        "hat"
      ],
      [
        "c",
        "i"
      ],
      [
        "Ġde",
        "v"
      ],
      [
        "Ġv",
        "er"
      ],
      [
        "Ġan",
        "y"
      ],
      [
        "et",
        "te"
      ],
      [
        "§",
        "a"
      ],
      [
        "a",
        "ke"
      ],
      [
        "b",
        "l"
      ],
      [
        "o",
        "y"
      ],
      [
        "o",
        "is"
      ],
      [
        "an",
        "ce"
      ],
      [
        "i",
        "ve"
      ],
      [
        "im",
        "p"
      ],
      [
        "Ġ",
        "F"
      ],
      [
        "ou",
        "v"
      ],
      [
        "Ġs",
        "ont"
      ],
      [
        "ĠC",
        "e"
      ],
      [
        "oo",
        "d"
      ],
      [
        "Ġs",
        "i"
      ],
      [
        "ĠÃ",
        "§a"
      ],
      [
        "Ġ",
        "out"
      ],
      [
        "Ġs",
        "on"
      ],
      [
        "Ġf",
        "e"
      ],
      [
        "ĠD",
        "o"
      ],
      [
        "Ã",
        "ł"
      ],
      [
        "a",
        "ve"
      ],
      [
        "a",
        "ble"
      ],
      [
        "i",
        "er"
      ],
      [
        "e",
        "z"
      ],
      [
        "Ġm",
        "ais"
      ],
      [
        "Ġque",
        "l"
      ],
      [
        "mp",
        "s"
      ],
      [
        "u",
        "m"
      ],
      [
        "id",
        "e"
      ],
      [
        "ĠMar",
        "y"
      ],
      [
        "r",
        "y"
      ],
      [
        "a",
        "re"
      ],
      [
        "Ġp",
        "eu"
      ],
      [
        "Ġg",
        "r"
      ],
      [
        "ic",
        "i"
      ],
      [
        "n",
        "d"
      ],
      [
        "os",
        "t"
      ],
      [
        "ĠL",
        "es"
      ],
      [
        "u",
        "x"
      ],
      [
        "ĠÃ©t",
        "ait"
      ],
      [
        "ou",
        "ve"
      ],
      [
        "Ġpar",
        "t"
      ],
      [
        "u",
        "is"
      ],
      [
        "l",
        "a"
      ],
      [
        "s",
        "i"
      ],
      [
        "ou",
        "p"
      ],
      [
        "Ġver",
        "y"
      ],
      [
        "f",
        "f"
      ],
      [
        "i",
        "lle"
      ],
      [
        "on",
        "ne"
      ],
      [
        "Ġt",
        "ime"
      ],
      [
        "is",
        "t"
      ],
      [
        "our",
        "s"
      ],
      [
        "c",
        "c"
      ],
      [
        "Ġ",
        "&"
      ],
      [
        "Ġ",
        "us"
      ],
      [
        "m",
        "es"
      ],
      [
        "Ġg",
        "et"
      ],
      [
        "ver",
        "y"
      ],
      [
        "ĠTh",
        "is"
      ],
      [
        "Ġv",
        "eux"
      ],
      [
        "en",
        "se"
      ],
      [
        "Ġha",
        "d"
      ],
      [
        "ar",
        "t"
      ],
      [
        "ĠThe",
        "y"
      ],
      [
        "a",
        "ut"
      ],
      [
        "Ġtr",
        "Ã¨s"
      ],
      [
        "ren",
        "t"
      ],
      [
        "'",
        "ll"
      ],
      [
        "'",
        "ve"
      ],
      [
        "Ġc",
        "l"
      ],
      [
        "Ġab",
        "out"
      ],
      [
        "Ġw",
        "ill"
      ],
      [
        "Ġ",
        "up"
      ],
      [
        "Ġl",
        "ui"
      ],
      [
        "Ġm",
        "oi"
      ],
      [
        "Ġr",
        "Ã©"
      ],
      [
        "Ġm",
        "ar"
      ],
      [
        "Ġs",
        "er"
      ],
      [
        "ĠC",
        "om"
      ],
      [
        "Ġ",
        "Ã©"
      ],
      [
        "d",
        "er"
      ],
      [
        "d",
        "re"
      ],
      [
        "ot",
        "re"
      ],
      [
        "Ġte",
        "mps"
      ],
      [
        "i",
        "v"
      ],
      [
        "Ġc",
        "r"
      ],
      [
        "Ã",
        "§"
      ],
      [
        "Ġb",
        "ut"
      ],
      [
        "Ġfr",
        "om"
      ],
      [
        "Ġt",
        "ou"
      ],
      [
        "he",
        "re"
      ],
      [
        "Ġto",
        "o"
      ],
      [
        "as",
        "s"
      ],
      [
        "as",
        "t"
      ],
      [
        "Ġc",
        "he"
      ],
      [
        "Ġn",
        "o"
      ],
      [
        "Ġne",
        "ed"
      ],
      [
        "Ġwe",
        "re"
      ],
      [
        "ĠQ",
        "ue"
      ],
      [
        "ion",
        "s"
      ],
      [
        "Ġ",
        "G"
      ],
      [
        "all",
        "y"
      ],
      [
        "g",
        "e"
      ],
      [
        "p",
        "r"
      ],
      [
        "Ã",
        "»"
      ],
      [
        "Ġa",
        "pp"
      ],
      [
        "Ġon",
        "e"
      ],
      [
        "Ġse",
        "e"
      ],
      [
        "as",
        "e"
      ],
      [
        "Ġthe",
        "re"
      ],
      [
        "ĠÃª",
        "tre"
      ],
      [
        "Ġ",
        "or"
      ],
      [
        "Ġc",
        "ar"
      ],
      [
        "Ġm",
        "a"
      ],
      [
        "Ġhe",
        "re"
      ],
      [
        "c",
        "k"
      ],
      [
        "Ġa",
        "d"
      ],
      [
        "j",
        "e"
      ],
      [
        "ĠN",
        "e"
      ],
      [
        "Ġt",
        "ro"
      ],
      [
        "is",
        "e"
      ],
      [
        "Ġc",
        "ette"
      ],
      [
        "Ġl",
        "ook"
      ],
      [
        "n",
        "er"
      ],
      [
        "Ã",
        "®"
      ],
      [
        "ay",
        "s"
      ],
      [
        "ĠH",
        "ow"
      ],
      [
        "Ġl",
        "o"
      ],
      [
        "Ġre",
        "s"
      ],
      [
        "Ġdid",
        "n"
      ],
      [
        "i",
        "ce"
      ],
      [
        "Ġv",
        "rai"
      ],
      [
        "Ġj",
        "am"
      ],
      [
        "ĠÃ©t",
        "Ã©"
      ],
      [
        "if",
        "f"
      ],
      [
        "ĠT",
        "hat"
      ],
      [
        "un",
        "e"
      ],
      [
        "Ġde",
        "m"
      ],
      [
        "t",
        "Ã©"
      ],
      [
        "Ġv",
        "ou"
      ],
      [
        "Ġv",
        "otre"
      ],
      [
        "or",
        "s"
      ],
      [
        "Ġg",
        "ood"
      ],
      [
        "res",
        "s"
      ],
      [
        "av",
        "ai"
      ],
      [
        "it",
        "Ã©"
      ],
      [
        "Ġh",
        "om"
      ],
      [
        "al",
        "k"
      ],
      [
        "Ġwor",
        "k"
      ],
      [
        "Ã",
        "¹"
      ],
      [
        "u",
        "it"
      ],
      [
        "Ġa",
        "g"
      ],
      [
        "Ġb",
        "y"
      ],
      [
        "ll",
        "es"
      ],
      [
        "i",
        "Ã¨re"
      ],
      [
        "t",
        "en"
      ],
      [
        "Ã",
        "´"
      ],
      [
        "Ġa",
        "ut"
      ],
      [
        "Ġp",
        "ense"
      ],
      [
        "Ġc",
        "o"
      ],
      [
        "Ġtr",
        "avai"
      ],
      [
        "i",
        "ght"
      ],
      [
        "Ġd",
        "it"
      ],
      [
        "e",
        "p"
      ],
      [
        "Ġ",
        "imp"
      ],
      [
        "d",
        "ay"
      ],
      [
        "l",
        "f"
      ],
      [
        "qu",
        "oi"
      ],
      [
        "ĠThe",
        "re"
      ],
      [
        "t",
        "hing"
      ],
      [
        "Ġ",
        "ent"
      ],
      [
        "Ġdo",
        "es"
      ],
      [
        "v",
        "en"
      ],
      [
        "Ġd",
        "iff"
      ],
      [
        "ac",
        "k"
      ],
      [
        "Ġl",
        "ong"
      ],
      [
        "Ã©",
        "r"
      ],
      [
        "ĠP",
        "our"
      ],
      [
        "e",
        "l"
      ],
      [
        "Ġs",
        "ais"
      ],
      [
        "is",
        "h"
      ],
      [
        "Ġj",
        "ust"
      ],
      [
        "Ġch",
        "ose"
      ],
      [
        "a",
        "b"
      ],
      [
        "Ġ",
        "U"
      ],
      [
        "Ġp",
        "eux"
      ],
      [
        "Ġe",
        "very"
      ],
      [
        "ĠD",
        "on"
      ],
      [
        "Ġs",
        "eu"
      ],
      [
        "Ġbe",
        "au"
      ],
      [
        "Ġ",
        "ro"
      ],
      [
        "Ġw",
        "ould"
      ],
      [
        "Ġon",
        "t"
      ],
      [
        "i",
        "ent"
      ],
      [
        "l",
        "er"
      ],
      [
        "r",
        "ais"
      ],
      [
        "Ġsh",
        "ould"
      ],
      [
        "Ġjam",
        "ais"
      ],
      [
        "ĠM",
        "y"
      ],
      [
        "Ġgo",
        "ing"
      ],
      [
        "l",
        "Ã©"
      ],
      [
        "â",
        "Ģ"
      ],
      [
        "Ġd",
        "ire"
      ],
      [
        "m",
        "er"
      ],
      [
        "Ġ",
        "es"
      ],
      [
        "Ġs",
        "he"
      ],
      [
        "Ġb",
        "ien"
      ],
      [
        "Ġth",
        "an"
      ],
      [
        "d",
        "y"
      ],
      [
        "Ġp",
        "re"
      ],
      [
        "Ġh",
        "app"
      ],
      [
        "ĠÃª",
        "tes"
      ],
      [
        "a",
        "me"
      ],
      [
        "Ġ",
        "\""
      ],
      [
        "Ġp",
        "er"
      ],
      [
        "Ġp",
        "le"
      ],
      [
        "Ġs",
        "p"
      ],
      [
        "Ġre",
        "n"
      ],
      [
        "Ġp",
        "h"
      ],
      [
        "Ġs",
        "pe"
      ],
      [
        "Ġc",
        "ont"
      ],
      [
        "Ġte",
        "ll"
      ],
      [
        "i",
        "le"
      ],
      [
        "or",
        "te"
      ],
      [
        "ĠE",
        "n"
      ],
      [
        "ĠIl",
        "s"
      ],
      [
        "Ġli",
        "v"
      ],
      [
        "l",
        "p"
      ],
      [
        "Ġ",
        "ici"
      ],
      [
        "Ġp",
        "e"
      ],
      [
        "Ġb",
        "l"
      ],
      [
        "a",
        "ce"
      ],
      [
        "Ġar",
        "ri"
      ],
      [
        "b",
        "re"
      ],
      [
        "Ġ",
        "R"
      ],
      [
        "Ġt",
        "on"
      ],
      [
        "Ġbe",
        "en"
      ],
      [
        "i",
        "que"
      ],
      [
        "ai",
        "r"
      ],
      [
        "Ġhe",
        "lp"
      ],
      [
        "ad",
        "e"
      ],
      [
        "Ġwh",
        "o"
      ],
      [
        "ou",
        "nd"
      ],
      [
        "o",
        "b"
      ],
      [
        "Ġ",
        "ou"
      ],
      [
        "Ġm",
        "ore"
      ],
      [
        "'",
        "d"
      ],
      [
        "Ġl",
        "et"
      ],
      [
        "or",
        "m"
      ],
      [
        "ot",
        "her"
      ],
      [
        "c",
        "oup"
      ],
      [
        "Ġ",
        "Â"
      ],
      [
        "is",
        "s"
      ],
      [
        "Ġtr",
        "ain"
      ],
      [
        "Ġgr",
        "and"
      ],
      [
        "m",
        "oi"
      ],
      [
        "Ġm",
        "u"
      ],
      [
        "Ġb",
        "r"
      ],
      [
        "Ġpas",
        "s"
      ],
      [
        "Ġne",
        "ver"
      ],
      [
        "ant",
        "s"
      ],
      [
        "Ġat",
        "t"
      ],
      [
        "Ġs",
        "av"
      ],
      [
        "Ġre",
        "ad"
      ],
      [
        "Ġc",
        "ould"
      ],
      [
        "Ġbeau",
        "coup"
      ],
      [
        "o",
        "it"
      ],
      [
        "ĠQ",
        "u"
      ],
      [
        "on",
        "d"
      ],
      [
        "Ġsom",
        "e"
      ],
      [
        "Ġvrai",
        "ment"
      ],
      [
        "Ġmu",
        "ch"
      ],
      [
        "Ġa",
        "i"
      ],
      [
        "Ġp",
        "ers"
      ],
      [
        "Ãª",
        "me"
      ],
      [
        "a",
        "le"
      ],
      [
        "g",
        "l"
      ],
      [
        "Ã",
        "¢"
      ],
      [
        "ar",
        "s"
      ],
      [
        "âĢ",
        "Ļ"
      ],
      [
        "m",
        "b"
      ],
      [
        "on",
        "n"
      ],
      [
        "se",
        "lf"
      ],
      [
        "Ġcom",
        "me"
      ],
      [
        "ig",
        "n"
      ],
      [
        "f",
        "e"
      ],
      [
        "Ġt",
        "ous"
      ],
      [
        "Ġp",
        "ens"
      ],
      [
        "Ġl",
        "it"
      ],
      [
        "Ġthe",
        "y"
      ],
      [
        "ang",
        "e"
      ],
      [
        "-",
        "@"
      ],
      [
        "@",
        "-@"
      ],
      [
        "Ġ",
        "@-@"
      ],
      [
        "il",
        "s"
      ],
      [
        "ĠA",
        "re"
      ],
      [
        "Ġt",
        "alk"
      ],
      [
        "Ġs",
        "tu"
      ],
      [
        "Ġre",
        "ally"
      ],
      [
        "ro",
        "w"
      ],
      [
        "ang",
        "er"
      ],
      [
        "Ġtro",
        "p"
      ],
      [
        "Ġ",
        "if"
      ],
      [
        "re",
        "e"
      ],
      [
        "Ġb",
        "es"
      ],
      [
        "Ġcom",
        "e"
      ],
      [
        "Ġcom",
        "m"
      ],
      [
        "ren",
        "dre"
      ],
      [
        "en",
        "ce"
      ],
      [
        "Ġw",
        "r"
      ],
      [
        "Ġen",
        "c"
      ],
      [
        "ĠPour",
        "quoi"
      ],
      [
        "e",
        "lle"
      ],
      [
        "r",
        "a"
      ],
      [
        "qu",
        "es"
      ],
      [
        "Ġto",
        "i"
      ],
      [
        "ri",
        "end"
      ],
      [
        "Ġof",
        "f"
      ],
      [
        "ac",
        "t"
      ],
      [
        "ĠWh",
        "y"
      ],
      [
        "o",
        "le"
      ],
      [
        "Ġm",
        "at"
      ],
      [
        "Ġwh",
        "en"
      ],
      [
        "Ġquel",
        "que"
      ],
      [
        "Ġp",
        "os"
      ],
      [
        "at",
        "her"
      ],
      [
        "am",
        "i"
      ],
      [
        "c",
        "es"
      ],
      [
        "Ġ",
        ","
      ],
      [
        "Ġc",
        "ou"
      ],
      [
        "Ġv",
        "ie"
      ],
      [
        "il",
        "d"
      ],
      [
        "Ġpr",
        "Ã©"
      ],
      [
        "Ġmon",
        "de"
      ],
      [
        "Ġvou",
        "l"
      ],
      [
        "Ġbes",
        "oin"
      ],
      [
        "Ġm",
        "ain"
      ],
      [
        "Ġn",
        "ow"
      ],
      [
        "Ġv",
        "en"
      ],
      [
        "Ġse",
        "m"
      ],
      [
        "Ãª",
        "te"
      ],
      [
        "Ġpeu",
        "t"
      ],
      [
        "Ġt",
        "a"
      ],
      [
        "Ġa",
        "f"
      ],
      [
        "Ġc",
        "ons"
      ],
      [
        "Ġf",
        "in"
      ],
      [
        "Ġe",
        "lle"
      ],
      [
        "Ġlo",
        "ve"
      ],
      [
        "d",
        "i"
      ],
      [
        "Ġ",
        "Ã©c"
      ],
      [
        "Ġd",
        "i"
      ],
      [
        "Ġj",
        "our"
      ],
      [
        "oo",
        "l"
      ],
      [
        "p",
        "l"
      ],
      [
        "u",
        "y"
      ],
      [
        "Ġm",
        "al"
      ],
      [
        "Ġv",
        "oir"
      ],
      [
        "ĠE",
        "st"
      ],
      [
        "ain",
        "e"
      ],
      [
        "Ġd",
        "ay"
      ],
      [
        "es",
        "e"
      ],
      [
        "Ã©",
        "es"
      ],
      [
        "ĠI",
        "s"
      ],
      [
        "Ġw",
        "on"
      ],
      [
        "Ġqu",
        "est"
      ],
      [
        "ĠS",
        "ami"
      ],
      [
        "Ġon",
        "ly"
      ],
      [
        "Ġri",
        "en"
      ],
      [
        "o",
        "dy"
      ],
      [
        "ĩ",
        "a"
      ],
      [
        "Ġp",
        "i"
      ],
      [
        "Ã©",
        "ri"
      ],
      [
        "Ġh",
        "ow"
      ],
      [
        "ve",
        "z"
      ],
      [
        "Ġspe",
        "ak"
      ],
      [
        "ou",
        "ght"
      ],
      [
        "Ġp",
        "et"
      ],
      [
        "ĠÃ",
        "ĩa"
      ],
      [
        "id",
        "ent"
      ],
      [
        "Ãª",
        "tre"
      ],
      [
        "Ġav",
        "ons"
      ],
      [
        "Ġri",
        "ght"
      ],
      [
        "ĠCom",
        "ment"
      ],
      [
        "i",
        "es"
      ],
      [
        "ic",
        "k"
      ],
      [
        "Ġce",
        "la"
      ],
      [
        "Ġdem",
        "and"
      ],
      [
        "t",
        "s"
      ],
      [
        "t",
        "ed"
      ],
      [
        "it",
        "y"
      ],
      [
        "Ġv",
        "a"
      ],
      [
        "Ġo",
        "p"
      ],
      [
        "Ġre",
        "g"
      ],
      [
        "se",
        "z"
      ],
      [
        "ĠdÃ©",
        "c"
      ],
      [
        "Ġsom",
        "et"
      ],
      [
        "Ġenc",
        "ore"
      ],
      [
        "u",
        "res"
      ],
      [
        "Ġs",
        "m"
      ],
      [
        "Ġs",
        "es"
      ],
      [
        "Ġn",
        "ouve"
      ],
      [
        "us",
        "si"
      ],
      [
        "Ġin",
        "t"
      ],
      [
        "er",
        "t"
      ],
      [
        "ĠM",
        "on"
      ],
      [
        "a",
        "Ã®"
      ],
      [
        "e",
        "y"
      ],
      [
        "g",
        "ent"
      ],
      [
        "Ġt",
        "om"
      ],
      [
        "Ġm",
        "ust"
      ],
      [
        "an",
        "te"
      ],
      [
        "ie",
        "z"
      ],
      [
        "Ġall",
        "er"
      ],
      [
        "Ġb",
        "ook"
      ],
      [
        "Ġv",
        "oit"
      ],
      [
        "Ġg",
        "ot"
      ],
      [
        "Ġpar",
        "ler"
      ],
      [
        "d",
        "u"
      ],
      [
        "Ġl",
        "ot"
      ],
      [
        "Ġl",
        "ang"
      ],
      [
        "ĠI",
        "n"
      ],
      [
        "Ġde",
        "ux"
      ],
      [
        "ai",
        "me"
      ],
      [
        "Ġbe",
        "c"
      ],
      [
        "Å",
        "ĵ"
      ],
      [
        "ve",
        "d"
      ],
      [
        "Ġth",
        "ing"
      ],
      [
        "ais",
        "s"
      ],
      [
        "Ġav",
        "ait"
      ],
      [
        "ĠO",
        "n"
      ],
      [
        "Ġdoes",
        "n"
      ],
      [
        "Ġa",
        "cc"
      ],
      [
        "Ġb",
        "on"
      ],
      [
        "ver",
        "s"
      ],
      [
        "a",
        "ch"
      ],
      [
        "n",
        "ing"
      ],
      [
        "Ġ",
        "eu"
      ],
      [
        "re",
        "at"
      ],
      [
        "Ġp",
        "u"
      ],
      [
        "Ġw",
        "at"
      ],
      [
        "Ġsu",
        "pp"
      ],
      [
        "Ġen",
        "f"
      ],
      [
        "Ġsom",
        "mes"
      ],
      [
        "i",
        "eux"
      ],
      [
        "j",
        "ours"
      ],
      [
        "t",
        "her"
      ],
      [
        "ou",
        "gh"
      ],
      [
        "Ġl",
        "ast"
      ],
      [
        "Ġo",
        "Ã¹"
      ],
      [
        "Ġj",
        "us"
      ],
      [
        "oi",
        "re"
      ],
      [
        "Ġe",
        "at"
      ],
      [
        "Ġpro",
        "p"
      ],
      [
        "Ġcon",
        "n"
      ],
      [
        "d",
        "s"
      ],
      [
        "t",
        "le"
      ],
      [
        "Ġs",
        "ay"
      ],
      [
        "Ġm",
        "es"
      ],
      [
        "er",
        "m"
      ],
      [
        "ai",
        "d"
      ],
      [
        "Ġne",
        "w"
      ],
      [
        "Ġave",
        "z"
      ],
      [
        "Ġtou",
        "jours"
      ],
      [
        "Ġ",
        "1"
      ],
      [
        "Ġt",
        "ake"
      ],
      [
        "Ġp",
        "a"
      ],
      [
        "Ġf",
        "ois"
      ],
      [
        "Ġhe",
        "ure"
      ],
      [
        "ĠC",
        "an"
      ],
      [
        "Ã©t",
        "ait"
      ],
      [
        "ĠdÃ©",
        "s"
      ],
      [
        "Ġd",
        "er"
      ],
      [
        "Ġf",
        "ut"
      ],
      [
        "Ġv",
        "is"
      ],
      [
        "ai",
        "ent"
      ],
      [
        "Ġbe",
        "l"
      ],
      [
        "Ġmon",
        "ey"
      ],
      [
        "Ġmais",
        "on"
      ],
      [
        "Ġsomet",
        "hing"
      ],
      [
        "l",
        "s"
      ],
      [
        "t",
        "ing"
      ],
      [
        "Ġs",
        "ent"
      ],
      [
        "Ġf",
        "riend"
      ],
      [
        "Ġb",
        "us"
      ],
      [
        "Ġy",
        "e"
      ],
      [
        "Ġa",
        "w"
      ],
      [
        "Ġp",
        "o"
      ],
      [
        "Ġf",
        "am"
      ],
      [
        "ri",
        "ed"
      ],
      [
        "Ġre",
        "t"
      ],
      [
        "Ġdo",
        "is"
      ],
      [
        "ic",
        "h"
      ],
      [
        "Ġt",
        "en"
      ],
      [
        "Ġl",
        "Ãł"
      ],
      [
        "Ġf",
        "l"
      ],
      [
        "Ġo",
        "ld"
      ],
      [
        "Ġj",
        "ou"
      ],
      [
        "Ġas",
        "k"
      ],
      [
        "ien",
        "s"
      ],
      [
        "Ġhom",
        "e"
      ],
      [
        "Ġseu",
        "le"
      ],
      [
        "c",
        "re"
      ],
      [
        "p",
        "t"
      ],
      [
        "r",
        "ait"
      ],
      [
        "Ġ",
        "ke"
      ],
      [
        "Ġm",
        "o"
      ],
      [
        "Ġv",
        "u"
      ],
      [
        "or",
        "d"
      ],
      [
        "ĠJ",
        "ap"
      ],
      [
        "ent",
        "s"
      ],
      [
        "Ġun",
        "der"
      ],
      [
        "c",
        "her"
      ],
      [
        "Ġ",
        "our"
      ],
      [
        "Ġw",
        "ent"
      ],
      [
        "Ġb",
        "et"
      ],
      [
        "Ġany",
        "thing"
      ],
      [
        "Ġa",
        "p"
      ],
      [
        "Ġa",
        "ussi"
      ],
      [
        "Ġn",
        "om"
      ],
      [
        "Ġw",
        "here"
      ],
      [
        "Ġthe",
        "m"
      ],
      [
        "Ġan",
        "s"
      ],
      [
        "Ġfe",
        "el"
      ],
      [
        "Ġag",
        "ain"
      ],
      [
        "ĠU",
        "n"
      ],
      [
        "Ġvoit",
        "ure"
      ],
      [
        "Ġd",
        "r"
      ],
      [
        "Ġp",
        "ri"
      ],
      [
        "Ġw",
        "ay"
      ],
      [
        "ous",
        "e"
      ],
      [
        "Ġch",
        "ild"
      ],
      [
        "aÃ®",
        "t"
      ],
      [
        "n",
        "t"
      ],
      [
        "Ġt",
        "w"
      ],
      [
        "re",
        "d"
      ],
      [
        "Ġp",
        "ouv"
      ],
      [
        "Ã©",
        "n"
      ],
      [
        "ĠI",
        "f"
      ],
      [
        "Ġb",
        "ack"
      ],
      [
        "ĠC",
        "h"
      ],
      [
        "ĠMar",
        "ie"
      ],
      [
        "rent",
        "s"
      ],
      [
        "n",
        "ed"
      ],
      [
        "v",
        "ent"
      ],
      [
        "it",
        "u"
      ],
      [
        "Ġv",
        "ais"
      ],
      [
        "Ġpl",
        "ay"
      ],
      [
        "op",
        "le"
      ],
      [
        "Ġreg",
        "ard"
      ],
      [
        "i",
        "z"
      ],
      [
        "j",
        "our"
      ],
      [
        "j",
        "Ãł"
      ],
      [
        "r",
        "Ã©"
      ],
      [
        "Ġp",
        "ol"
      ],
      [
        "Ġs",
        "ch"
      ],
      [
        "Ġc",
        "a"
      ],
      [
        "Ġto",
        "ld"
      ],
      [
        "ĠdÃ©",
        "jÃł"
      ],
      [
        "Ã´",
        "t"
      ],
      [
        "b",
        "e"
      ],
      [
        "Ġc",
        "or"
      ],
      [
        "Ġo",
        "ther"
      ],
      [
        "Ġpl",
        "an"
      ],
      [
        "ct",
        "ion"
      ],
      [
        "Ġav",
        "oir"
      ],
      [
        "Ġso",
        "it"
      ],
      [
        "Ġtravai",
        "l"
      ],
      [
        "Ġ",
        "id"
      ],
      [
        "Ġm",
        "ake"
      ],
      [
        "Ġf",
        "er"
      ],
      [
        "Ġg",
        "u"
      ],
      [
        "ĠN",
        "o"
      ],
      [
        "ĠA",
        "s"
      ],
      [
        "ĠP",
        "le"
      ],
      [
        "Ġche",
        "z"
      ],
      [
        "ten",
        "ant"
      ],
      [
        "t",
        "h"
      ],
      [
        "Ġs",
        "ort"
      ],
      [
        "Ġc",
        "our"
      ],
      [
        "Ġc",
        "all"
      ],
      [
        "Ġv",
        "eu"
      ],
      [
        "ĠL",
        "et"
      ],
      [
        "au",
        "x"
      ],
      [
        "Ġlit",
        "tle"
      ],
      [
        "Ġbel",
        "ie"
      ],
      [
        "n",
        "Ã©e"
      ],
      [
        "om",
        "e"
      ],
      [
        "Ġh",
        "ouse"
      ],
      [
        "Ġqu",
        "oi"
      ],
      [
        "le",
        "z"
      ],
      [
        "Ġre",
        "nd"
      ],
      [
        "Ġst",
        "ill"
      ],
      [
        "Ġsch",
        "ool"
      ],
      [
        "ĠPle",
        "ase"
      ],
      [
        "c",
        "ont"
      ],
      [
        "f",
        "ore"
      ],
      [
        "r",
        "it"
      ],
      [
        "Ġa",
        "c"
      ],
      [
        "he",
        "d"
      ],
      [
        "Ġm",
        "et"
      ],
      [
        "Ġm",
        "ont"
      ],
      [
        "an",
        "Ã§"
      ],
      [
        "ĠT",
        "out"
      ],
      [
        "ar",
        "gent"
      ],
      [
        "Ġh",
        "ard"
      ],
      [
        "Ġre",
        "p"
      ],
      [
        "Ã©t",
        "ais"
      ],
      [
        "Ġpr",
        "om"
      ],
      [
        "ĠWh",
        "o"
      ],
      [
        "Ġpe",
        "ople"
      ],
      [
        "b",
        "ien"
      ],
      [
        "l",
        "i"
      ],
      [
        "Ġ",
        "im"
      ],
      [
        "Ġs",
        "aid"
      ],
      [
        "Ġm",
        "us"
      ],
      [
        "Ġf",
        "ind"
      ],
      [
        "Ġf",
        "aut"
      ],
      [
        "ri",
        "ez"
      ],
      [
        "ĠS",
        "i"
      ],
      [
        "ill",
        "es"
      ],
      [
        "Ġpa",
        "rents"
      ],
      [
        "v",
        "Ã©"
      ],
      [
        "Ġd",
        "Ã©t"
      ],
      [
        "Ġp",
        "ay"
      ],
      [
        "Ġs",
        "ou"
      ],
      [
        "er",
        "re"
      ],
      [
        "ar",
        "ri"
      ],
      [
        "Ġqu",
        "and"
      ],
      [
        "Ġg",
        "l"
      ],
      [
        "Ġin",
        "te"
      ],
      [
        "Ġdo",
        "g"
      ],
      [
        "ic",
        "ul"
      ],
      [
        "Ġtr",
        "ou"
      ],
      [
        "ĠD",
        "id"
      ],
      [
        "ren",
        "ch"
      ],
      [
        "h",
        "ui"
      ],
      [
        "o",
        "g"
      ],
      [
        "w",
        "ays"
      ],
      [
        "Ġt",
        "Ã©"
      ],
      [
        "re",
        "ad"
      ],
      [
        "Ġp",
        "orte"
      ],
      [
        "Ġm",
        "Ãªme"
      ],
      [
        "Ġbe",
        "fore"
      ],
      [
        "ap",
        "pe"
      ],
      [
        "au",
        "v"
      ],
      [
        "av",
        "ais"
      ],
      [
        "Ġau",
        "x"
      ],
      [
        "eur",
        "s"
      ],
      [
        "Ġro",
        "om"
      ],
      [
        "Ġhapp",
        "en"
      ],
      [
        "jour",
        "d"
      ],
      [
        "b",
        "ody"
      ],
      [
        "f",
        "t"
      ],
      [
        "Ġa",
        "che"
      ],
      [
        "Ġc",
        "at"
      ],
      [
        "Ġm",
        "in"
      ],
      [
        "Ġn",
        "ight"
      ],
      [
        "os",
        "es"
      ],
      [
        "Ġal",
        "ways"
      ],
      [
        "ĠF",
        "rench"
      ],
      [
        "ĠQue",
        "l"
      ],
      [
        "Ġren",
        "cont"
      ],
      [
        "e",
        "k"
      ],
      [
        "r",
        "Ãª"
      ],
      [
        "t",
        "y"
      ],
      [
        "Ġ",
        "ess"
      ],
      [
        "Ġs",
        "w"
      ],
      [
        "Ġs",
        "le"
      ],
      [
        "as",
        "se"
      ],
      [
        "Ġth",
        "ought"
      ],
      [
        "Ġle",
        "ar"
      ],
      [
        "Ġen",
        "d"
      ],
      [
        "ĠW",
        "here"
      ],
      [
        "Ġtr",
        "y"
      ],
      [
        "Ġpet",
        "it"
      ],
      [
        "anÃ§",
        "ais"
      ],
      [
        "m",
        "s"
      ],
      [
        "re",
        "r"
      ],
      [
        "Ġs",
        "ouv"
      ],
      [
        "Ġm",
        "or"
      ],
      [
        "or",
        "row"
      ],
      [
        "Ġg",
        "ar"
      ],
      [
        "Ġg",
        "ir"
      ],
      [
        "ĠE",
        "lles"
      ],
      [
        "end",
        "re"
      ],
      [
        "Ġdis",
        "p"
      ],
      [
        "ĠrÃ©",
        "p"
      ],
      [
        "ĠÂ",
        "«"
      ],
      [
        "Ġder",
        "n"
      ],
      [
        "it",
        "ion"
      ],
      [
        "Ġf",
        "ais"
      ],
      [
        "ĠÃ",
        "Ģ"
      ],
      [
        "Ġle",
        "ave"
      ],
      [
        "Ã¨",
        "me"
      ],
      [
        "Ġwe",
        "ek"
      ],
      [
        "Ġav",
        "ant"
      ],
      [
        "ĠF",
        "r"
      ],
      [
        "Ġfe",
        "m"
      ],
      [
        "Ġevery",
        "thing"
      ],
      [
        "g",
        "et"
      ],
      [
        "i",
        "Ã©"
      ],
      [
        "u",
        "d"
      ],
      [
        "Ġ",
        "K"
      ],
      [
        "Ġa",
        "im"
      ],
      [
        "Ġp",
        "res"
      ],
      [
        "Ġs",
        "c"
      ],
      [
        "Ġs",
        "ans"
      ],
      [
        "Ġs",
        "imp"
      ],
      [
        "Ġm",
        "ot"
      ],
      [
        "Ġm",
        "ade"
      ],
      [
        "Ġf",
        "ac"
      ],
      [
        "Ġre",
        "c"
      ],
      [
        "Ġme",
        "et"
      ],
      [
        "Ġfr",
        "anÃ§ais"
      ],
      [
        "Ġman",
        "y"
      ],
      [
        "Ġm",
        "om"
      ],
      [
        "or",
        "y"
      ],
      [
        "ent",
        "ion"
      ],
      [
        "ĠEn",
        "gl"
      ],
      [
        "ĠÂ",
        "»"
      ],
      [
        "Ġmain",
        "tenant"
      ],
      [
        "Åĵ",
        "ur"
      ],
      [
        "ĠtÃ©",
        "lÃ©"
      ],
      [
        "p",
        "h"
      ],
      [
        "Ġm",
        "Ã©"
      ],
      [
        "an",
        "c"
      ],
      [
        "Ġw",
        "ait"
      ],
      [
        "Ġo",
        "cc"
      ],
      [
        "Ġhe",
        "ures"
      ],
      [
        "ir",
        "st"
      ],
      [
        "ĠP",
        "ar"
      ],
      [
        "Ġwe",
        "ll"
      ],
      [
        "ation",
        "s"
      ],
      [
        "Ġal",
        "one"
      ],
      [
        "ĠO",
        "Ã¹"
      ],
      [
        "Ã§",
        "on"
      ],
      [
        "Ġliv",
        "re"
      ],
      [
        "Ġint",
        "o"
      ],
      [
        "Ġtw",
        "o"
      ],
      [
        "n",
        "Ã©"
      ],
      [
        "o",
        "k"
      ],
      [
        "u",
        "ck"
      ],
      [
        "Ġp",
        "Ã¨re"
      ],
      [
        "Ġm",
        "oin"
      ],
      [
        "ot",
        "h"
      ],
      [
        "Ġre",
        "st"
      ],
      [
        "Ġe",
        "as"
      ],
      [
        "ter",
        "n"
      ],
      [
        "Ġau",
        "jourd"
      ],
      [
        "Ġpro",
        "bl"
      ],
      [
        "Ġex",
        "p"
      ],
      [
        "ouve",
        "z"
      ],
      [
        "Ġlang",
        "u"
      ],
      [
        "f",
        "ul"
      ],
      [
        "l",
        "es"
      ],
      [
        "Ġc",
        "are"
      ],
      [
        "Ġc",
        "oup"
      ],
      [
        "Ġh",
        "and"
      ],
      [
        "et",
        "s"
      ],
      [
        "Ġli",
        "fe"
      ],
      [
        "Ġpl",
        "ace"
      ],
      [
        "Ġpl",
        "aÃ®t"
      ],
      [
        "Ġcom",
        "ment"
      ],
      [
        "Ġnot",
        "hing"
      ],
      [
        "Ġbelie",
        "ve"
      ],
      [
        "Ġp",
        "at"
      ],
      [
        "in",
        "s"
      ],
      [
        "Ġc",
        "ro"
      ],
      [
        "ar",
        "y"
      ],
      [
        "Ġto",
        "day"
      ],
      [
        "Ġo",
        "ver"
      ],
      [
        "ag",
        "er"
      ],
      [
        "Ġnot",
        "re"
      ],
      [
        "ĠdÃ©",
        "p"
      ],
      [
        "Ġpro",
        "f"
      ],
      [
        "Ġcon",
        "f"
      ],
      [
        "Ġseu",
        "l"
      ],
      [
        "Ġhapp",
        "y"
      ],
      [
        "Ġunder",
        "st"
      ],
      [
        "a",
        "z"
      ],
      [
        "c",
        "er"
      ],
      [
        "c",
        "le"
      ],
      [
        "e",
        "x"
      ],
      [
        "r",
        "is"
      ],
      [
        "Ġs",
        "Ã»"
      ],
      [
        "Ġb",
        "onne"
      ],
      [
        "Ġb",
        "uy"
      ],
      [
        "Ġde",
        "p"
      ],
      [
        "Ġg",
        "ive"
      ],
      [
        "il",
        "y"
      ],
      [
        "Ġch",
        "ien"
      ],
      [
        "Ġr",
        "ais"
      ],
      [
        "pe",
        "ct"
      ],
      [
        "Ġph",
        "ot"
      ],
      [
        "g",
        "er"
      ],
      [
        "o",
        "c"
      ],
      [
        "Ġf",
        "ather"
      ],
      [
        "ai",
        "mer"
      ],
      [
        "Ġj",
        "ob"
      ],
      [
        "Ġre",
        "f"
      ],
      [
        "Ġre",
        "m"
      ],
      [
        "Ġsu",
        "re"
      ],
      [
        "Ġli",
        "ve"
      ],
      [
        "tu",
        "re"
      ],
      [
        "Ġpr",
        "is"
      ],
      [
        "Ġwant",
        "ed"
      ],
      [
        "ak",
        "es"
      ],
      [
        "ĠB",
        "ost"
      ],
      [
        "Ġenf",
        "ants"
      ],
      [
        "Ġaw",
        "ay"
      ],
      [
        "Ġmom",
        "ent"
      ],
      [
        "ĠEngl",
        "ish"
      ],
      [
        "ĠBost",
        "on"
      ],
      [
        "e",
        "au"
      ],
      [
        "Ġ",
        "2"
      ],
      [
        "Ġ",
        "ide"
      ],
      [
        "Ġs",
        "ol"
      ],
      [
        "Ġb",
        "oy"
      ],
      [
        "te",
        "ment"
      ],
      [
        "Ġis",
        "n"
      ],
      [
        "ĠH",
        "ave"
      ],
      [
        "Ġch",
        "at"
      ],
      [
        "ĠA",
        "vez"
      ],
      [
        "si",
        "ble"
      ],
      [
        "Ġtoo",
        "k"
      ],
      [
        "pr",
        "Ã¨s"
      ],
      [
        "Ġquest",
        "ion"
      ],
      [
        "b",
        "er"
      ],
      [
        "v",
        "ing"
      ],
      [
        "Ġs",
        "oir"
      ],
      [
        "Ġm",
        "ieux"
      ],
      [
        "an",
        "k"
      ],
      [
        "at",
        "t"
      ],
      [
        "at",
        "ed"
      ],
      [
        "Ġen",
        "v"
      ],
      [
        "id",
        "er"
      ],
      [
        "ow",
        "n"
      ],
      [
        "Ġtr",
        "ouv"
      ],
      [
        "ĠE",
        "very"
      ],
      [
        "ag",
        "es"
      ],
      [
        "Ġst",
        "art"
      ],
      [
        "ĠQ",
        "ui"
      ],
      [
        "Ġtro",
        "is"
      ],
      [
        "Ġhom",
        "me"
      ],
      [
        "Ġsle",
        "ep"
      ],
      [
        "Ġsimp",
        "le"
      ],
      [
        "Ġt",
        "ur"
      ],
      [
        "Ġp",
        "ut"
      ],
      [
        "Ġp",
        "oin"
      ],
      [
        "Ġs",
        "ing"
      ],
      [
        "Ġs",
        "ens"
      ],
      [
        "Ġf",
        "irst"
      ],
      [
        "Ġv",
        "oy"
      ],
      [
        "Ġg",
        "reat"
      ],
      [
        "Ġin",
        "c"
      ],
      [
        "Ġin",
        "s"
      ],
      [
        "Ġin",
        "v"
      ],
      [
        "Ġas",
        "s"
      ],
      [
        "Ã©c",
        "ole"
      ],
      [
        "Ġal",
        "read"
      ],
      [
        "ĠWh",
        "en"
      ],
      [
        "Ġtou",
        "te"
      ],
      [
        "Ġpre",
        "m"
      ],
      [
        "Ġbet",
        "ter"
      ],
      [
        "aimer",
        "ais"
      ],
      [
        "Ġalread",
        "y"
      ],
      [
        "Ġd",
        "Ã»"
      ],
      [
        "im",
        "es"
      ],
      [
        "Ġen",
        "ough"
      ],
      [
        "Ġcon",
        "d"
      ],
      [
        "Ġdis",
        "c"
      ],
      [
        "Ġpass",
        "Ã©"
      ],
      [
        "mb",
        "er"
      ],
      [
        "Ġap",
        "pe"
      ],
      [
        "a",
        "use"
      ],
      [
        "m",
        "ble"
      ],
      [
        "Ġh",
        "ur"
      ],
      [
        "Ġthe",
        "ir"
      ],
      [
        "Ġth",
        "ree"
      ],
      [
        "Ġch",
        "am"
      ],
      [
        "Ġpar",
        "le"
      ],
      [
        "Ġpr",
        "Ã©s"
      ],
      [
        "Ġdon",
        "e"
      ],
      [
        "Ġst",
        "ay"
      ],
      [
        "Ġtout",
        "es"
      ],
      [
        "bl",
        "es"
      ],
      [
        "Ġimp",
        "ort"
      ],
      [
        "Ġpers",
        "onne"
      ],
      [
        "v",
        "es"
      ],
      [
        "re",
        "z"
      ],
      [
        "Ġl",
        "ate"
      ],
      [
        "Ġl",
        "ors"
      ],
      [
        "Ġl",
        "aiss"
      ],
      [
        "Ġn",
        "uit"
      ],
      [
        "Ġn",
        "ame"
      ],
      [
        "Ġf",
        "o"
      ],
      [
        "Ġde",
        "c"
      ],
      [
        "ar",
        "ly"
      ],
      [
        "Ġv",
        "iv"
      ],
      [
        "or",
        "ry"
      ],
      [
        "Ġdo",
        "or"
      ],
      [
        "Ġch",
        "oses"
      ],
      [
        "ac",
        "c"
      ],
      [
        "Ġtravai",
        "ll"
      ],
      [
        "Ġjus",
        "te"
      ],
      [
        "ĠJap",
        "an"
      ],
      [
        "i",
        "gh"
      ],
      [
        "v",
        "is"
      ],
      [
        "x",
        "t"
      ],
      [
        "Ġ",
        "use"
      ],
      [
        "Ġt",
        "our"
      ],
      [
        "Ġd",
        "ou"
      ],
      [
        "Ġp",
        "ort"
      ],
      [
        "Ġp",
        "uis"
      ],
      [
        "os",
        "s"
      ],
      [
        "Ġe",
        "mp"
      ],
      [
        "Ġse",
        "en"
      ],
      [
        "ac",
        "her"
      ],
      [
        "ĠP",
        "ers"
      ],
      [
        "Ġas",
        "sez"
      ],
      [
        "ire",
        "d"
      ],
      [
        "Ġquel",
        "ques"
      ],
      [
        "Ġdem",
        "ain"
      ],
      [
        "Ġquest",
        "ions"
      ],
      [
        "Ġtom",
        "orrow"
      ],
      [
        "Ġess",
        "ay"
      ],
      [
        "Ġfem",
        "me"
      ],
      [
        "Ġfac",
        "ile"
      ],
      [
        "Ġmoin",
        "s"
      ],
      [
        "0",
        "0"
      ],
      [
        "u",
        "te"
      ],
      [
        "Ġd",
        "own"
      ],
      [
        "Ġs",
        "orry"
      ],
      [
        "Ġm",
        "ag"
      ],
      [
        "Ã©",
        "l"
      ],
      [
        "Ġb",
        "est"
      ],
      [
        "Ġh",
        "o"
      ],
      [
        "Ġle",
        "ft"
      ],
      [
        "Ġdo",
        "it"
      ],
      [
        "ic",
        "t"
      ],
      [
        "Ġr",
        "Ã©s"
      ],
      [
        "ch",
        "Ã©"
      ],
      [
        "ĠA",
        "u"
      ],
      [
        "end",
        "u"
      ],
      [
        "Ġau",
        "c"
      ],
      [
        "Ġpro",
        "ble"
      ],
      [
        "Ġwith",
        "out"
      ],
      [
        "Ġaut",
        "re"
      ],
      [
        "Ġple",
        "ase"
      ],
      [
        "Ġbec",
        "ause"
      ],
      [
        "Ġdr",
        "ink"
      ],
      [
        "Ġunderst",
        "and"
      ],
      [
        "ĠPers",
        "onne"
      ],
      [
        "i",
        "a"
      ],
      [
        "Ġt",
        "ri"
      ],
      [
        "Ġa",
        "ime"
      ],
      [
        "Ġp",
        "ain"
      ],
      [
        "Ġm",
        "Ã¨re"
      ],
      [
        "Ġm",
        "ind"
      ],
      [
        "Ġf",
        "ille"
      ],
      [
        "Ġb",
        "re"
      ],
      [
        "Ġe",
        "ff"
      ],
      [
        "Ġe",
        "ven"
      ],
      [
        "Ġdo",
        "ing"
      ],
      [
        "ĠA",
        "n"
      ],
      [
        "Ġk",
        "ind"
      ],
      [
        "Ġwh",
        "y"
      ],
      [
        "ak",
        "ing"
      ],
      [
        "Ġus",
        "ed"
      ],
      [
        "Ġpens",
        "ais"
      ],
      [
        "Ġven",
        "ir"
      ],
      [
        "Ġask",
        "ed"
      ],
      [
        "arri",
        "ve"
      ],
      [
        "ĠFr",
        "ance"
      ],
      [
        "Ġide",
        "a"
      ],
      [
        "Ġp",
        "rendre"
      ],
      [
        "es",
        "p"
      ],
      [
        "in",
        "t"
      ],
      [
        "Ġc",
        "ap"
      ],
      [
        "Ġm",
        "ort"
      ],
      [
        "Ġb",
        "o"
      ],
      [
        "Ġb",
        "ou"
      ],
      [
        "Ġg",
        "ens"
      ],
      [
        "Ġo",
        "b"
      ],
      [
        "ro",
        "it"
      ],
      [
        "ĠC",
        "ette"
      ],
      [
        "Ġdo",
        "ct"
      ],
      [
        "Ġtr",
        "ouve"
      ],
      [
        "ch",
        "es"
      ],
      [
        "Ġse",
        "c"
      ],
      [
        "Ġsa",
        "w"
      ],
      [
        "ĠCom",
        "bien"
      ],
      [
        "Ġlook",
        "ing"
      ],
      [
        "Ġaf",
        "ter"
      ],
      [
        "Ġthing",
        "s"
      ],
      [
        "Ġye",
        "ars"
      ],
      [
        "Ġocc",
        "up"
      ],
      [
        "i",
        "ous"
      ],
      [
        "j",
        "et"
      ],
      [
        "t",
        "r"
      ],
      [
        "u",
        "g"
      ],
      [
        "w",
        "n"
      ],
      [
        "Ġa",
        "prÃ¨s"
      ],
      [
        "Ġp",
        "eur"
      ],
      [
        "Ġl",
        "eur"
      ],
      [
        "Ġc",
        "le"
      ],
      [
        "Ġm",
        "anger"
      ],
      [
        "Ġw",
        "alk"
      ],
      [
        "Ġf",
        "ai"
      ],
      [
        "Ġb",
        "ed"
      ],
      [
        "at",
        "h"
      ],
      [
        "est",
        "er"
      ],
      [
        "Ġbe",
        "ing"
      ],
      [
        "ut",
        "il"
      ],
      [
        "Ġha",
        "b"
      ],
      [
        "Ġch",
        "ance"
      ],
      [
        "Ġte",
        "acher"
      ],
      [
        "end",
        "ant"
      ],
      [
        "ien",
        "ce"
      ],
      [
        "Ġpart",
        "ir"
      ],
      [
        "Ġdiff",
        "icul"
      ],
      [
        "Ġcou",
        "nt"
      ],
      [
        "ĠprÃ©",
        "f"
      ],
      [
        "Ġnouve",
        "au"
      ],
      [
        "Ġwat",
        "er"
      ],
      [
        "Ġvis",
        "it"
      ],
      [
        "Ġveu",
        "t"
      ],
      [
        "Ġt",
        "es"
      ],
      [
        "Ġp",
        "ren"
      ],
      [
        "Ġn",
        "um"
      ],
      [
        "Ġh",
        "ier"
      ],
      [
        "lle",
        "ment"
      ],
      [
        "Ġe",
        "ver"
      ],
      [
        "id",
        "Ã©"
      ],
      [
        "Ġr",
        "ou"
      ],
      [
        "Ġr",
        "ain"
      ],
      [
        "Ġpr",
        "Ãª"
      ],
      [
        "Ġwor",
        "ld"
      ],
      [
        "Ġvoul",
        "ais"
      ],
      [
        "ĠdÃ©s",
        "ol"
      ],
      [
        ".",
        "."
      ],
      [
        "o",
        "ck"
      ],
      [
        "Ġc",
        "es"
      ],
      [
        "Ġc",
        "et"
      ],
      [
        "Ġc",
        "ame"
      ],
      [
        "Ġc",
        "ert"
      ],
      [
        "om",
        "me"
      ],
      [
        "Ġyou",
        "n"
      ],
      [
        "ĠÃ",
        "Ĭ"
      ],
      [
        "te",
        "mps"
      ],
      [
        "Ġof",
        "ten"
      ],
      [
        "me",
        "mber"
      ],
      [
        "ĠM",
        "a"
      ],
      [
        "ĠE",
        "s"
      ],
      [
        "Ġli",
        "re"
      ],
      [
        "Ġk",
        "ne"
      ],
      [
        "Ġwh",
        "ich"
      ],
      [
        "Ġsur",
        "pr"
      ],
      [
        "ave",
        "z"
      ],
      [
        "Ġlet",
        "ter"
      ],
      [
        "Ġsav",
        "oir"
      ],
      [
        "Ġheure",
        "ux"
      ],
      [
        "Ġke",
        "ep"
      ],
      [
        "Ġid",
        "Ã©e"
      ],
      [
        "Ġinte",
        "res"
      ],
      [
        "Ġsimple",
        "ment"
      ],
      [
        "Ġpoin",
        "t"
      ],
      [
        "Ġimport",
        "ant"
      ],
      [
        "i",
        "ques"
      ],
      [
        "Ġs",
        "al"
      ],
      [
        "is",
        "ter"
      ],
      [
        "in",
        "ce"
      ],
      [
        "Ġc",
        "ol"
      ],
      [
        "Ġm",
        "is"
      ],
      [
        "Ġm",
        "other"
      ],
      [
        "it",
        "al"
      ],
      [
        "Ġf",
        "at"
      ],
      [
        "qu",
        "ot"
      ],
      [
        "Ġv",
        "os"
      ],
      [
        "ent",
        "e"
      ],
      [
        "us",
        "es"
      ],
      [
        "te",
        "au"
      ],
      [
        "Ġen",
        "se"
      ],
      [
        "Ġli",
        "k"
      ],
      [
        "ĠA",
        "ll"
      ],
      [
        "ĠD",
        "an"
      ],
      [
        "Ġpour",
        "quoi"
      ],
      [
        "Ġex",
        "pl"
      ],
      [
        "Ġcomp",
        "l"
      ],
      [
        "rai",
        "d"
      ],
      [
        "Ġdev",
        "rais"
      ],
      [
        "ĠU",
        "ne"
      ],
      [
        "Ġcomm",
        "en"
      ],
      [
        "Ġop",
        "en"
      ],
      [
        "Ġchild",
        "ren"
      ],
      [
        "ĠÃĬ",
        "tes"
      ],
      [
        "m",
        "in"
      ],
      [
        "Ġt",
        "able"
      ],
      [
        "Ġd",
        "orm"
      ],
      [
        "Ġl",
        "ost"
      ],
      [
        "Ġm",
        "ost"
      ],
      [
        "er",
        "ve"
      ],
      [
        "Ġf",
        "ound"
      ],
      [
        "Ġb",
        "ad"
      ],
      [
        "ar",
        "r"
      ],
      [
        "Ġv",
        "i"
      ],
      [
        "Ġv",
        "ol"
      ],
      [
        "or",
        "ter"
      ],
      [
        "est",
        "e"
      ],
      [
        "Ġg",
        "en"
      ],
      [
        "Ġhe",
        "ar"
      ],
      [
        "Ġe",
        "y"
      ],
      [
        "Ġbe",
        "aut"
      ],
      [
        "Ġch",
        "ang"
      ],
      [
        "ag",
        "ne"
      ],
      [
        "Ġst",
        "r"
      ],
      [
        "if",
        "e"
      ],
      [
        "Ġab",
        "s"
      ],
      [
        "Ġsem",
        "aine"
      ],
      [
        "Ġaf",
        "raid"
      ],
      [
        "Ġdemand",
        "Ã©"
      ],
      [
        "Ġwat",
        "ch"
      ],
      [
        "Ġtrou",
        "ver"
      ],
      [
        "Ġsouv",
        "ent"
      ],
      [
        "Ġdern",
        "iÃ¨re"
      ],
      [
        "Ġeas",
        "y"
      ],
      [
        "Ġkne",
        "w"
      ],
      [
        "i",
        "vers"
      ],
      [
        "l",
        "ui"
      ],
      [
        "n",
        "is"
      ],
      [
        "w",
        "e"
      ],
      [
        "Ġt",
        "er"
      ],
      [
        "Ġp",
        "ouvez"
      ],
      [
        "Ġs",
        "ait"
      ],
      [
        "Ġl",
        "un"
      ],
      [
        "Ġm",
        "ay"
      ],
      [
        "Ġm",
        "iss"
      ],
      [
        "qu",
        "er"
      ],
      [
        "Ġb",
        "u"
      ],
      [
        "at",
        "s"
      ],
      [
        "Ġy",
        "et"
      ],
      [
        "ĠÃ",
        "ī"
      ],
      [
        "us",
        "s"
      ],
      [
        "Ġin",
        "tÃ©"
      ],
      [
        "Ġe",
        "mb"
      ],
      [
        "Ġbe",
        "g"
      ],
      [
        "ĠH",
        "is"
      ],
      [
        "ĠD",
        "e"
      ],
      [
        "Ġcon",
        "c"
      ],
      [
        "Ġsh",
        "ow"
      ],
      [
        "Ġco",
        "ld"
      ],
      [
        "Ġent",
        "re"
      ],
      [
        "ĠQu",
        "and"
      ],
      [
        "Ġsm",
        "all"
      ],
      [
        "Ġbus",
        "y"
      ],
      [
        "Ġpol",
        "ice"
      ],
      [
        "Ġim",
        "m"
      ],
      [
        "Ġcro",
        "is"
      ],
      [
        "ester",
        "day"
      ],
      [
        "b",
        "a"
      ],
      [
        "f",
        "orm"
      ],
      [
        "m",
        "Ãªme"
      ],
      [
        "y",
        "s"
      ],
      [
        "Ġd",
        "ur"
      ],
      [
        "Ġp",
        "ays"
      ],
      [
        "is",
        "te"
      ],
      [
        "Ã©",
        "g"
      ],
      [
        "Ġf",
        "ar"
      ],
      [
        "at",
        "o"
      ],
      [
        "Ġv",
        "Ã©r"
      ],
      [
        "Ġne",
        "xt"
      ],
      [
        "os",
        "ed"
      ],
      [
        "Ġre",
        "member"
      ],
      [
        "oi",
        "d"
      ],
      [
        "ment",
        "s"
      ],
      [
        "ain",
        "s"
      ],
      [
        "ag",
        "n"
      ],
      [
        "ac",
        "he"
      ],
      [
        "Ġst",
        "op"
      ],
      [
        "Ġall",
        "Ã©"
      ],
      [
        "ui",
        "re"
      ],
      [
        "Ġlook",
        "s"
      ],
      [
        "ĠR",
        "e"
      ],
      [
        "Ġstu",
        "d"
      ],
      [
        "Ġpos",
        "sible"
      ],
      [
        "Ġsem",
        "ble"
      ],
      [
        "Ġjus",
        "qu"
      ],
      [
        "Ġret",
        "ard"
      ],
      [
        "iz",
        "e"
      ],
      [
        "c",
        "Ã©"
      ],
      [
        "h",
        "ab"
      ],
      [
        "Ġc",
        "her"
      ],
      [
        "an",
        "y"
      ],
      [
        "Ġf",
        "u"
      ],
      [
        "qu",
        "i"
      ],
      [
        "Ġb",
        "or"
      ],
      [
        "Ġb",
        "ig"
      ],
      [
        "ais",
        "se"
      ],
      [
        "Ġj",
        "ours"
      ],
      [
        "ut",
        "h"
      ],
      [
        "ut",
        "er"
      ],
      [
        "ic",
        "al"
      ],
      [
        "Ġtr",
        "ans"
      ],
      [
        "ĠM",
        "ay"
      ],
      [
        "Ġfor",
        "t"
      ],
      [
        "av",
        "oir"
      ],
      [
        "Ġwant",
        "s"
      ],
      [
        "Ġpro",
        "b"
      ],
      [
        "aut",
        "re"
      ],
      [
        "Ġcont",
        "r"
      ],
      [
        "Ġlet",
        "tre"
      ],
      [
        "Ġsav",
        "ais"
      ],
      [
        "Ġpi",
        "Ã¨"
      ],
      [
        "Ġprobl",
        "Ã¨me"
      ],
      [
        "Ġcham",
        "bre"
      ],
      [
        "Ġdoct",
        "or"
      ],
      [
        "util",
        "is"
      ],
      [
        "p",
        "ar"
      ],
      [
        "u",
        "es"
      ],
      [
        "Ġa",
        "ct"
      ],
      [
        "Ġa",
        "ff"
      ],
      [
        "Ġf",
        "il"
      ],
      [
        "Ġf",
        "all"
      ],
      [
        "Ġh",
        "ot"
      ],
      [
        "Ġh",
        "um"
      ],
      [
        "Ġtr",
        "a"
      ],
      [
        "Ġtr",
        "uth"
      ],
      [
        "Ġch",
        "a"
      ],
      [
        "Ġch",
        "ar"
      ],
      [
        "Ġse",
        "cre"
      ],
      [
        "av",
        "ant"
      ],
      [
        "Ġk",
        "ill"
      ],
      [
        "end",
        "s"
      ],
      [
        "ien",
        "ne"
      ],
      [
        "Ġdev",
        "en"
      ],
      [
        "ĠCe",
        "la"
      ],
      [
        "ĠQue",
        "lle"
      ],
      [
        "Ġad",
        "v"
      ],
      [
        "Ġwr",
        "it"
      ],
      [
        "Ġacc",
        "ident"
      ],
      [
        "Ġsort",
        "ir"
      ],
      [
        "Ġdep",
        "uis"
      ],
      [
        "Ġdifficul",
        "t"
      ],
      [
        "Ġyoun",
        "g"
      ],
      [
        "l",
        "u"
      ],
      [
        "p",
        "er"
      ],
      [
        "r",
        "Ã©c"
      ],
      [
        "u",
        "di"
      ],
      [
        "Ġs",
        "k"
      ],
      [
        "Ġn",
        "at"
      ],
      [
        "Ġb",
        "it"
      ],
      [
        "Ġme",
        "ill"
      ],
      [
        "Ã¨",
        "te"
      ],
      [
        "ĠY",
        "our"
      ],
      [
        "Ġcon",
        "se"
      ],
      [
        "ĠB",
        "e"
      ],
      [
        "Ġdev",
        "ons"
      ],
      [
        "Ġquel",
        "qu"
      ],
      [
        "Ġwr",
        "ong"
      ],
      [
        "Ġprop",
        "os"
      ],
      [
        "Ġye",
        "ar"
      ],
      [
        "Ġphot",
        "o"
      ],
      [
        "e",
        "e"
      ],
      [
        "h",
        "omme"
      ],
      [
        "Ġd",
        "in"
      ],
      [
        "Ġp",
        "endant"
      ],
      [
        "Ġm",
        "auv"
      ],
      [
        "Ġw",
        "om"
      ],
      [
        "Ġb",
        "i"
      ],
      [
        "ar",
        "k"
      ],
      [
        "Ġy",
        "esterday"
      ],
      [
        "ent",
        "re"
      ],
      [
        "ai",
        "res"
      ],
      [
        "Ġe",
        "arly"
      ],
      [
        "Ã¨",
        "res"
      ],
      [
        "ut",
        "es"
      ],
      [
        "ver",
        "t"
      ],
      [
        "Ġce",
        "ci"
      ],
      [
        "au",
        "rais"
      ],
      [
        "ren",
        "ce"
      ],
      [
        "Ġar",
        "ound"
      ],
      [
        "Ġcomp",
        "le"
      ],
      [
        "Ġfe",
        "w"
      ],
      [
        "art",
        "h"
      ],
      [
        "Ġcl",
        "ass"
      ],
      [
        "Ġser",
        "v"
      ],
      [
        "je",
        "ct"
      ],
      [
        "Ġpre",
        "t"
      ],
      [
        "Ġper",
        "du"
      ],
      [
        "Ġread",
        "y"
      ],
      [
        "ale",
        "ment"
      ],
      [
        "Ġstu",
        "dy"
      ],
      [
        "Ġpet",
        "ite"
      ],
      [
        "Ġcor",
        "re"
      ],
      [
        "Ġsw",
        "im"
      ],
      [
        "Ġmor",
        "ning"
      ],
      [
        "ph",
        "one"
      ],
      [
        "Ġprof",
        "ess"
      ],
      [
        "ĠsÃ»",
        "r"
      ],
      [
        "Ġrais",
        "on"
      ],
      [
        "Ġmauv",
        "ais"
      ],
      [
        "c",
        "in"
      ],
      [
        "e",
        "mp"
      ],
      [
        "g",
        "ry"
      ],
      [
        "i",
        "al"
      ],
      [
        "i",
        "ble"
      ],
      [
        "l",
        "ais"
      ],
      [
        "n",
        "ous"
      ],
      [
        "o",
        "ke"
      ],
      [
        "t",
        "il"
      ],
      [
        "Ġt",
        "ard"
      ],
      [
        "Ġt",
        "ired"
      ],
      [
        "Ġa",
        "ren"
      ],
      [
        "re",
        "ux"
      ],
      [
        "Ġl",
        "ar"
      ],
      [
        "in",
        "Ã©"
      ],
      [
        "an",
        "ces"
      ],
      [
        "Ġf",
        "un"
      ],
      [
        "Ġb",
        "ri"
      ],
      [
        "ai",
        "de"
      ],
      [
        "le",
        "ur"
      ],
      [
        "Ġin",
        "d"
      ],
      [
        "Ã¨",
        "rent"
      ],
      [
        "Ġan",
        "other"
      ],
      [
        "Ã©t",
        "Ã©"
      ],
      [
        "ĠA",
        "t"
      ],
      [
        "ĠP",
        "uis"
      ],
      [
        "Ġyour",
        "self"
      ],
      [
        "ol",
        "og"
      ],
      [
        "Ġex",
        "am"
      ],
      [
        "Ġam",
        "i"
      ],
      [
        "Ġhim",
        "self"
      ],
      [
        "op",
        "ul"
      ],
      [
        "Ġgr",
        "os"
      ],
      [
        "Ġmar",
        "ried"
      ],
      [
        "Ġser",
        "a"
      ],
      [
        "iv",
        "es"
      ],
      [
        "Ġbr",
        "other"
      ],
      [
        "Ġmat",
        "in"
      ],
      [
        "ĠJap",
        "on"
      ],
      [
        "Ġlear",
        "n"
      ],
      [
        "ĠPar",
        "is"
      ],
      [
        ".",
        "\""
      ],
      [
        "t",
        "oi"
      ],
      [
        "Ġd",
        "ri"
      ],
      [
        "Ġp",
        "ap"
      ],
      [
        "is",
        "hed"
      ],
      [
        "Ġc",
        "uis"
      ],
      [
        "Ġm",
        "er"
      ],
      [
        "Ġm",
        "ine"
      ],
      [
        "Ġn",
        "on"
      ],
      [
        "at",
        "er"
      ],
      [
        "Ġy",
        "eux"
      ],
      [
        "Ġqu",
        "it"
      ],
      [
        "ing",
        "s"
      ],
      [
        "Ġth",
        "ese"
      ],
      [
        "ot",
        "e"
      ],
      [
        "Ġre",
        "al"
      ],
      [
        "Ġin",
        "st"
      ],
      [
        "ce",
        "pt"
      ],
      [
        "ut",
        "ion"
      ],
      [
        "Ġtr",
        "ue"
      ],
      [
        "Ġch",
        "ange"
      ],
      [
        "Ġon",
        "ce"
      ],
      [
        "Ġr",
        "un"
      ],
      [
        "ĠÃ©t",
        "aient"
      ],
      [
        "Ġknow",
        "s"
      ],
      [
        "Ġar",
        "t"
      ],
      [
        "ĠDo",
        "es"
      ],
      [
        "Ġpart",
        "y"
      ],
      [
        "Ġdiff",
        "Ã©"
      ],
      [
        "Ġarri",
        "vÃ©"
      ],
      [
        "Ġpers",
        "on"
      ],
      [
        "Ġop",
        "in"
      ],
      [
        "Ġpu",
        "bl"
      ],
      [
        "Ġfam",
        "ille"
      ],
      [
        "Ġbre",
        "ak"
      ],
      [
        "Ġsurpr",
        "is"
      ],
      [
        "ĠvÃ©r",
        "itÃ©"
      ],
      [
        "e",
        "ba"
      ],
      [
        "l",
        "t"
      ],
      [
        "n",
        "ent"
      ],
      [
        "r",
        "ant"
      ],
      [
        "Ġp",
        "opul"
      ],
      [
        "Ġs",
        "Åĵur"
      ],
      [
        "Ġs",
        "ister"
      ],
      [
        "Ġl",
        "ist"
      ],
      [
        "Ġn",
        "ice"
      ],
      [
        "Ġw",
        "ar"
      ],
      [
        "Ġw",
        "ind"
      ],
      [
        "Ġv",
        "ac"
      ],
      [
        "Ġv",
        "ille"
      ],
      [
        "Ġh",
        "un"
      ],
      [
        "Ġg",
        "ard"
      ],
      [
        "Ġg",
        "Ã©n"
      ],
      [
        "oi",
        "x"
      ],
      [
        "lle",
        "z"
      ],
      [
        "Ġbe",
        "h"
      ],
      [
        "ic",
        "y"
      ],
      [
        "ĠE",
        "x"
      ],
      [
        "ĠÃ©t",
        "udi"
      ],
      [
        "Ġpr",
        "in"
      ],
      [
        "ang",
        "lais"
      ],
      [
        "Ġst",
        "ation"
      ],
      [
        "Ġso",
        "on"
      ],
      [
        "Ġar",
        "rÃª"
      ],
      [
        "Ġsa",
        "me"
      ],
      [
        "Ġwor",
        "d"
      ],
      [
        "ici",
        "le"
      ],
      [
        "ĠÃ©",
        "g"
      ],
      [
        "Ġcr",
        "oire"
      ],
      [
        "ĠG",
        "et"
      ],
      [
        "Ġad",
        "d"
      ],
      [
        "Ġaut",
        "res"
      ],
      [
        "Ġdiff",
        "icile"
      ],
      [
        "Ġarri",
        "ve"
      ],
      [
        "Ġmat",
        "ter"
      ],
      [
        "Ġbook",
        "s"
      ],
      [
        "Ġlang",
        "ue"
      ],
      [
        "Ġfriend",
        "s"
      ],
      [
        "Ġhappen",
        "ed"
      ],
      [
        "Ġache",
        "tÃ©"
      ],
      [
        "Ġmin",
        "utes"
      ],
      [
        "Ġtrouv",
        "Ã©"
      ],
      [
        "Ġvoy",
        "age"
      ],
      [
        "Ġcount",
        "ry"
      ],
      [
        "ato",
        "eba"
      ],
      [
        "?",
        "\""
      ],
      [
        "i",
        "ers"
      ],
      [
        "m",
        "an"
      ],
      [
        "o",
        "h"
      ],
      [
        "s",
        "on"
      ],
      [
        "t",
        "res"
      ],
      [
        "Ġt",
        "Ã´t"
      ],
      [
        "Ġt",
        "imes"
      ],
      [
        "Ġs",
        "ous"
      ],
      [
        "Ġc",
        "am"
      ],
      [
        "Ġm",
        "ou"
      ],
      [
        "Ġm",
        "akes"
      ],
      [
        "Ġf",
        "our"
      ],
      [
        "om",
        "m"
      ],
      [
        "om",
        "p"
      ],
      [
        "ll",
        "ig"
      ],
      [
        "ĠT",
        "atoeba"
      ],
      [
        "ai",
        "l"
      ],
      [
        "ai",
        "der"
      ],
      [
        "le",
        "d"
      ],
      [
        "ri",
        "b"
      ],
      [
        "il",
        "es"
      ],
      [
        "Ġre",
        "d"
      ],
      [
        "Ġre",
        "v"
      ],
      [
        "ĠW",
        "ould"
      ],
      [
        "Ġr",
        "u"
      ],
      [
        "ill",
        "Ã©"
      ],
      [
        "if",
        "ul"
      ],
      [
        "Ġmy",
        "self"
      ],
      [
        "Ġex",
        "c"
      ],
      [
        "Ġaut",
        "ant"
      ],
      [
        "Ġdiff",
        "e"
      ],
      [
        "Ġatt",
        "ention"
      ],
      [
        "Ġcould",
        "n"
      ],
      [
        "Ġstu",
        "p"
      ],
      [
        "Ġwon",
        "der"
      ],
      [
        "Ġnom",
        "bre"
      ],
      [
        "itu",
        "de"
      ],
      [
        "ĠmÃ©",
        "de"
      ],
      [
        "Ġho",
        "pe"
      ],
      [
        "Ġproble",
        "m"
      ],
      [
        "b",
        "r"
      ],
      [
        "i",
        "p"
      ],
      [
        "m",
        "ore"
      ],
      [
        "n",
        "ot"
      ],
      [
        "u",
        "Ã©"
      ],
      [
        "Ġt",
        "erm"
      ],
      [
        "Ġd",
        "ont"
      ],
      [
        "Ġd",
        "anger"
      ],
      [
        "Ġm",
        "ist"
      ],
      [
        "Ġn",
        "our"
      ],
      [
        "Ġf",
        "av"
      ],
      [
        "Ġv",
        "ue"
      ],
      [
        "Ġh",
        "air"
      ],
      [
        "Ġth",
        "r"
      ],
      [
        "Ġth",
        "ose"
      ],
      [
        "us",
        "ed"
      ],
      [
        "Ġan",
        "im"
      ],
      [
        "Ġan",
        "gl"
      ],
      [
        "ĠS",
        "t"
      ],
      [
        "ĠS",
        "on"
      ],
      [
        "al",
        "th"
      ],
      [
        "Ġje",
        "une"
      ],
      [
        "Ġpour",
        "rait"
      ],
      [
        "Ġcomp",
        "ren"
      ],
      [
        "Ġany",
        "more"
      ],
      [
        "Ġsi",
        "x"
      ],
      [
        "ĠÃ©",
        "p"
      ],
      [
        "Ġad",
        "m"
      ],
      [
        "je",
        "un"
      ],
      [
        "Ġliv",
        "es"
      ],
      [
        "Ġou",
        "bl"
      ],
      [
        "onn",
        "es"
      ],
      [
        "Ġtalk",
        "ing"
      ],
      [
        "Ġjour",
        "nÃ©e"
      ],
      [
        "Ġpi",
        "an"
      ],
      [
        "Ġdemand",
        "e"
      ],
      [
        "Ġca",
        "f"
      ],
      [
        "Ġache",
        "ter"
      ],
      [
        "Ġgar",
        "Ã§on"
      ],
      [
        "Ġlik",
        "es"
      ],
      [
        "ĠpiÃ¨",
        "ce"
      ],
      [
        "b",
        "Ã©"
      ],
      [
        "n",
        "es"
      ],
      [
        "p",
        "ital"
      ],
      [
        "r",
        "al"
      ],
      [
        "Ġs",
        "at"
      ],
      [
        "Ġl",
        "oin"
      ],
      [
        "Ġl",
        "uck"
      ],
      [
        "Ġf",
        "i"
      ],
      [
        "Ġf",
        "ree"
      ],
      [
        "Ġf",
        "Ãªte"
      ],
      [
        "Ġf",
        "illes"
      ],
      [
        "Ġb",
        "icy"
      ],
      [
        "ĠT",
        "o"
      ],
      [
        "at",
        "es"
      ],
      [
        "Ġv",
        "ite"
      ],
      [
        "Ġh",
        "or"
      ],
      [
        "ve",
        "ux"
      ],
      [
        "Ġth",
        "Ã©"
      ],
      [
        "Ġpas",
        "se"
      ],
      [
        "ais",
        "sez"
      ],
      [
        "Ġre",
        "l"
      ],
      [
        "Ġhe",
        "art"
      ],
      [
        "Ġan",
        "n"
      ],
      [
        "id",
        "ed"
      ],
      [
        "Ġli",
        "ght"
      ],
      [
        "Ġfor",
        "g"
      ],
      [
        "Ġcan",
        "not"
      ],
      [
        "Ġpro",
        "ch"
      ],
      [
        "Ġfr",
        "Ã¨re"
      ],
      [
        "Ġhis",
        "t"
      ],
      [
        "Ġex",
        "act"
      ],
      [
        "Ġam",
        "ou"
      ],
      [
        "um",
        "er"
      ],
      [
        "ĠG",
        "o"
      ],
      [
        "Ġapp",
        "rendre"
      ],
      [
        "Ġor",
        "d"
      ],
      [
        "Ġres",
        "ter"
      ],
      [
        "Ġvou",
        "d"
      ],
      [
        "Ġco",
        "Ã»"
      ],
      [
        "Ġtravai",
        "lle"
      ],
      [
        "Ġlong",
        "temps"
      ],
      [
        "Ġbl",
        "ess"
      ],
      [
        "Ġnew",
        "s"
      ],
      [
        "Ġfam",
        "ily"
      ],
      [
        "Ġseule",
        "ment"
      ],
      [
        "Ġcall",
        "ed"
      ],
      [
        "Ġgir",
        "l"
      ],
      [
        "Ġtravaill",
        "er"
      ],
      [
        "vis",
        "ion"
      ],
      [
        "Ġauc",
        "une"
      ],
      [
        "Ġfat",
        "ig"
      ],
      [
        "Ġbeaut",
        "iful"
      ],
      [
        "ĠintÃ©",
        "ress"
      ],
      [
        "Ġfil",
        "m"
      ],
      [
        "Ġdin",
        "ner"
      ],
      [
        "ĠmÃ©de",
        "cin"
      ],
      [
        "c",
        "tu"
      ],
      [
        "f",
        "ait"
      ],
      [
        "u",
        "ro"
      ],
      [
        "v",
        "ie"
      ],
      [
        "Ġ",
        "utilis"
      ],
      [
        "Ġt",
        "y"
      ],
      [
        "Ġt",
        "ried"
      ],
      [
        "Ġa",
        "ur"
      ],
      [
        "Ġa",
        "ider"
      ],
      [
        "Ġd",
        "Ã®"
      ],
      [
        "Ġd",
        "ays"
      ],
      [
        "Ġs",
        "l"
      ],
      [
        "Ġs",
        "itu"
      ],
      [
        "he",
        "ure"
      ],
      [
        "Ġc",
        "op"
      ],
      [
        "Ġm",
        "ang"
      ],
      [
        "Ġm",
        "ight"
      ],
      [
        "Ã©",
        "ro"
      ],
      [
        "it",
        "ed"
      ],
      [
        "Ġf",
        "a"
      ],
      [
        "Ġf",
        "en"
      ],
      [
        "Ġf",
        "ood"
      ],
      [
        "Ġf",
        "ace"
      ],
      [
        "qu",
        "Ã©"
      ],
      [
        "Ġb",
        "ought"
      ],
      [
        "ll",
        "ow"
      ],
      [
        "ĠT",
        "e"
      ],
      [
        "Ġv",
        "it"
      ],
      [
        "Ġh",
        "ours"
      ],
      [
        "Ġg",
        "ave"
      ],
      [
        "Ġun",
        "til"
      ],
      [
        "Ġque",
        "lle"
      ],
      [
        "Ġsu",
        "ch"
      ],
      [
        "ĠS",
        "ome"
      ],
      [
        "Ġha",
        "ven"
      ],
      [
        "Ġha",
        "ving"
      ],
      [
        "ĠA",
        "r"
      ],
      [
        "Ġcom",
        "ing"
      ],
      [
        "au",
        "rant"
      ],
      [
        "Ġfr",
        "oid"
      ],
      [
        "ig",
        "e"
      ],
      [
        "Ġfait",
        "es"
      ],
      [
        "Ġcomp",
        "rendre"
      ],
      [
        "Ġdis",
        "t"
      ],
      [
        "ci",
        "ent"
      ],
      [
        "are",
        "d"
      ],
      [
        "Ġmar",
        "i"
      ],
      [
        "ass",
        "er"
      ],
      [
        "Ġche",
        "veux"
      ],
      [
        "Ġco",
        "ff"
      ],
      [
        "Ġent",
        "endu"
      ],
      [
        "Ġper",
        "m"
      ],
      [
        "Ġliv",
        "res"
      ],
      [
        "Ġread",
        "ing"
      ],
      [
        "Ġten",
        "nis"
      ],
      [
        "Ġans",
        "w"
      ],
      [
        "Ġinte",
        "llig"
      ],
      [
        "Ġrest",
        "aurant"
      ],
      [
        "Ġstart",
        "ed"
      ],
      [
        "Ġtur",
        "ned"
      ],
      [
        "ĠJapan",
        "ese"
      ],
      [
        "Ġsecre",
        "t"
      ],
      [
        "Ġsitu",
        "ation"
      ],
      [
        "c",
        "ed"
      ],
      [
        "g",
        "g"
      ],
      [
        "i",
        "an"
      ],
      [
        "l",
        "oi"
      ],
      [
        "w",
        "here"
      ],
      [
        "y",
        "ez"
      ],
      [
        "ou",
        "d"
      ],
      [
        "Ġa",
        "ir"
      ],
      [
        "Ġs",
        "un"
      ],
      [
        "in",
        "er"
      ],
      [
        "Ġc",
        "ook"
      ],
      [
        "Ġc",
        "ost"
      ],
      [
        "Ġc",
        "ours"
      ],
      [
        "Ã©",
        "d"
      ],
      [
        "er",
        "a"
      ],
      [
        "Ġw",
        "in"
      ],
      [
        "Ġf",
        "eu"
      ],
      [
        "Ġb",
        "ro"
      ],
      [
        "at",
        "ing"
      ],
      [
        "Ġh",
        "igh"
      ],
      [
        "Ġto",
        "get"
      ],
      [
        "et",
        "tes"
      ],
      [
        "ri",
        "ons"
      ],
      [
        "Ġre",
        "ven"
      ],
      [
        "Ġin",
        "ter"
      ],
      [
        "Ġsu",
        "b"
      ],
      [
        "Ġsu",
        "jet"
      ],
      [
        "al",
        "is"
      ],
      [
        "ĠH",
        "er"
      ],
      [
        "Ġch",
        "au"
      ],
      [
        "Ġr",
        "appe"
      ],
      [
        "ĠA",
        "m"
      ],
      [
        "Ġpar",
        "ce"
      ],
      [
        "Ġwas",
        "n"
      ],
      [
        "pp",
        "ed"
      ],
      [
        "Ġres",
        "p"
      ],
      [
        "ress",
        "ion"
      ],
      [
        "ign",
        "ore"
      ],
      [
        "ĠtÃ©lÃ©",
        "phone"
      ],
      [
        "Ġlangu",
        "age"
      ],
      [
        "Ġlaiss",
        "er"
      ],
      [
        "ĠdÃ©sol",
        "Ã©"
      ],
      [
        "Ġey",
        "es"
      ],
      [
        "Ġwom",
        "an"
      ],
      [
        "Ġwind",
        "ow"
      ],
      [
        "jeun",
        "er"
      ],
      [
        "Ġbicy",
        "cle"
      ],
      [
        "Ġtoget",
        "her"
      ],
      [
        "l",
        "se"
      ],
      [
        "m",
        "a"
      ],
      [
        "m",
        "ing"
      ],
      [
        "m",
        "ost"
      ],
      [
        "n",
        "ess"
      ],
      [
        "Ġt",
        "Ãªte"
      ],
      [
        "Ġp",
        "ic"
      ],
      [
        "Ġp",
        "ois"
      ],
      [
        "Ġs",
        "au"
      ],
      [
        "Ġs",
        "ac"
      ],
      [
        "Ġs",
        "ince"
      ],
      [
        "Ġl",
        "u"
      ],
      [
        "Ġc",
        "Åĵur"
      ],
      [
        "Ġm",
        "ess"
      ],
      [
        "Ã©",
        "p"
      ],
      [
        "Ġn",
        "i"
      ],
      [
        "Ġn",
        "oir"
      ],
      [
        "Ġw",
        "ish"
      ],
      [
        "Ġw",
        "ife"
      ],
      [
        "Ġf",
        "ig"
      ],
      [
        "Ġb",
        "out"
      ],
      [
        "Ġv",
        "as"
      ],
      [
        "Ġv",
        "ers"
      ],
      [
        "Ġg",
        "uy"
      ],
      [
        "Ġo",
        "wn"
      ],
      [
        "ri",
        "ble"
      ],
      [
        "Ġin",
        "form"
      ],
      [
        "ant",
        "Ã©"
      ],
      [
        "Ġe",
        "lse"
      ],
      [
        "ĠC",
        "es"
      ],
      [
        "Ã¨",
        "mes"
      ],
      [
        "ĠL",
        "ay"
      ],
      [
        "Ġdo",
        "ll"
      ],
      [
        "Ġit",
        "s"
      ],
      [
        "Ġdon",
        "nÃ©"
      ],
      [
        "ure",
        "d"
      ],
      [
        "Ġpro",
        "d"
      ],
      [
        "Ġget",
        "ting"
      ],
      [
        "Ġvou",
        "lez"
      ],
      [
        "Ġwork",
        "ing"
      ],
      [
        "Ġevery",
        "body"
      ],
      [
        "Ġdi",
        "x"
      ],
      [
        "Ġsupp",
        "ose"
      ],
      [
        "Ġ1",
        "0"
      ],
      [
        "Ġjou",
        "e"
      ],
      [
        "Ġpri",
        "e"
      ],
      [
        "rit",
        "ure"
      ],
      [
        "ĠdÃ©t",
        "este"
      ],
      [
        "Ġtur",
        "n"
      ],
      [
        "Ġdec",
        "ided"
      ],
      [
        "Ġviv",
        "re"
      ],
      [
        "Ġtri",
        "p"
      ],
      [
        "Ġopin",
        "ion"
      ],
      [
        "Ġlist",
        "en"
      ],
      [
        "Ġpian",
        "o"
      ],
      [
        "Ġansw",
        "er"
      ],
      [
        "ĠLay",
        "la"
      ],
      [
        "b",
        "all"
      ],
      [
        "c",
        "on"
      ],
      [
        "c",
        "ess"
      ],
      [
        "f",
        "ort"
      ],
      [
        "r",
        "Ã©s"
      ],
      [
        "w",
        "ard"
      ],
      [
        "Ġ",
        "z"
      ],
      [
        "Ġ",
        "ir"
      ],
      [
        "Ġa",
        "ide"
      ],
      [
        "Ġp",
        "ost"
      ],
      [
        "Ġs",
        "ound"
      ],
      [
        "Ġs",
        "ick"
      ],
      [
        "en",
        "ces"
      ],
      [
        "Ġm",
        "il"
      ],
      [
        "Ġn",
        "os"
      ],
      [
        "as",
        "in"
      ],
      [
        "Ġb",
        "ir"
      ],
      [
        "Ġv",
        "in"
      ],
      [
        "Ġv",
        "ois"
      ],
      [
        "Ġv",
        "ient"
      ],
      [
        "ai",
        "e"
      ],
      [
        "ri",
        "r"
      ],
      [
        "Ġle",
        "g"
      ],
      [
        "Ġsu",
        "ff"
      ],
      [
        "Ġbe",
        "lle"
      ],
      [
        "ĠS",
        "a"
      ],
      [
        "ĠS",
        "p"
      ],
      [
        "Ġtr",
        "ad"
      ],
      [
        "Ġch",
        "ant"
      ],
      [
        "ĠE",
        "uro"
      ],
      [
        "Ġr",
        "ac"
      ],
      [
        "Ġli",
        "ved"
      ],
      [
        "ĠN",
        "ob"
      ],
      [
        "Ġce",
        "lui"
      ],
      [
        "Ġcom",
        "bien"
      ],
      [
        "Ġte",
        "llement"
      ],
      [
        "ĠD",
        "onne"
      ],
      [
        "ĠP",
        "eu"
      ],
      [
        "gh",
        "ter"
      ],
      [
        "Ġpr",
        "Ã¨s"
      ],
      [
        "Ġwh",
        "ile"
      ],
      [
        "Ġsur",
        "v"
      ],
      [
        "Ġcomp",
        "any"
      ],
      [
        "ĠTh",
        "ese"
      ],
      [
        "Ġthink",
        "ing"
      ],
      [
        "Ġdev",
        "rait"
      ],
      [
        "ille",
        "z"
      ],
      [
        "ass",
        "Ã©"
      ],
      [
        "Ġapp",
        "ris"
      ],
      [
        "Ġsee",
        "ms"
      ],
      [
        "Ġes",
        "p"
      ],
      [
        "Ġph",
        "r"
      ],
      [
        "Ġpe",
        "ine"
      ],
      [
        "Ġgrand",
        "e"
      ],
      [
        "Ġatt",
        "end"
      ],
      [
        "Ġvoul",
        "ait"
      ],
      [
        "Ġfin",
        "ished"
      ],
      [
        "ĠÃ©c",
        "rit"
      ],
      [
        "Ġenf",
        "ant"
      ],
      [
        "erre",
        "ur"
      ],
      [
        "Ġmeet",
        "ing"
      ],
      [
        "ĠEvery",
        "one"
      ],
      [
        "Ġprem",
        "ier"
      ],
      [
        "ĠprÃ©s",
        "ent"
      ],
      [
        "Ġlors",
        "qu"
      ],
      [
        "acc",
        "ord"
      ],
      [
        "Ġtra",
        "vers"
      ],
      [
        "Ġnour",
        "riture"
      ],
      [
        "Ġthr",
        "ough"
      ],
      [
        "Ġangl",
        "ais"
      ],
      [
        "Ġcaf",
        "Ã©"
      ],
      [
        "ĠdÃ®",
        "ner"
      ],
      [
        "Ġcoff",
        "ee"
      ],
      [
        "c",
        "l"
      ],
      [
        "f",
        "er"
      ],
      [
        "h",
        "ors"
      ],
      [
        "l",
        "ent"
      ],
      [
        "p",
        "ort"
      ],
      [
        "t",
        "te"
      ],
      [
        "Ġ",
        "3"
      ],
      [
        "Ġt",
        "ant"
      ],
      [
        "Ġd",
        "ro"
      ],
      [
        "Ġs",
        "our"
      ],
      [
        "Ġs",
        "te"
      ],
      [
        "Ġc",
        "al"
      ],
      [
        "it",
        "es"
      ],
      [
        "Ġf",
        "ou"
      ],
      [
        "Ġb",
        "ag"
      ],
      [
        "Ġde",
        "vez"
      ],
      [
        "Ġh",
        "on"
      ],
      [
        "or",
        "k"
      ],
      [
        "ve",
        "l"
      ],
      [
        "Ġg",
        "ent"
      ],
      [
        "us",
        "Ã©"
      ],
      [
        "ais",
        "e"
      ],
      [
        "ri",
        "re"
      ],
      [
        "ri",
        "Ã¨re"
      ],
      [
        "Ġsu",
        "cc"
      ],
      [
        "ĠS",
        "h"
      ],
      [
        "ic",
        "ation"
      ],
      [
        "Ġr",
        "ap"
      ],
      [
        "ĠD",
        "i"
      ],
      [
        "ĠdÃ©",
        "f"
      ],
      [
        "que",
        "lle"
      ],
      [
        "all",
        "er"
      ],
      [
        "ure",
        "r"
      ],
      [
        "Ġso",
        "is"
      ],
      [
        "Ġfr",
        "uit"
      ],
      [
        "ust",
        "ral"
      ],
      [
        "Ġex",
        "ac"
      ],
      [
        "Ġex",
        "pect"
      ],
      [
        "Ġri",
        "ch"
      ],
      [
        "ĠO",
        "ur"
      ],
      [
        "Ġman",
        "iÃ¨re"
      ],
      [
        "app",
        "rÃ©c"
      ],
      [
        "Ġany",
        "one"
      ],
      [
        "Ġpart",
        "ie"
      ],
      [
        "ĠrÃ©",
        "f"
      ],
      [
        "Ã§",
        "ons"
      ],
      [
        "ĠG",
        "ive"
      ],
      [
        "pr",
        "ise"
      ],
      [
        "ab",
        "y"
      ],
      [
        "Ġwr",
        "ite"
      ],
      [
        "Ġta",
        "x"
      ],
      [
        "Ġpi",
        "ed"
      ],
      [
        "Ġnouve",
        "lle"
      ],
      [
        "Ġbec",
        "ome"
      ],
      [
        "Ġjou",
        "er"
      ],
      [
        "Ġmus",
        "ic"
      ],
      [
        "Ġgl",
        "ad"
      ],
      [
        "ĠrÃ©p",
        "on"
      ],
      [
        "Ġpres",
        "que"
      ],
      [
        "Ġprobl",
        "Ã¨mes"
      ],
      [
        "Ġprem",
        "iÃ¨re"
      ],
      [
        "Ġnum",
        "ber"
      ],
      [
        "Ġcol",
        "Ã¨re"
      ],
      [
        "Ġemb",
        "arr"
      ],
      [
        "Ġcomple",
        "te"
      ],
      [
        "Ġpret",
        "ty"
      ],
      [
        "Ġpubl",
        "ic"
      ],
      [
        "Ġfav",
        "or"
      ],
      [
        "c",
        "te"
      ],
      [
        "f",
        "ois"
      ],
      [
        "i",
        "ed"
      ],
      [
        "j",
        "oy"
      ],
      [
        "m",
        "mer"
      ],
      [
        "Ã",
        "¯"
      ],
      [
        "Ġ",
        "erreur"
      ],
      [
        "Ġt",
        "re"
      ],
      [
        "Ġp",
        "un"
      ],
      [
        "Ġs",
        "cient"
      ],
      [
        "en",
        "f"
      ],
      [
        "in",
        "es"
      ],
      [
        "in",
        "tÃ©"
      ],
      [
        "Ġc",
        "ry"
      ],
      [
        "Ġm",
        "ois"
      ],
      [
        "Ã©",
        "di"
      ],
      [
        "Ġf",
        "it"
      ],
      [
        "Ġf",
        "ast"
      ],
      [
        "Ġb",
        "at"
      ],
      [
        "Ġb",
        "ure"
      ],
      [
        "ĠT",
        "V"
      ],
      [
        "ĠT",
        "ake"
      ],
      [
        "at",
        "re"
      ],
      [
        "Ġde",
        "hors"
      ],
      [
        "ar",
        "rÃª"
      ],
      [
        "Ġv",
        "ieux"
      ],
      [
        "Ġv",
        "Ã©l"
      ],
      [
        "Ġh",
        "ate"
      ],
      [
        "ai",
        "g"
      ],
      [
        "le",
        "ct"
      ],
      [
        "Ġla",
        "it"
      ],
      [
        "Ġla",
        "quelle"
      ],
      [
        "Ġre",
        "as"
      ],
      [
        "Ġhe",
        "ad"
      ],
      [
        "Ġhe",
        "ard"
      ],
      [
        "im",
        "ent"
      ],
      [
        "Ġsu",
        "iv"
      ],
      [
        "lle",
        "m"
      ],
      [
        "ĠC",
        "ould"
      ],
      [
        "ĠL",
        "aisse"
      ],
      [
        "ut",
        "Ã´t"
      ],
      [
        "ow",
        "er"
      ],
      [
        "Ġr",
        "is"
      ],
      [
        "ĠA",
        "l"
      ],
      [
        "ie",
        "l"
      ],
      [
        "Ġpar",
        "k"
      ],
      [
        "ĠD",
        "ans"
      ],
      [
        "Ġfor",
        "get"
      ],
      [
        "res",
        "se"
      ],
      [
        "ill",
        "age"
      ],
      [
        "Ġk",
        "n"
      ],
      [
        "Ġwe",
        "ather"
      ],
      [
        "ĠdÃ©",
        "b"
      ],
      [
        "Ġst",
        "ory"
      ],
      [
        "Ġso",
        "ld"
      ],
      [
        "ul",
        "t"
      ],
      [
        "Ġsh",
        "o"
      ],
      [
        "Ġam",
        "is"
      ],
      [
        "Ġwor",
        "ry"
      ],
      [
        "Ġcomp",
        "te"
      ],
      [
        "Ġdev",
        "riez"
      ],
      [
        "Ġpeu",
        "vent"
      ],
      [
        "Ġcl",
        "ose"
      ],
      [
        "Ġcl",
        "asse"
      ],
      [
        "ĠCom",
        "e"
      ],
      [
        "ĠG",
        "erm"
      ],
      [
        "ress",
        "ed"
      ],
      [
        "Ġbl",
        "ack"
      ],
      [
        "air",
        "s"
      ],
      [
        "Ġnouve",
        "lles"
      ],
      [
        "Ġfut",
        "ure"
      ],
      [
        "Ġregard",
        "er"
      ],
      [
        "Ġca",
        "use"
      ],
      [
        "Ġim",
        "ag"
      ],
      [
        "Ġgl",
        "ass"
      ],
      [
        "Ġend",
        "roit"
      ],
      [
        "Ġtry",
        "ing"
      ],
      [
        "Ġgir",
        "ls"
      ],
      [
        "Ġdisp",
        "os"
      ],
      [
        "Ġwait",
        "ing"
      ],
      [
        "tern",
        "et"
      ],
      [
        "Ġpat",
        "ient"
      ],
      [
        "Ġmag",
        "asin"
      ],
      [
        "ict",
        "ion"
      ],
      [
        "Ġrou",
        "ge"
      ],
      [
        "avant",
        "age"
      ],
      [
        "Ġmeill",
        "eur"
      ],
      [
        "Ġcorre",
        "ct"
      ],
      [
        "Ġoubl",
        "iÃ©"
      ],
      [
        "Ġfa",
        "Ã§on"
      ],
      [
        "Ġdoll",
        "ars"
      ],
      [
        "ĠNob",
        "ody"
      ],
      [
        "Ġbure",
        "au"
      ],
      [
        "e",
        "ver"
      ],
      [
        "i",
        "quer"
      ],
      [
        "r",
        "on"
      ],
      [
        "r",
        "ist"
      ],
      [
        "u",
        "v"
      ],
      [
        "re",
        "am"
      ],
      [
        "Ġd",
        "ir"
      ],
      [
        "Ġd",
        "au"
      ],
      [
        "Ġd",
        "roit"
      ],
      [
        "Ġd",
        "avantage"
      ],
      [
        "Ġp",
        "auv"
      ],
      [
        "Ġs",
        "Ã©"
      ],
      [
        "Ġs",
        "it"
      ],
      [
        "Ġs",
        "ign"
      ],
      [
        "Ġs",
        "Ã©ri"
      ],
      [
        "Ġs",
        "antÃ©"
      ],
      [
        "Ġc",
        "ir"
      ],
      [
        "Ġm",
        "ange"
      ],
      [
        "an",
        "e"
      ],
      [
        "an",
        "n"
      ],
      [
        "Ġf",
        "act"
      ],
      [
        "as",
        "ed"
      ],
      [
        "et",
        "tre"
      ],
      [
        "us",
        "h"
      ],
      [
        "Ġle",
        "av"
      ],
      [
        "ce",
        "p"
      ],
      [
        "Ġhe",
        "alth"
      ],
      [
        "Ġe",
        "ach"
      ],
      [
        "id",
        "es"
      ],
      [
        "se",
        "mble"
      ],
      [
        "Ġpl",
        "utÃ´t"
      ],
      [
        "Ġles",
        "s"
      ],
      [
        "ĠP",
        "eux"
      ],
      [
        "ad",
        "ore"
      ],
      [
        "av",
        "ait"
      ],
      [
        "Ġk",
        "iss"
      ],
      [
        "Ãª",
        "tes"
      ],
      [
        "Ġyour",
        "s"
      ],
      [
        "ĠdÃ©",
        "jeuner"
      ],
      [
        "Ġst",
        "ore"
      ],
      [
        "ĠV",
        "eux"
      ],
      [
        "Ġdes",
        "s"
      ],
      [
        "ard",
        "e"
      ],
      [
        "ort",
        "s"
      ],
      [
        "Ġso",
        "ci"
      ],
      [
        "ig",
        "ne"
      ],
      [
        "Ġex",
        "ist"
      ],
      [
        "Ġal",
        "most"
      ],
      [
        "Ġil",
        "s"
      ],
      [
        "ĠO",
        "ne"
      ],
      [
        "ate",
        "ly"
      ],
      [
        "Ġfe",
        "ll"
      ],
      [
        "Ġche",
        "min"
      ],
      [
        "ab",
        "ly"
      ],
      [
        "Ġsp",
        "end"
      ],
      [
        "Ġarri",
        "v"
      ],
      [
        "Ġoff",
        "ice"
      ],
      [
        "Ġfin",
        "i"
      ],
      [
        "Ġconn",
        "aiss"
      ],
      [
        "Ġret",
        "our"
      ],
      [
        "Ġmo",
        "vie"
      ],
      [
        "Ġpouv",
        "oir"
      ],
      [
        "Ġid",
        "i"
      ],
      [
        "Ġrend",
        "re"
      ],
      [
        "Ġmet",
        "tre"
      ],
      [
        "Ġmont",
        "h"
      ],
      [
        "ĠK",
        "e"
      ],
      [
        "Ġfo",
        "llow"
      ],
      [
        "esp",
        "Ã¨re"
      ],
      [
        "Ġsec",
        "ond"
      ],
      [
        "Ġoccup",
        "Ã©"
      ],
      [
        "ĠprÃ©f",
        "Ã©r"
      ],
      [
        "Ġcert",
        "ain"
      ],
      [
        "Ġense",
        "mble"
      ],
      [
        "Ġstud",
        "ents"
      ],
      [
        "hab",
        "itude"
      ],
      [
        "Ġcha",
        "que"
      ],
      [
        "Ġresp",
        "ons"
      ],
      [
        "ĠEuro",
        "pe"
      ],
      [
        "ĠvÃ©l",
        "o"
      ],
      [
        "Ġdau",
        "ghter"
      ],
      [
        "a",
        "bles"
      ],
      [
        "b",
        "res"
      ],
      [
        "e",
        "m"
      ],
      [
        "e",
        "lles"
      ],
      [
        "g",
        "le"
      ],
      [
        "i",
        "o"
      ],
      [
        "i",
        "ver"
      ],
      [
        "l",
        "ot"
      ],
      [
        "l",
        "ess"
      ],
      [
        "m",
        "on"
      ],
      [
        "o",
        "on"
      ],
      [
        "o",
        "or"
      ],
      [
        "o",
        "cc"
      ],
      [
        "r",
        "ap"
      ],
      [
        "u",
        "ri"
      ],
      [
        "u",
        "me"
      ],
      [
        "Ġa",
        "in"
      ],
      [
        "en",
        "n"
      ],
      [
        "en",
        "ir"
      ],
      [
        "is",
        "tes"
      ],
      [
        "in",
        "ation"
      ],
      [
        "Ġm",
        "en"
      ],
      [
        "Ġm",
        "aking"
      ],
      [
        "er",
        "ci"
      ],
      [
        "Ġf",
        "au"
      ],
      [
        "Ġf",
        "ore"
      ],
      [
        "Ġf",
        "ire"
      ],
      [
        "Ġb",
        "ur"
      ],
      [
        "Ġde",
        "ath"
      ],
      [
        "ĠJ",
        "ust"
      ],
      [
        "ĠJ",
        "oh"
      ],
      [
        "ai",
        "lle"
      ],
      [
        "ĠÃ",
        "¢"
      ],
      [
        "Ġg",
        "ame"
      ],
      [
        "Ġpas",
        "t"
      ],
      [
        "Ġj",
        "oin"
      ],
      [
        "ro",
        "g"
      ],
      [
        "Ġen",
        "joy"
      ],
      [
        "ap",
        "on"
      ],
      [
        "Ġli",
        "eu"
      ],
      [
        "Ġpl",
        "ais"
      ],
      [
        "ĠA",
        "pp"
      ],
      [
        "tu",
        "r"
      ],
      [
        "Ġk",
        "id"
      ],
      [
        "ne",
        "l"
      ],
      [
        "Ġwe",
        "ar"
      ],
      [
        "Ġpour",
        "rais"
      ],
      [
        "ĠÃ©t",
        "ais"
      ],
      [
        "ard",
        "s"
      ],
      [
        "Ġcon",
        "v"
      ],
      [
        "Ġri",
        "che"
      ],
      [
        "Ġam",
        "ie"
      ],
      [
        "Ġwor",
        "ds"
      ],
      [
        "ĠO",
        "h"
      ],
      [
        "use",
        "ment"
      ],
      [
        "oy",
        "Ã©"
      ],
      [
        "oy",
        "er"
      ],
      [
        "oy",
        "ez"
      ],
      [
        "Ġfe",
        "lt"
      ],
      [
        "ist",
        "s"
      ],
      [
        "Ġser",
        "ait"
      ],
      [
        "ĠÃ©",
        "v"
      ],
      [
        "Ġche",
        "m"
      ],
      [
        "Ġph",
        "one"
      ],
      [
        "Ġcont",
        "re"
      ],
      [
        "Ġliv",
        "ing"
      ],
      [
        "Ġpass",
        "er"
      ],
      [
        "Ġsav",
        "ait"
      ],
      [
        "Ġpens",
        "Ã©"
      ],
      [
        "Ġpens",
        "er"
      ],
      [
        "Ġdi",
        "ed"
      ],
      [
        "Ġmal",
        "ade"
      ],
      [
        "ĠdÃ©c",
        "idÃ©"
      ],
      [
        "Ġsupp",
        "osed"
      ],
      [
        "Ġconn",
        "ais"
      ],
      [
        "Ġpo",
        "or"
      ],
      [
        "Ġpouv",
        "ons"
      ],
      [
        "Ġlear",
        "ned"
      ],
      [
        "Ġgar",
        "Ã§ons"
      ],
      [
        "Ġdern",
        "ier"
      ],
      [
        "Ġaim",
        "er"
      ],
      [
        "Ġmot",
        "s"
      ],
      [
        "ok",
        "ing"
      ],
      [
        "Ġhand",
        "s"
      ],
      [
        "ĠsÃ»",
        "re"
      ],
      [
        "Ġhur",
        "t"
      ],
      [
        "Ġlors",
        "que"
      ],
      [
        "Ġauc",
        "un"
      ],
      [
        "Ġpren",
        "d"
      ],
      [
        "ĠprÃª",
        "t"
      ],
      [
        "Ġdorm",
        "ir"
      ],
      [
        "Ġimm",
        "Ã©di"
      ],
      [
        "Ġbor",
        "n"
      ],
      [
        "Ġprob",
        "able"
      ],
      [
        "Ġkill",
        "ed"
      ],
      [
        "Ġadv",
        "ice"
      ],
      [
        "Ġluck",
        "y"
      ],
      [
        "Ġforg",
        "ot"
      ],
      [
        "ĠTe",
        "ll"
      ],
      [
        "l",
        "ic"
      ],
      [
        "z",
        "e"
      ],
      [
        "Ġd",
        "ark"
      ],
      [
        "Ġd",
        "iction"
      ],
      [
        "Ġs",
        "il"
      ],
      [
        "Ġs",
        "oi"
      ],
      [
        "in",
        "a"
      ],
      [
        "in",
        "st"
      ],
      [
        "Ġc",
        "ut"
      ],
      [
        "it",
        "er"
      ],
      [
        "Ġn",
        "ager"
      ],
      [
        "Ġw",
        "ine"
      ],
      [
        "Ġf",
        "ils"
      ],
      [
        "Ġb",
        "Ã©"
      ],
      [
        "Ġb",
        "ar"
      ],
      [
        "Ġb",
        "ill"
      ],
      [
        "Ġb",
        "all"
      ],
      [
        "Ġb",
        "iÃ¨re"
      ],
      [
        "Ġb",
        "aby"
      ],
      [
        "at",
        "eur"
      ],
      [
        "at",
        "ive"
      ],
      [
        "Ġv",
        "illage"
      ],
      [
        "Ġqu",
        "atre"
      ],
      [
        "ai",
        "m"
      ],
      [
        "Ġg",
        "are"
      ],
      [
        "Ġhe",
        "av"
      ],
      [
        "Ġsu",
        "c"
      ],
      [
        "Ġe",
        "v"
      ],
      [
        "Ġan",
        "gry"
      ],
      [
        "ut",
        "eur"
      ],
      [
        "ĠM",
        "r"
      ],
      [
        "Ġr",
        "Ã©c"
      ],
      [
        "ir",
        "t"
      ],
      [
        "ĠN",
        "ot"
      ],
      [
        "ĠA",
        "mer"
      ],
      [
        "Ġcom",
        "es"
      ],
      [
        "Ġte",
        "mp"
      ],
      [
        "ĠD",
        "es"
      ],
      [
        "au",
        "ght"
      ],
      [
        "am",
        "p"
      ],
      [
        "am",
        "ment"
      ],
      [
        "and",
        "e"
      ],
      [
        "tu",
        "res"
      ],
      [
        "ĠÃ©t",
        "r"
      ],
      [
        "Ãª",
        "cher"
      ],
      [
        "Ġpr",
        "on"
      ],
      [
        "Ġdon",
        "ner"
      ],
      [
        "Ġall",
        "ons"
      ],
      [
        "Ġpro",
        "du"
      ],
      [
        "Ġri",
        "d"
      ],
      [
        "ens",
        "es"
      ],
      [
        "ĠTh",
        "ank"
      ],
      [
        "Ġus",
        "u"
      ],
      [
        "Ġser",
        "ais"
      ],
      [
        "Ġcr",
        "az"
      ],
      [
        "Ġapp",
        "re"
      ],
      [
        "ĠNe",
        "w"
      ],
      [
        "Ġres",
        "pect"
      ],
      [
        "Ġres",
        "semble"
      ],
      [
        "Ġwork",
        "s"
      ],
      [
        "Ġag",
        "o"
      ],
      [
        "Ġthan",
        "k"
      ],
      [
        "Ġarri",
        "ved"
      ],
      [
        "Ġsome",
        "one"
      ],
      [
        "Ġcomm",
        "un"
      ],
      [
        "Ġtom",
        "ber"
      ],
      [
        "Ġ1",
        "9"
      ],
      [
        "Ġagain",
        "st"
      ],
      [
        "Ġpri",
        "x"
      ],
      [
        "Ġregard",
        "e"
      ],
      [
        "Ġother",
        "s"
      ],
      [
        "Ġmus",
        "ique"
      ],
      [
        "Ġpay",
        "er"
      ],
      [
        "Ġtrou",
        "ble"
      ],
      [
        "Ġdisp",
        "ose"
      ],
      [
        "Ġexp",
        "er"
      ],
      [
        "Ġlangu",
        "es"
      ],
      [
        "Ġcare",
        "ful"
      ],
      [
        "Ġ2",
        "0"
      ],
      [
        "Ġlaiss",
        "Ã©"
      ],
      [
        "Ġessay",
        "Ã©"
      ],
      [
        "Ġfai",
        "m"
      ],
      [
        "..",
        "."
      ],
      [
        "Ġcuis",
        "ine"
      ],
      [
        "Ġbeh",
        "ind"
      ],
      [
        "Ġdiffe",
        "rent"
      ],
      [
        "Ġsat",
        "is"
      ],
      [
        "Ġfatig",
        "uÃ©"
      ],
      [
        "Ġfen",
        "Ãªtre"
      ],
      [
        "Ġmil",
        "k"
      ],
      [
        "ĠPeu",
        "t"
      ],
      [
        "Ġrap",
        "ide"
      ],
      [
        "ĠJoh",
        "n"
      ],
      [
        "ĠAmer",
        "ic"
      ],
      [
        "c",
        "ul"
      ],
      [
        "g",
        "y"
      ],
      [
        "i",
        "end"
      ],
      [
        "i",
        "eurs"
      ],
      [
        "n",
        "a"
      ],
      [
        "u",
        "f"
      ],
      [
        "u",
        "mp"
      ],
      [
        "Ġt",
        "as"
      ],
      [
        "Ġa",
        "ble"
      ],
      [
        "Ġp",
        "ress"
      ],
      [
        "Ġs",
        "y"
      ],
      [
        "Ġs",
        "us"
      ],
      [
        "Ġs",
        "and"
      ],
      [
        "Ġs",
        "now"
      ],
      [
        "en",
        "ne"
      ],
      [
        "is",
        "c"
      ],
      [
        "Ġc",
        "ri"
      ],
      [
        "Ġc",
        "ity"
      ],
      [
        "Ġm",
        "ed"
      ],
      [
        "Ġm",
        "oy"
      ],
      [
        "Ã©",
        "li"
      ],
      [
        "an",
        "che"
      ],
      [
        "Ġn",
        "u"
      ],
      [
        "Ġn",
        "Ã©c"
      ],
      [
        "Ġf",
        "on"
      ],
      [
        "Ġf",
        "ont"
      ],
      [
        "Ġf",
        "ond"
      ],
      [
        "Ġb",
[...]
