{
  "version": "1.0",
  "truncation": null,
  "padding": null,
  "added_tokens": [
    {
      "id": 0,
      "content": "[UNK]",
      "single_word": false,
      "lstrip": false,
      "rstrip": false,
      "normalized": false,
      "special": true
    }
  ],
  "normalizer": null,
  "pre_tokenizer": {
    "type": "Whitespace"
  },
  "post_processor": null,
  "decoder": null,
  "model": {
    "type": "BPE",
    "dropout": null,
    "unk_token": null,
    "continuing_subword_prefix": null,
    "end_of_word_suffix": null,
    "fuse_unk": false,
    "byte_fallback": false,
    "ignore_merges": false,
    "vocab": {
      "[UNK]": 0,
      "!": 1,
      "\"": 2,
      "$": 3,
      "%": 4,
      "&": 5,
      "'": 6,
      "(": 7,
      ")": 8,
      ",": 9,
      "-": 10,
      ".": 11,
      "/": 12,
      "0": 13,
      "1": 14,
      "2": 15,
      "3": 16,
      "4": 17,
      "5": 18,
      "6": 19,
      "7": 20,
      "8": 21,
      "9": 22,
      ":": 23,
      ";": 24,
      "?": 25,
      "A": 26,
      "B": 27,
      "C": 28,
      "D": 29,
      "E": 30,
      "F": 31,
      "G": 32,
      "H": 33,
      "I": 34,
      "J": 35,
      "K": 36,
      "L": 37,
      "M": 38,
      "N": 39,
      "O": 40,
      "P": 41,
      "Q": 42,
      "R": 43,
      "S": 44,
      "T": 45,
      "U": 46,
      "V": 47,
      "W": 48,
      "X": 49,
      "Y": 50,
      "Z": 51,
      "a": 52,
      "b": 53,
      "c": 54,
      "d": 55,
      "e": 56,
      "f": 57,
      "g": 58,
      "h": 59,
      "i": 60,
      "j": 61,
      "k": 62,
      "l": 63,
      "m": 64,
      "n": 65,
      "o": 66,
      "p": 67,
      "q": 68,
      "r": 69,
      "s": 70,
      "t": 71,
      "u": 72,
      "v": 73,
      "w": 74,
      "x": 75,
      "y": 76,
      "z": 77,
      "©": 78,
      "«": 79,
      "»": 80,
      "À": 81,
      "Â": 82,
      "Ã": 83,
      "Ç": 84,
      "É": 85,
      "Ê": 86,
      "Ô": 87,
      "à": 88,
      "á": 89,
      "â": 90,
      "ç": 91,
      "è": 92,
      "é": 93,
      "ê": 94,
      "ë": 95,
      "í": 96,
      "î": 97,
      "ï": 98,
      "ô": 99,
      "ù": 100,
      "û": 101,
      "œ": 102,
      "​": 103,
      "–": 104,
      "—": 105,
      "’": 106,
      "“": 107,
      "”": 108,
      "…": 109,
      "‽": 110,
      "⊂": 111,
      "ou": 112,
      "re": 113,
      "es": 114,
      "on": 115,
      "en": 116,
      "is": 117,
      "in": 118,
      "he": 119,
      "an": 120,
      "er": 121,
      "le": 122,
      "it": 123,
      "as": 124,
      "de": 125,
      "om": 126,
      "at": 127,
      "qu": 128,
      "ar": 129,
      "to": 130,
      "ne": 131,
      "ve": 132,
      "or": 133,
      "the": 134,
      "se": 135,
      "ai": 136,
      "te": 137,
      "me": 138,
      "ent": 139,
      "you": 140,
      "th": 141,
      "la": 142,
      "ous": 143,
      "ll": 144,
      "ce": 145,
      "est": 146,
      "ing": 147,
      "que": 148,
      "pas": 149,
      "Je": 150,
      "ch": 151,
      "au": 152,
      "il": 153,
      "tr": 154,
      "un": 155,
      "ais": 156,
      "Tom": 157,
      "our": 158,
      "no": 159,
      "li": 160,
      "us": 161,
      "et": 162,
      "ri": 163,
      "su": 164,
      "be": 165,
      "ro": 166,
      "ant": 167,
      "al": 168,
      "ait": 169,
      "ave": 170,
      "ir": 171,
      "tu": 172,
      "of": 173,
      "di": 174,
      "do": 175,
      "pe": 176,
      "ion": 177,
      "ver": 178,
      "vous": 179,
      "Il": 180,
      "av": 181,
      "am": 182,
      "st": 183,
      "and": 184,
      "tre": 185,
      "lle": 186,
      "ay": 187,
      "ed": 188,
      "out": 189,
      "ment": 190,
      "The": 191,
      "ap": 192,
      "mo": 193,
      "all": 194,
      "ac": 195,
      "lo": 196,
      "par": 197,
      "ag": 198,
      "for": 199,
      "com": 200,
      "les": 201,
      "im": 202,
      "ux": 203,
      "ren": 204,
      "ét": 205,
      "une": 206,
      "ur": 207,
      "con": 208,
      "ut": 209,
      "ad": 210,
      "ain": 211,
      "ke": 212,
      "ie": 213,
      "ic": 214,
      "ld": 215,
      "je": 216,
      "hat": 217,
      "go": 218,
      "ab": 219,
      "pr": 220,
      "that": 221,
      "son": 222,
      "po": 223,
      "res": 224,
      "ter": 225,
      "vo": 226,
      "was": 227,
      "dé": 228,
      "are": 229,
      "ans": 230,
      "He": 231,
      "we": 232,
      "ho": 233,
      "si": 234,
      "You": 235,
      "so": 236,
      "pl": 237,
      "du": 238,
      "have": 239,
      "gh": 240,
      "her": 241,
      "his": 242,
      "don": 243,
      "pour": 244,
      "ang": 245,
      "co": 246,
      "des": 247,
      "not": 248,
      "pen": 249,
      "ti": 250,
      "one": 251,
      "ons": 252,
      "now": 253,
      "ien": 254,
      "fe": 255,
      "ill": 256,
      "your": 257,
      "aire": 258,
      "pro": 259,
      "ly": 260,
      "my": 261,
      "ould": 262,
      "suis": 263,
      "can": 264,
      "ue": 265,
      "ère": 266,
      "ght": 267,
      "this": 268,
      "ée": 269,
      "ith": 270,
      "She": 271,
      "fr": 272,
      "We": 273,
      "dans": 274,
      "ma": 275,
      "very": 276,
      "bo": 277,
      "mon": 278,
      "ci": 279,
      "Elle": 280,
      "with": 281,
      "lu": 282,
      "It": 283,
      "ok": 284,
      "ten": 285,
      "ex": 286,
      "know": 287,
      "thing": 288,
      "ure": 289,
      "che": 290,
      "tes": 291,
      "want": 292,
      "der": 293,
      "man": 294,
      "per": 295,
      "Nous": 296,
      "ser": 297,
      "ré": 298,
      "ation": 299,
      "ul": 300,
      "qui": 301,
      "like": 302,
      "mp": 303,
      "cho": 304,
      "plus": 305,
      "ome": 306,
      "here": 307,
      "ple": 308,
      "sur": 309,
      "did": 310,
      "faire": 311,
      "fait": 312,
      "Tu": 313,
      "nous": 314,
      "cou": 315,
      "mes": 316,
      "Mar": 317,
      "ink": 318,
      "por": 319,
      "ven": 320,
      "wor": 321,
      "moi": 322,
      "Vous": 323,
      "ble": 324,
      "ès": 325,
      "ig": 326,
      "pla": 327,
      "sa": 328,
      "té": 329,
      "était": 330,
      "fo": 331,
      "jour": 332,
      "ard": 333,
      "him": 334,
      "Le": 335,
      "dre": 336,
      "tout": 337,
      "ni": 338,
      "ille": 339,
      "age": 340,
      "ta": 341,
      "ts": 342,
      "day": 343,
      "ust": 344,
      "avec": 345,
      "être": 346,
      "dis": 347,
      "ate": 348,
      "any": 349,
      "sé": 350,
      "ow": 351,
      "La": 352,
      "What": 353,
      "ine": 354,
      "ite": 355,
      "sh": 356,
      "up": 357,
      "vi": 358,
      "has": 359,
      "od": 360,
      "think": 361,
      "end": 362,
      "ance": 363,
      "what": 364,
      "ont": 365,
      "ted": 366,
      "Ce": 367,
      "oi": 368,
      "ct": 369,
      "vr": 370,
      "Do": 371,
      "use": 372,
      "ses": 373,
      "ça": 374,
      "ge": 375,
      "arri": 376,
      "ther": 377,
      "temp": 378,
      "sont": 379,
      "get": 380,
      "mais": 381,
      "ong": 382,
      "quel": 383,
      "wh": 384,
      "ici": 385,
      "veux": 386,
      "lui": 387,
      "Les": 388,
      "Mary": 389,
      "ry": 390,
      "able": 391,
      "temps": 392,
      "ff": 393,
      "main": 394,
      "ess": 395,
      "mer": 396,
      "quoi": 397,
      "lé": 398,
      "pré": 399,
      "time": 400,
      "dit": 401,
      "ire": 402,
      "ind": 403,
      "ouve": 404,
      "This": 405,
      "gr": 406,
      "They": 407,
      "id": 408,
      "bien": 409,
      "way": 410,
      "part": 411,
      "vé": 412,
      "had": 413,
      "some": 414,
      "uis": 415,
      "mar": 416,
      "tro": 417,
      "sais": 418,
      "cet": 419,
      "très": 420,
      "été": 421,
      "Wh": 422,
      "ak": 423,
      "but": 424,
      "pren": 425,
      "will": 426,
      "ck": 427,
      "about": 428,
      "ner": 429,
      "pre": 430,
      "cr": 431,
      "if": 432,
      "ise": 433,
      "bre": 434,
      "tou": 435,
      "ye": 436,
      "Que": 437,
      "were": 438,
      "Qu": 439,
      "elle": 440,
      "from": 441,
      "beau": 442,
      "Com": 443,
      "Don": 444,
      "dr": 445,
      "gar": 446,
      "sou": 447,
      "read": 448,
      "car": 449,
      "Ne": 450,
      "las": 451,
      "see": 452,
      "mé": 453,
      "vie": 454,
      "lais": 455,
      "ally": 456,
      "How": 457,
      "ions": 458,
      "ité": 459,
      "ase": 460,
      "ier": 461,
      "That": 462,
      "tell": 463,
      "lie": 464,
      "avai": 465,
      "voir": 466,
      "work": 467,
      "vrai": 468,
      "jam": 469,
      "ive": 470,
      "mb": 471,
      "sor": 472,
      "vou": 473,
      "there": 474,
      "look": 475,
      "coup": 476,
      "by": 477,
      "didn": 478,
      "alk": 479,
      "pos": 480,
      "votre": 481,
      "oir": 482,
      "need": 483,
      "more": 484,
      "toi": 485,
      "There": 486,
      "bon": 487,
      "ces": 488,
      "mis": 489,
      "êtes": 490,
      "lles": 491,
      "ami": 492,
      "cette": 493,
      "let": 494,
      "good": 495,
      "pense": 496,
      "Pour": 497,
      "né": 498,
      "sent": 499,
      "travai": 500,
      "ler": 501,
      "lf": 502,
      "ame": 503,
      "dent": 504,
      "hu": 505,
      "avoir": 506,
      "No": 507,
      "ph": 508,
      "air": 509,
      "My": 510,
      "long": 511,
      "ish": 512,
      "rie": 513,
      "ep": 514,
      "hap": 515,
      "port": 516,
      "ton": 517,
      "aut": 518,
      "dire": 519,
      "nu": 520,
      "ins": 521,
      "going": 522,
      "min": 523,
      "pi": 524,
      "would": 525,
      "ors": 526,
      "avez": 527,
      "chose": 528,
      "should": 529,
      "jamais": 530,
      "lit": 531,
      "does": 532,
      "how": 533,
      "En": 534,
      "dy": 535,
      "just": 536,
      "mat": 537,
      "ob": 538,
      "vis": 539,
      "aux": 540,
      "come": 541,
      "every": 542,
      "gu": 543,
      "mor": 544,
      "Ils": 545,
      "mi": 546,
      "rais": 547,
      "som": 548,
      "spe": 549,
      "vre": 550,
      "oun": 551,
      "peux": 552,
      "ol": 553,
      "who": 554,
      "red": 555,
      "hel": 556,
      "cor": 557,
      "fin": 558,
      "mu": 559,
      "cour": 560,
      "el": 561,
      "aime": 562,
      "than": 563,
      "too": 564,
      "cro": 565,
      "pres": 566,
      "vent": 567,
      "vais": 568,
      "ens": 569,
      "been": 570,
      "avait": 571,
      "ds": 572,
      "ils": 573,
      "pris": 574,
      "new": 575,
      "oin": 576,
      "stu": 577,
      "aid": 578,
      "trou": 579,
      "bu": 580,
      "bes": 581,
      "avons": 582,
      "ack": 583,
      "help": 584,
      "dev": 585,
      "never": 586,
      "autre": 587,
      "anger": 588,
      "jours": 589,
      "cer": 590,
      "va": 591,
      "appe": 592,
      "Are": 593,
      "fer": 594,
      "pa": 595,
      "could": 596,
      "fi": 597,
      "fu": 598,
      "she": 599,
      "sto": 600,
      "rest": 601,
      "self": 602,
      "train": 603,
      "much": 604,
      "af": 605,
      "hom": 606,
      "ves": 607,
      "ants": 608,
      "diff": 609,
      "beaucoup": 610,
      "br": 611,
      "comme": 612,
      "rent": 613,
      "vraiment": 614,
      "rien": 615,
      "ange": 616,
      "Why": 617,
      "ide": 618,
      "talk": 619,
      "right": 620,
      "aller": 621,
      "got": 622,
      "Pourquoi": 623,
      "cher": 624,
      "gent": 625,
      "ême": 626,
      "peu": 627,
      "avais": 628,
      "comp": 629,
      "trop": 630,
      "bl": 631,
      "tous": 632,
      "sed": 633,
      "ret": 634,
      "heure": 635,
      "Mon": 636,
      "ête": 637,
      "really": 638,
      "ded": 639,
      "sez": 640,
      "row": 641,
      "eu": 642,
      "pou": 643,
      "pay": 644,
      "ques": 645,
      "porte": 646,
      "prendre": 647,
      "fri": 648,
      "other": 649,
      "quest": 650,
      "aus": 651,
      "pet": 652,
      "int": 653,
      "leur": 654,
      "tri": 655,
      "Est": 656,
      "cau": 657,
      "ought": 658,
      "iture": 659,
      "ather": 660,
      "they": 661,
      "ache": 662,
      "quelque": 663,
      "Is": 664,
      "Sami": 665,
      "only": 666,
      "peut": 667,
      "love": 668,
      "cc": 669,
      "Ça": 670,
      "lot": 671,
      "when": 672,
      "ile": 673,
      "pé": 674,
      "ty": 675,
      "comm": 676,
      "monde": 677,
      "fois": 678,
      "Comment": 679,
      "In": 680,
      "ree": 681,
      "ars": 682,
      "art": 683,
      "vers": 684,
      "book": 685,
      "person": 686,
      "même": 687,
      "try": 688,
      "core": 689,
      "besoin": 690,
      "where": 691,
      "ante": 692,
      "ild": 693,
      "avant": 694,
      "jus": 695,
      "say": 696,
      "ule": 697,
      "conn": 698,
      "take": 699,
      "wr": 700,
      "won": 701,
      "ese": 702,
      "enf": 703,
      "itu": 704,
      "speak": 705,
      "nouve": 706,
      "pu": 707,
      "tom": 708,
      "encore": 709,
      "deux": 710,
      "met": 711,
      "ick": 712,
      "arrive": 713,
      "On": 714,
      "où": 715,
      "ask": 716,
      "bus": 717,
      "là": 718,
      "ity": 719,
      "cela": 720,
      "tru": 721,
      "act": 722,
      "parler": 723,
      "grand": 724,
      "ound": 725,
      "ique": 726,
      "body": 727,
      "wat": 728,
      "Can": 729,
      "cle": 730,
      "lang": 731,
      "must": 732,
      "puis": 733,
      "tle": 734,
      "play": 735,
      "ction": 736,
      "friend": 737,
      "Un": 738,
      "eat": 739,
      "jou": 740,
      "tor": 741,
      "oney": 742,
      "sommes": 743,
      "gl": 744,
      "ence": 745,
      "étais": 746,
      "ach": 747,
      "cat": 748,
      "père": 749,
      "ra": 750,
      "vu": 751,
      "live": 752,
      "off": 753,
      "fore": 754,
      "homme": 755,
      "fam": 756,
      "wo": 757,
      "ist": 758,
      "under": 759,
      "toujours": 760,
      "ready": 761,
      "last": 762,
      "home": 763,
      "mand": 764,
      "mble": 765,
      "ning": 766,
      "old": 767,
      "aient": 768,
      "nom": 769,
      "ough": 770,
      "lez": 771,
      "arr": 772,
      "argent": 773,
      "lait": 774,
      "doesn": 775,
      "cent": 776,
      "ful": 777,
      "tain": 778,
      "vien": 779,
      "ers": 780,
      "chez": 781,
      "maison": 782,
      "something": 783,
      "bi": 784,
      "gé": 785,
      "mal": 786,
      "went": 787,
      "ense": 788,
      "vez": 789,
      "tra": 790,
      "sup": 791,
      "venir": 792,
      "tent": 793,
      "feel": 794,
      "travail": 795,
      "hab": 796,
      "money": 797,
      "pri": 798,
      "dois": 799,
      "plan": 800,
      "aussi": 801,
      "If": 802,
      "bet": 803,
      "occ": 804,
      "pon": 805,
      "room": 806,
      "dow": 807,
      "Who": 808,
      "ale": 809,
      "back": 810,
      "pt": 811,
      "ît": 812,
      "seule": 813,
      "tur": 814,
      "Marie": 815,
      "ich": 816,
      "kes": 817,
      "née": 818,
      "ople": 819,
      "pat": 820,
      "them": 821,
      "ture": 822,
      "again": 823,
      "voiture": 824,
      "Ch": 825,
      "Jap": 826,
      "bli": 827,
      "cé": 828,
      "cre": 829,
      "ieux": 830,
      "make": 831,
      "anything": 832,
      "As": 833,
      "Let": 834,
      "Ple": 835,
      "sing": 836,
      "és": 837,
      "its": 838,
      "sure": 839,
      "belie": 840,
      "ake": 841,
      "scho": 842,
      "ned": 843,
      "iez": 844,
      "soit": 845,
      "Quel": 846,
      "mber": 847,
      "ms": 848,
      "py": 849,
      "ures": 850,
      "ast": 851,
      "told": 852,
      "child": 853,
      "rents": 854,
      "tenant": 855,
      "Please": 856,
      "Tout": 857,
      "jà": 858,
      "ouse": 859,
      "atten": 860,
      "aimer": 861,
      "entre": 862,
      "urs": 863,
      "déjà": 864,
      "pend": 865,
      "happen": 866,
      "Si": 867,
      "cl": 868,
      "people": 869,
      "prom": 870,
      "night": 871,
      "little": 872,
      "cause": 873,
      "Did": 874,
      "gre": 875,
      "said": 876,
      "ôt": 877,
      "still": 878,
      "school": 879,
      "bor": 880,
      "clo": 881,
      "find": 882,
      "sp": 883,
      "ette": 884,
      "stand": 885,
      "illes": 886,
      "Where": 887,
      "care": 888,
      "fac": 889,
      "house": 890,
      "ting": 891,
      "devr": 892,
      "voy": 893,
      "wee": 894,
      "sol": 895,
      "riez": 896,
      "sle": 897,
      "anç": 898,
      "demand": 899,
      "dog": 900,
      "sible": 901,
      "jourd": 902,
      "ways": 903,
      "hui": 904,
      "Elles": 905,
      "cu": 906,
      "eux": 907,
      "faut": 908,
      "ls": 909,
      "ys": 910,
      "before": 911,
      "used": 912,
      "An": 913,
      "emp": 914,
      "gir": 915,
      "put": 916,
      "quand": 917,
      "thought": 918,
      "always": 919,
      "rencon": 920,
      "well": 921,
      "many": 922,
      "parents": 923,
      "Bo": 924,
      "Par": 925,
      "cal": 926,
      "ear": 927,
      "fir": 928,
      "gi": 929,
      "hard": 930,
      "étu": 931,
      "hed": 932,
      "rench": 933,
      "col": 934,
      "believe": 935,
      "Fr": 936,
      "French": 937,
      "Où": 938,
      "cri": 939,
      "fais": 940,
      "sim": 941,
      "sans": 942,
      "vit": 943,
      "ème": 944,
      "lear": 945,
      "leave": 946,
      "derni": 947,
      "place": 948,
      "week": 949,
      "father": 950,
      "king": 951,
      "two": 952,
      "ving": 953,
      "heures": 954,
      "seul": 955,
      "meet": 956,
      "chien": 957,
      "made": 958,
      "télé": 959,
      "sort": 960,
      "ançais": 961,
      "bro": 962,
      "dét": 963,
      "eas": 964,
      "jet": 965,
      "plaît": 966,
      "maintenant": 967,
      "Qui": 968,
      "Engl": 969,
      "enfants": 970,
      "fut": 971,
      "ger": 972,
      "give": 973,
      "mus": 974,
      "mag": 975,
      "op": 976,
      "over": 977,
      "wait": 978,
      "ze": 979,
      "éco": 980,
      "into": 981,
      "inté": 982,
      "most": 983,
      "fem": 984,
      "essay": 985,
      "everything": 986,
      "petit": 987,
      "école": 988,
      "came": 989,
      "dor": 990,
      "ever": 991,
      "pain": 992,
      "çon": 993,
      "led": 994,
      "tement": 995,
      "aujourd": 996,
      "livre": 997,
      "français": 998,
      "langu": 999,
      "Per": 1000,
      "Th": 1001,
      "cin": 1002,
      "hav": 1003,
      "hand": 1004,
      "late": 1005,
      "nes": 1006,
      "ot": 1007,
      "rou": 1008,
      "sho": 1009,
      "wan": 1010,
      "took": 1011,
      "semble": 1012,
      "notre": 1013,
      "life": 1014,
      "alone": 1015,
      "probl": 1016,
      "ations": 1017,
      "happy": 1018,
      "connais": 1019,
      "aimerais": 1020,
      "mom": 1021,
      "pho": 1022,
      "ass": 1023,
      "today": 1024,
      "aide": 1025,
      "aider": 1026,
      "passé": 1027,
      "ily": 1028,
      "ros": 1029,
      "vol": 1030,
      "prof": 1031,
      "coun": 1032,
      "ouvez": 1033,
      "étudi": 1034,
      "Avez": 1035,
      "Have": 1036,
      "jo": 1037,
      "nothing": 1038,
      "ager": 1039,
      "after": 1040,
      "question": 1041,
      "wanted": 1042,
      "Every": 1043,
      "away": 1044,
      "bé": 1045,
      "ef": 1046,
      "idé": 1047,
      "job": 1048,
      "ru": 1049,
      "sû": 1050,
      "sait": 1051,
      "sion": 1052,
      "regar": 1053,
      "isn": 1054,
      "ath": 1055,
      "aur": 1056,
      "ages": 1057,
      "When": 1058,
      "bonne": 1059,
      "buy": 1060,
      "sleep": 1061,
      "English": 1062,
      "din": 1063,
      "fille": 1064,
      "gen": 1065,
      "inter": 1066,
      "ank": 1067,
      "erre": 1068,
      "ary": 1069,
      "enten": 1070,
      "ments": 1071,
      "fort": 1072,
      "soir": 1073,
      "anglais": 1074,
      "phone": 1075,
      "first": 1076,
      "photo": 1077,
      "az": 1078,
      "fa": 1079,
      "mind": 1080,
      "assez": 1081,
      "orrow": 1082,
      "ché": 1083,
      "already": 1084,
      "cident": 1085,
      "venu": 1086,
      "ign": 1087,
      "trois": 1088,
      "toute": 1089,
      "better": 1090,
      "simple": 1091,
      "clas": 1092,
      "lors": 1093,
      "mieux": 1094,
      "pare": 1095,
      "rès": 1096,
      "rer": 1097,
      "inte": 1098,
      "ats": 1099,
      "chance": 1100,
      "ston": 1101,
      "import": 1102,
      "ress": 1103,
      "toutes": 1104,
      "possible": 1105,
      "arrê": 1106,
      "great": 1107,
      "Au": 1108,
      "mère": 1109,
      "rain": 1110,
      "œur": 1111,
      "enough": 1112,
      "demain": 1113,
      "their": 1114,
      "après": 1115,
      "low": 1116,
      "comment": 1117,
      "sonne": 1118,
      "done": 1119,
      "down": 1120,
      "Boston": 1121,
      "Vo": 1122,
      "ali": 1123,
      "dû": 1124,
      "dou": 1125,
      "hur": 1126,
      "name": 1127,
      "tim": 1128,
      "ées": 1129,
      "teur": 1130,
      "three": 1131,
      "cham": 1132,
      "door": 1133,
      "acher": 1134,
      "icul": 1135,
      "poli": 1136,
      "point": 1137,
      "personne": 1138,
      "juste": 1139,
      "understand": 1140,
      "moment": 1141,
      "ft": 1142,
      "hier": 1143,
      "lis": 1144,
      "str": 1145,
      "ated": 1146,
      "auc": 1147,
      "ped": 1148,
      "peur": 1149,
      "stay": 1150,
      "accident": 1151,
      "parle": 1152,
      "pose": 1153,
      "nuit": 1154,
      "tomorrow": 1155,
      "Personne": 1156,
      "bou": 1157,
      "best": 1158,
      "cap": 1159,
      "cess": 1160,
      "dro": 1161,
      "eau": 1162,
      "sm": 1163,
      "semain": 1164,
      "quelle": 1165,
      "cha": 1166,
      "lic": 1167,
      "bed": 1168,
      "because": 1169,
      "moins": 1170,
      "choses": 1171,
      "Combien": 1172,
      "stop": 1173,
      "questions": 1174,
      "occup": 1175,
      "facile": 1176,
      "femme": 1177,
      "Cette": 1178,
      "bit": 1179,
      "bles": 1180,
      "gens": 1181,
      "hi": 1182,
      "ient": 1183,
      "tour": 1184,
      "xt": 1185,
      "ince": 1186,
      "asse": 1187,
      "char": 1188,
      "side": 1189,
      "without": 1190,
      "drink": 1191,
      "asked": 1192,
      "Japan": 1193,
      "idée": 1194,
      "ez": 1195,
      "even": 1196,
      "kind": 1197,
      "sw": 1198,
      "win": 1199,
      "reg": 1200,
      "left": 1201,
      "seen": 1202,
      "teacher": 1203,
      "ches": 1204,
      "doit": 1205,
      "trer": 1206,
      "proble": 1207,
      "saw": 1208,
      "quelques": 1209,
      "partir": 1210,
      "yez": 1211,
      "sorry": 1212,
      "looking": 1213,
      "idea": 1214,
      "00": 1215,
      "Ma": 1216,
      "aw": 1217,
      "cut": 1218,
      "cie": 1219,
      "open": 1220,
      "nez": 1221,
      "veut": 1222,
      "member": 1223,
      "trouve": 1224,
      "doc": 1225,
      "doing": 1226,
      "pensais": 1227,
      "ience": 1228,
      "produ": 1229,
      "things": 1230,
      "please": 1231,
      "préf": 1232,
      "crit": 1233,
      "years": 1234,
      "pouv": 1235,
      "nouveau": 1236,
      "water": 1237,
      "..": 1238,
      "ball": 1239,
      "mine": 1240,
      "manger": 1241,
      "aim": 1242,
      "tez": 1243,
      "ller": 1244,
      "ester": 1245,
      "lire": 1246,
      "being": 1247,
      "mother": 1248,
      "voulais": 1249,
      "difficul": 1250,
      "commen": 1251,
      "France": 1252,
      "important": 1253,
      "His": 1254,
      "May": 1255,
      "Une": 1256,
      "ado": 1257,
      "call": 1258,
      "lt": 1259,
      "non": 1260,
      "nat": 1261,
      "pul": 1262,
      "savoir": 1263,
      "um": 1264,
      "walk": 1265,
      "Êtes": 1266,
      "ved": 1267,
      "uni": 1268,
      "often": 1269,
      "form": 1270,
      "util": 1271,
      "prise": 1272,
      "histo": 1273,
      "why": 1274,
      "visit": 1275,
      "autres": 1276,
      "viens": 1277,
      "All": 1278,
      "Be": 1279,
      "Re": 1280,
      "bad": 1281,
      "emb": 1282,
      "fro": 1283,
      "ose": 1284,
      "rez": 1285,
      "ato": 1286,
      "telle": 1287,
      "aurais": 1288,
      "keep": 1289,
      "cold": 1290,
      "world": 1291,
      "vér": 1292,
      "lettre": 1293,
      "letter": 1294,
      "mort": 1295,
      "crois": 1296,
      "trouver": 1297,
      "certain": 1298,
      "heureux": 1299,
      "watch": 1300,
      "simplement": 1301,
      "De": 1302,
      "Dan": 1303,
      "afr": 1304,
      "ba": 1305,
      "fon": 1306,
      "ight": 1307,
      "sc": 1308,
      "sens": 1309,
      "attent": 1310,
      "sec": 1311,
      "teau": 1312,
      "youn": 1313,
      "chang": 1314,
      "lost": 1315,
      "which": 1316,
      "Quand": 1317,
      "cours": 1318,
      "busy": 1319,
      "children": 1320,
      "devrais": 1321,
      "demandé": 1322,
      "semaine": 1323,
      "afraid": 1324,
      "cus": 1325,
      "dri": 1326,
      "far": 1327,
      "hour": 1328,
      "ice": 1329,
      "knew": 1330,
      "may": 1331,
      "show": 1332,
      "table": 1333,
      "ref": 1334,
      "ister": 1335,
      "ital": 1336,
      "jeun": 1337,
      "vos": 1338,
      "prob": 1339,
      "exp": 1340,
      "perdu": 1341,
      "souvent": 1342,
      "acheter": 1343,
      "dernière": 1344,
      "esterday": 1345,
      "?\"": 1346,
      "fat": 1347,
      "found": 1348,
      "men": 1349,
      "hear": 1350,
      "ande": 1351,
      "quer": 1352,
      "top": 1353,
      "next": 1354,
      "pect": 1355,
      "allé": 1356,
      "less": 1357,
      "condu": 1358,
      "plu": 1359,
      "wants": 1360,
      "mari": 1361,
      "piè": 1362,
      "pendant": 1363,
      "easy": 1364,
      "Es": 1365,
      "fil": 1366,
      "ffe": 1367,
      "ière": 1368,
      "lar": 1369,
      "sk": 1370,
      "sau": 1371,
      "sal": 1372,
      "êt": 1373,
      "remember": 1374,
      "inst": 1375,
      "depuis": 1376,
      "net": 1377,
      "change": 1378,
      "beg": 1379,
      "ical": 1380,
      "pourquoi": 1381,
      "boy": 1382,
      "exam": 1383,
      "Cela": 1384,
      "Quelle": 1385,
      "corre": 1386,
      "pays": 1387,
      "petite": 1388,
      "problème": 1389,
      "police": 1390,
      "Lais": 1391,
      "Your": 1392,
      "bla": 1393,
      "big": 1394,
      "cul": 1395,
      "den": 1396,
      "hon": 1397,
      "mit": 1398,
      "pouvez": 1399,
      "savais": 1400,
      "yet": 1401,
      "enne": 1402,
      "ition": 1403,
      "tel": 1404,
      "meille": 1405,
      "trans": 1406,
      "ets": 1407,
      "star": 1408,
      "étaient": 1409,
      "conse": 1410,
      "word": 1411,
      "vient": 1412,
      "arried": 1413,
      "arrivé": 1414,
      "yeux": 1415,
      "student": 1416,
      "jusqu": 1417,
      "truth": 1418,
      "habitu": 1419,
      "chambre": 1420,
      "doctor": 1421,
      "Ap": 1422,
      "Puis": 1423,
      "So": 1424,
      "ber": 1425,
      "cas": 1426,
      "dur": 1427,
      "fast": 1428,
      "ken": 1429,
      "mil": 1430,
      "mir": 1431,
      "pap": 1432,
      "vant": 1433,
      "wer": 1434,
      "aires": 1435,
      "ings": 1436,
      "chat": 1437,
      "appré": 1438,
      "mot": 1439,
      "parti": 1440,
      "comple": 1441,
      "près": 1442,
      "mande": 1443,
      "sera": 1444,
      "study": 1445,
      "trouvé": 1446,
      "devons": 1447,
      "retard": 1448,
      "wrong": 1449,
      "sortir": 1450,
      "swim": 1451,
      "young": 1452,
      "bat": 1453,
      "cam": 1454,
      "cted": 1455,
      "elles": 1456,
      "fun": 1457,
      "fall": 1458,
      "gg": 1459,
      "gros": 1460,
      "ju": 1461,
      "lè": 1462,
      "mau": 1463,
      "married": 1464,
      "ris": 1465,
      "rap": 1466,
      "rée": 1467,
      "sus": 1468,
      "til": 1469,
      "tant": 1470,
      "vres": 1471,
      "vite": 1472,
      "war": 1473,
      "yesterday": 1474,
      "ég": 1475,
      "ép": 1476,
      "este": 1477,
      "anc": 1478,
      "ances": 1479,
      "around": 1480,
      "ceci": 1481,
      "pass": 1482,
      "agne": 1483,
      "contr": 1484,
      "utes": 1485,
      "aine": 1486,
      "popul": 1487,
      "Does": 1488,
      "quelqu": 1489,
      "présent": 1490,
      "break": 1491,
      "year": 1492,
      "mière": 1493,
      "raison": 1494,
      "writ": 1495,
      "early": 1496,
      "small": 1497,
      ".\"": 1498,
      "aren": 1499,
      "ding": 1500,
      "hor": 1501,
      "hors": 1502,
      "ies": 1503,
      "ious": 1504,
      "lat": 1505,
      "vir": 1506,
      "ville": 1507,
      "wom": 1508,
      "iste": 1509,
      "another": 1510,
      "quit": 1511,
      "light": 1512,
      "accor": 1513,
      "log": 1514,
      "coming": 1515,
      "rence": 1516,
      "sig": 1517,
      "tired": 1518,
      "mala": 1519,
      "knows": 1520,
      "répon": 1521,
      "surpris": 1522,
      "plain": 1523,
      "looks": 1524,
      "morning": 1525,
      "diffé": 1526,
      "mettre": 1527,
      "famille": 1528,
      "turn": 1529,
      "opin": 1530,
      "vérité": 1531,
      "attention": 1532,
      "mauvais": 1533,
      "Get": 1534,
      "Tato": 1535,
      "eba": 1536,
      "hun": 1537,
      "nor": 1538,
      "nent": 1539,
      "run": 1540,
      "sous": 1541,
      "tard": 1542,
      "vac": 1543,
      "ères": 1544,
      "èrent": 1545,
      "oubli": 1546,
      "esse": 1547,
      "once": 1548,
      "anim": 1549,
      "aille": 1550,
      "illa": 1551,
      "true": 1552,
      "uses": 1553,
      "diate": 1554,
      "vert": 1555,
      "apprendre": 1556,
      "cons": 1557,
      "prin": 1558,
      "donné": 1559,
      "pourr": 1560,
      "tive": 1561,
      "few": 1562,
      "propos": 1563,
      "cient": 1564,
      "same": 1565,
      "party": 1566,
      "matin": 1567,
      "matter": 1568,
      "leurs": 1569,
      "books": 1570,
      "turned": 1571,
      "rencontr": 1572,
      "learn": 1573,
      "brother": 1574,
      "country": 1575,
      "sûr": 1576,
      "face": 1577,
      "utilis": 1578,
      "Tatoeba": 1579,
      "At": 1580,
      "Son": 1581,
      "Some": 1582,
      "To": 1583,
      "Would": 1584,
      "ade": 1585,
      "cuis": 1586,
      "free": 1587,
      "ps": 1588,
      "pau": 1589,
      "smo": 1590,
      "sister": 1591,
      "tôt": 1592,
      "éc": 1593,
      "étr": 1594,
      "reux": 1595,
      "set": 1596,
      "ail": 1597,
      "these": 1598,
      "lives": 1599,
      "acce": 1600,
      "imag": 1601,
      "déci": 1602,
      "hope": 1603,
      "soon": 1604,
      "yourself": 1605,
      "proch": 1606,
      "myself": 1607,
      "himself": 1608,
      "days": 1609,
      "vice": 1610,
      "icile": 1611,
      "croire": 1612,
      "difficile": 1613,
      "publi": 1614,
      "nombre": 1615,
      "Japon": 1616,
      "happened": 1617,
      "voyage": 1618,
      "aff": 1619,
      "bout": 1620,
      "cur": 1621,
      "caf": 1622,
      "danger": 1623,
      "fou": 1624,
      "four": 1625,
      "fav": 1626,
      "gla": 1627,
      "ix": 1628,
      "pic": 1629,
      "vue": 1630,
      "ward": 1631,
      "intell": 1632,
      "deci": 1633,
      "qué": 1634,
      "thé": 1635,
      "passe": 1636,
      "conf": 1637,
      "icy": 1638,
      "jeune": 1639,
      "six": 1640,
      "pensé": 1641,
      "nice": 1642,
      "anymore": 1643,
      "dra": 1644,
      "travaille": 1645,
      "autant": 1646,
      "minutes": 1647,
      "pian": 1648,
      "vision": 1649,
      "couldn": 1650,
      "talking": 1651,
      "acheté": 1652,
      "wonder": 1653,
      "langue": 1654,
      "joue": 1655,
      "emplo": 1656,
      "Paris": 1657,
      "problem": 1658,
      "froid": 1659,
      "intellig": 1660,
      "Ex": 1661,
      "Pe": 1662,
      "Se": 1663,
      "bar": 1664,
      "bri": 1665,
      "cis": 1666,
      "dance": 1667,
      "fen": 1668,
      "hô": 1669,
      "ife": 1670,
      "lun": 1671,
      "mier": 1672,
      "na": 1673,
      "nour": 1674,
      "ras": 1675,
      "sil": 1676,
      "vin": 1677,
      "val": 1678,
      "yes": 1679,
      "ète": 1680,
      "ished": 1681,
      "inform": 1682,
      "atis": 1683,
      "chau": 1684,
      "lig": 1685,
      "likes": 1686,
      "alth": 1687,
      "ution": 1688,
      "déjeun": 1689,
      "dont": 1690,
      "illé": 1691,
      "makes": 1692,
      "journée": 1693,
      "beauti": 1694,
      "garçon": 1695,
      "méde": 1696,
      "conna": 1697,
      "enfant": 1698,
      "family": 1699,
      "having": 1700,
      "entendu": 1701,
      "times": 1702,
      "adore": 1703,
      "histoire": 1704,
      "pièce": 1705,
      "pourrait": 1706,
      "Ar": 1707,
      "Te": 1708,
      "fau": 1709,
      "fête": 1710,
      "filles": 1711,
      "gave": 1712,
      "ming": 1713,
      "nis": 1714,
      "sen": 1715,
      "sant": 1716,
      "situ": 1717,
      "uit": 1718,
      "vas": 1719,
      "écri": 1720,
      "îner": 1721,
      "dez": 1722,
      "demande": 1723,
      "thr": 1724,
      "those": 1725,
      "llow": 1726,
      "livres": 1727,
      "rich": 1728,
      "such": 1729,
      "alle": 1730,
      "diffe": 1731,
      "station": 1732,
      "loin": 1733,
      "sons": 1734,
      "post": 1735,
      "termin": 1736,
      "vois": 1737,
      "solé": 1738,
      "coû": 1739,
      "feu": 1740,
      "faites": 1741,
      "porter": 1742,
      "igu": 1743,
      "food": 1744,
      "vivre": 1745,
      "gether": 1746,
      "premier": 1747,
      "travailler": 1748,
      "might": 1749,
      "restaur": 1750,
      "friends": 1751,
      "seulement": 1752,
      "girl": 1753,
      "called": 1754,
      "essayer": 1755,
      "aucune": 1756,
      "préfé": 1757,
      "secret": 1758,
      "opinion": 1759,
      "situation": 1760,
      "restaurant": 1761,
      "bought": 1762,
      "bicy": 1763,
      "ctu": 1764,
      "dress": 1765,
      "har": 1766,
      "hair": 1767,
      "iques": 1768,
      "mour": 1769,
      "oh": 1770,
      "rom": 1771,
      "ste": 1772,
      "spo": 1773,
      "tête": 1774,
      "yer": 1775,
      "head": 1776,
      "together": 1777,
      "secon": 1778,
      "sui": 1779,
      "sujet": 1780,
      "compren": 1781,
      "comprendre": 1782,
      "impres": 1783,
      "cannot": 1784,
      "frère": 1785,
      "luck": 1786,
      "igno": 1787,
      "getting": 1788,
      "miss": 1789,
      "longtemps": 1790,
      "appelle": 1791,
      "rester": 1792,
      "haven": 1793,
      "arrêter": 1794,
      "difficult": 1795,
      "started": 1796,
      "beautiful": 1797,
      "médecin": 1798,
      "10": 1799,
      "Vou": 1800,
      "bas": 1801,
      "bir": 1802,
      "bag": 1803,
      "cine": 1804,
      "fish": 1805,
      "glas": 1806,
      "sage": 1807,
      "écrit": 1808,
      "heart": 1809,
      "leg": 1810,
      "iti": 1811,
      "chant": 1812,
      "trait": 1813,
      "until": 1814,
      "rions": 1815,
      "dix": 1816,
      "amou": 1817,
      "parce": 1818,
      "concer": 1819,
      "pois": 1820,
      "ghter": 1821,
      "cost": 1822,
      "cook": 1823,
      "tennis": 1824,
      "exact": 1825,
      "cheveux": 1826,
      "own": 1827,
      "while": 1828,
      "pret": 1829,
      "reading": 1830,
      "laisser": 1831,
      "voulez": 1832,
      "patient": 1833,
      "téléphone": 1834,
      "dinner": 1835,
      "class": 1836,
      "listen": 1837,
      "high": 1838,
      "window": 1839,
      "hours": 1840,
      "woman": 1841,
      "piano": 1842,
      "fenêtre": 1843,
      "déjeuner": 1844,
      "Alle": 1845,
      "Ces": 1846,
      "Her": 1847,
      "Sa": 1848,
      "clé": 1849,
      "eyes": 1850,
      "fit": 1851,
      "fire": 1852,
      "hé": 1853,
      "ia": 1854,
      "join": 1855,
      "ked": 1856,
      "lons": 1857,
      "mang": 1858,
      "os": 1859,
      "prie": 1860,
      "ron": 1861,
      "riture": 1862,
      "sun": 1863,
      "sac": 1864,
      "sick": 1865,
      "sœur": 1866,
      "since": 1867,
      "uro": 1868,
      "yo": 1869,
      "ites": 1870,
      "ating": 1871,
      "aie": 1872,
      "passer": 1873,
      "iles": 1874,
      "nos": 1875,
      "noir": 1876,
      "rir": 1877,
      "suff": 1878,
      "belle": 1879,
      "offe": 1880,
      "doll": 1881,
      "peine": 1882,
      "start": 1883,
      "rested": 1884,
      "respon": 1885,
      "wasn": 1886,
      "désolé": 1887,
      "wear": 1888,
      "sois": 1889,
      "cier": 1890,
      "illed": 1891,
      "arriver": 1892,
      "grande": 1893,
      "drais": 1894,
      "seems": 1895,
      "working": 1896,
      "voulait": 1897,
      "fini": 1898,
      "fice": 1899,
      "heureuse": 1900,
      "tried": 1901,
      "devrait": 1902,
      "meeting": 1903,
      "déteste": 1904,
      "language": 1905,
      "These": 1906,
      "Everyone": 1907,
      "Japanese": 1908,
      "accord": 1909,
      "nourriture": 1910,
      "Aus": 1911,
      "Euro": 1912,
      "Ger": 1913,
      "Give": 1914,
      "Lay": 1915,
      "Oh": 1916,
      "Our": 1917,
      "bur": 1918,
      "coffe": 1919,
      "dîner": 1920,
      "em": 1921,
      "gag": 1922,
      "mas": 1923,
      "ness": 1924,
      "sy": 1925,
      "sour": 1926,
      "vité": 1927,
      "wish": 1928,
      "wife": 1929,
      "èmes": 1930,
      "ines": 1931,
      "heard": 1932,
      "trad": 1933,
      "rible": 1934,
      "alis": 1935,
      "die": 1936,
      "died": 1937,
      "tres": 1938,
      "app": 1939,
      "ago": 1940,
      "cont": 1941,
      "consi": 1942,
      "resse": 1943,
      "terre": 1944,
      "answer": 1945,
      "sive": 1946,
      "tenir": 1947,
      "ured": 1948,
      "illez": 1949,
      "ids": 1950,
      "ident": 1951,
      "première": 1952,
      "finished": 1953,
      "else": 1954,
      "trip": 1955,
      "write": 1956,
      "nouvelle": 1957,
      "lived": 1958,
      "ensemble": 1959,
      "suppo": 1960,
      "suppose": 1961,
      "colère": 1962,
      "waiting": 1963,
      "lorsqu": 1964,
      "univers": 1965,
      "tellement": 1966,
      "fatigu": 1967,
      "film": 1968,
      "habitude": 1969,
      "complete": 1970,
      "café": 1971,
      "favor": 1972,
      "information": 1973,
      "Layla": 1974,
      "coffee": 1975,
      "Could": 1976,
      "Come": 1977,
      "Dans": 1978,
      "Pen": 1979,
      "Take": 1980,
      "ban": 1981,
      "bure": 1982,
      "cli": 1983,
      "cœur": 1984,
      "dau": 1985,
      "eded": 1986,
      "fig": 1987,
      "mise": 1988,
      "mange": 1989,
      "rac": 1990,
      "scient": 1991,
      "uf": 1992,
      "espère": 1993,
      "onne": 1994,
      "indre": 1995,
      "health": 1996,
      "sub": 1997,
      "office": 1998,
      "diction": 1999,
      "aving": 2000,
      "amie": 2001,
      "appris": 2002,
      "mois": 2003,
      "rend": 2004,
      "utôt": 2005,
      "key": 2006,
      "hate": 2007,
      "prit": 2008,
      "décou": 2009,
      "hot": 2010,
      "solu": 2011,
      "iens": 2012,
      "cial": 2013,
      "exac": 2014,
      "ige": 2015,
      "tax": 2016,
      "anyone": 2017,
      "thinking": 2018,
      "partie": 2019,
      "drai": 2020,
      "soun": 2021,
      "senti": 2022,
      "Nobody": 2023,
      "number": 2024,
      "pied": 2025,
      "obje": 2026,
      "courage": 2027,
      "presque": 2028,
      "story": 2029,
      "company": 2030,
      "trying": 2031,
      "avantage": 2032,
      "jouer": 2033,
      "attend": 2034,
      "music": 2035,
      "rouge": 2036,
      "interest": 2037,
      "Laisse": 2038,
      "black": 2039,
      "meilleur": 2040,
      "illage": 2041,
      "glad": 2042,
      "decided": 2043,
      "through": 2044,
      "pretty": 2045,
      "Austra": 2046,
      "bureau": 2047,
      "Ke": 2048,
      "One": 2049,
      "Peux": 2050,
      "TV": 2051,
      "Veux": 2052,
      "cir": 2053,
      "dir": 2054,
      "each": 2055,
      "fic": 2056,
      "flu": 2057,
      "flow": 2058,
      "gare": 2059,
      "idi": 2060,
      "kis": 2061,
      "land": 2062,
      "nie": 2063,
      "nager": 2064,
      "sit": 2065,
      "ouver": 2066,
      "ences": 2067,
      "iner": 2068,
      "année": 2069,
      "devez": 2070,
      "dehors": 2071,
      "att": 2072,
      "atre": 2073,
      "order": 2074,
      "ordin": 2075,
      "aig": 2076,
      "thir": 2077,
      "lau": 2078,
      "celui": 2079,
      "aise": 2080,
      "super": 2081,
      "succ": 2082,
      "become": 2083,
      "amis": 2084,
      "forts": 2085,
      "rendre": 2086,
      "const": 2087,
      "contre": 2088,
      "aby": 2089,
      "ables": 2090,
      "weather": 2091,
      "plutôt": 2092,
      "month": 2093,
      "chemin": 2094,
      "manière": 2095,
      "serait": 2096,
      "pleas": 2097,
      "follow": 2098,
      "endro": 2099,
      "dition": 2100,
      "vélo": 2101,
      "vieux": 2102,
      "everybody": 2103,
      "appeler": 2104,
      "full": 2105,
      "future": 2106,
      "compte": 2107,
      "pouvoir": 2108,
      "tribu": 2109,
      "clear": 2110,
      "alement": 2111,
      "attendre": 2112,
      "born": 2113,
      "girls": 2114,
      "magas": 2115,
      "problèmes": 2116,
      "regarder": 2117,
      "aucun": 2118,
      "occupé": 2119,
      "...": 2120,
      "probable": 2121,
      "instant": 2122,
      "correct": 2123,
      "oublié": 2124,
      "écout": 2125,
      "public": 2126,
      "intelligent": 2127,
      "écrire": 2128,
      "ignore": 2129,
      "dollars": 2130,
      "daughter": 2131,
      "Con": 2132,
      "Dis": 2133,
      "Joh": 2134,
      "band": 2135,
      "cit": 2136,
      "cré": 2137,
      "cuse": 2138,
      "cry": 2139,
      "ctive": 2140,
      "davantage": 2141,
      "fai": 2142,
      "five": 2143,
      "fils": 2144,
      "gy": 2145,
      "gue": 2146,
      "hind": 2147,
      "igh": 2148,
      "ny": 2149,
      "pan": 2150,
      "ran": 2151,
      "spend": 2152,
      "satis": 2153,
      "çons": 2154,
      "reas": 2155,
      "invit": 2156,
      "ane": 2157,
      "erci": 2158,
      "ates": 2159,
      "arro": 2160,
      "near": 2161,
      "sel": 2162,
      "semb": 2163,
      "laquelle": 2164,
      "chante": 2165,
      "living": 2166,
      "road": 2167,
      "almost": 2168,
      "amus": 2169,
      "aper": 2170,
      "lose": 2171,
      "forget": 2172,
      "comes": 2173,
      "compl": 2174,
      "combien": 2175,
      "imp": 2176,
      "imes": 2177,
      "immé": 2178,
      "importe": 2179,
      "advice": 2180,
      "ably": 2181,
      "prêt": 2182,
      "poser": 2183,
      "wash": 2184,
      "ween": 2185,
      "donner": 2186,
      "pourrais": 2187,
      "penser": 2188,
      "fell": 2189,
      "felt": 2190,
      "exper": 2191,
      "known": 2192,
      "worry": 2193,
      "plais": 2194,
      "takes": 2195,
      "série": 2196,
      "preci": 2197,
      "lieu": 2198,
      "airs": 2199,
      "devriez": 2200,
      "store": 2201,
      "peuvent": 2202,
      "retour": 2203,
      "Inter": 2204,
      "nouvelles": 2205,
      "habite": 2206,
      "close": 2207,
      "dormir": 2208,
      "Thank": 2209,
      "sûre": 2210,
      "façon": 2211,
      "hurt": 2212,
      "chaque": 2213,
      "pouvons": 2214,
      "malade": 2215,
      "Tell": 2216,
      "santé": 2217,
      "Europe": 2218,
      "19": 2219,
      "20": 2220,
      "Amer": 2221,
      "Des": 2222,
      "Go": 2223,
      "Just": 2224,
      "Ou": 2225,
      "blo": 2226,
      "cy": 2227,
      "cla": 2228,
      "dar": 2229,
      "dres": 2230,
      "game": 2231,
      "ip": 2232,
      "killed": 2233,
      "lou": 2234,
      "len": 2235,
      "mou": 2236,
      "ss": 2237,
      "ttes": 2238,
      "village": 2239,
      "real": 2240,
      "esp": 2241,
      "indi": 2242,
      "ash": 2243,
      "death": 2244,
      "quatre": 2245,
      "nel": 2246,
      "ails": 2247,
      "ention": 2248,
      "thes": 2249,
      "usu": 2250,
      "rière": 2251,
      "riche": 2252,
      "behind": 2253,
      "irt": 2254,
      "tures": 2255,
      "amé": 2256,
      "apon": 2257,
      "mots": 2258,
      "allons": 2259,
      "actu": 2260,
      "forgot": 2261,
      "conque": 2262,
      "poor": 2263,
      "angry": 2264,
      "fect": 2265,
      "yours": 2266,
      "venue": 2267,
      "words": 2268,
      "ateur": 2269,
      "vide": 2270,
      "mains": 2271,
      "someone": 2272,
      "mark": 2273,
      "marché": 2274,
      "New": 2275,
      "laissé": 2276,
      "works": 2277,
      "news": 2278,
      "payer": 2279,
      "others": 2280,
      "arrived": 2281,
      "prix": 2282,
      "entreprise": 2283,
      "careful": 2284,
      "langues": 2285,
      "professe": 2286,
      "joy": 2287,
      "entendre": 2288,
      "classe": 2289,
      "interested": 2290,
      "embarr": 2291,
      "students": 2292,
      "milk": 2293,
      "Peut": 2294,
      "endroit": 2295,
      "magasin": 2296,
      "John": 2297,
      "Americ": 2298,
      "Al": 2299,
      "Ear": 2300,
      "Mr": 2301,
      "Tous": 2302,
      "ace": 2303,
      "bres": 2304,
      "ca": 2305,
      "cte": 2306,
      "font": 2307,
      "faim": 2308,
      "ime": 2309,
      "ial": 2310,
      "lent": 2311,
      "nation": 2312,
      "pom": 2313,
      "pun": 2314,
      "pir": 2315,
      "rê": 2316,
      "vic": 2317,
      "vée": 2318,
      "wn": 2319,
      "wine": 2320,
      "âge": 2321,
      "çu": 2322,
      "ène": 2323,
      "êcher": 2324,
      "envie": 2325,
      "heav": 2326,
      "levé": 2327,
      "quite": 2328,
      "town": 2329,
      "necess": 2330,
      "meur": 2331,
      "ced": 2332,
      "estin": 2333,
      "past": 2334,
      "chan": 2335,
      "trom": 2336,
      "ush": 2337,
      "allait": 2338,
      "dio": 2339,
      "amour": 2340,
      "amment": 2341,
      "llement": 2342,
      "movie": 2343,
      "agree": 2344,
      "content": 2345,
      "ainsi": 2346,
      "ieu": 2347,
      "poin": 2348,
      "polit": 2349,
      "dés": 2350,
      "sident": 2351,
      "donne": 2352,
      "penses": 2353,
      "tif": 2354,
      "making": 2355,
      "montre": 2356,
      "expé": 2357,
      "derrière": 2358,
      "serai": 2359,
      "réf": 2360,
      "réus": 2361,
      "pleu": 2362,
      "pleure": 2363,
      "venus": 2364,
      "ards": 2365,
      "marche": 2366,
      "Which": 2367,
      "cked": 2368,
      "craz": 2369,
      "méri": 2370,
      "nécess": 2371,
      "Notre": 2372,
      "wouldn": 2373,
      "whole": 2374,
      "trouble": 2375,
      "cherche": 2376,
      "intention": 2377,
      "puisse": 2378,
      "bière": 2379,
      "between": 2380,
      "against": 2381,
      "rencontrer": 2382,
      "dernier": 2383,
      "musique": 2384,
      "intéres": 2385,
      "shot": 2386,
      "lorsque": 2387,
      "regard": 2388,
      "nature": 2389,
      "large": 2390,
      "apprécie": 2391,
      "surprised": 2392,
      "hung": 2393,
      "animal": 2394,
      "étranger": 2395,
      "accep": 2396,
      "décidé": 2397,
      "lucky": 2398,
      "exactly": 2399,
      "mangé": 2400,
      "fatigué": 2401,
      "immédiate": 2402,
      "dark": 2403,
      "30": 2404,
      "Mes": 2405,
      "Pouvez": 2406,
      "Veu": 2407,
      "bil": 2408,
      "baby": 2409,
      "city": 2410,
      "ele": 2411,
      "gâ": 2412,
      "gle": 2413,
      "grow": 2414,
      "hal": 2415,
      "nais": 2416,
      "pis": 2417,
      "pie": 2418,
      "pire": 2419,
      "ration": 2420,
      "sand": 2421,
      "savait": 2422,
      "test": 2423,
      "tick": 2424,
      "ute": 2425,
      "vrir": 2426,
      "zed": 2427,
      "envoy": 2428,
      "era": 2429,
      "leil": 2430,
      "devoir": 2431,
      "aimes": 2432,
      "tele": 2433,
      "teach": 2434,
      "med": 2435,
      "then": 2436,
      "changer": 2437,
      "autor": 2438,
      "trave": 2439,
      "unk": 2440,
      "union": 2441,
      "lies": 2442,
      "etimes": 2443,
      "sum": 2444,
      "became": 2445,
      "verre": 2446,
      "appreci": 2447,
      "allow": 2448,
      "parlé": 2449,
      "agit": 2450,
      "pru": 2451,
      "prê": 2452,
      "pron": 2453,
      "ressemble": 2454,
      "donc": 2455,
      "serais": 2456,
      "serious": 2457,
      "survi": 2458,
      "couple": 2459,
      "safe": 2460,
      "foot": 2461,
      "discut": 2462,
      "shor": 2463,
      "grou": 2464,
      "garçons": 2465,
      "looked": 2466,
      "longer": 2467,
      "tonight": 2468,
      "midi": 2469,
      "pace": 2470,
      "fumer": 2471,
      "commun": 2472,
      "clean": 2473,
      "promis": 2474,
      "promise": 2475,
      "solée": 2476,
      "earth": 2477,
      "learned": 2478,
      "essayé": 2479,
      "cinq": 2480,
      "hands": 2481,
      "efforts": 2482,
      "strong": 2483,
      "boulot": 2484,
      "charge": 2485,
      "pouvait": 2486,
      "commencé": 2487,
      "swimming": 2488,
      "rapide": 2489,
      "vacances": 2490,
      "cuisine": 2491,
      "prochain": 2492,
      "chaud": 2493,
      "different": 2494,
      "bicycle": 2495,
      "second": 2496,
      "impression": 2497,
      "Voulez": 2498,
      "itié": 2499,
      "amoureux": 2500,
      "scientif": 2501,
      "exactement": 2502,
      "Keep": 2503,
      "professeur": 2504,
      "crazy": 2505,
      "nécessaire": 2506,
      "immédiatement": 2507,
      "Veuillez": 2508,
      "Dieu": 2509,
      "Fais": 2510,
      "Lo": 2511,
      "Lors": 2512,
      "Mo": 2513,
      "Merci": 2514,
      "Now": 2515,
      "Sh": 2516,
      "Ton": 2517,
      "Tok": 2518,
      "Terre": 2519,
      "clu": 2520,
      "date": 2521,
      "fus": 2522,
      "flo": 2523,
      "japon": 2524,
      "kill": 2525,
      "ling": 2526,
      "mire": 2527,
      "nal": 2528,
      "pous": 2529,
      "ping": 2530,
      "rat": 2531,
      "rare": 2532,
      "rather": 2533,
      "sav": 2534,
      "snow": 2535,
      "savez": 2536,
      "tal": 2537,
      "vain": 2538,
      "Ét": 2539,
      "ître": 2540,
      "œuf": 2541,
      "rel": 2542,
      "ones": 2543,
      "eng": 2544,
      "invité": 2545,
      "anni": 2546,
      "ither": 2547,
      "dead": 2548,
      "ative": 2549,
      "arch": 2550,
      "ents": 2551,
      "celle": 2552,
      "chaus": 2553,
      "noon": 2554,
      "libre": 2555,
      "ride": 2556,
      "riend": 2557,
      "sucre": 2558,
      "beer": 2559,
      "alors": 2560,
      "peau": 2561,
      "verse": 2562,
      "sty": 2563,
      "appren": 2564,
      "moy": 2565,
      "agno": 2566,
      "compris": 2567,
      "rendu": 2568,
      "confi": 2569,
      "concent": 2570,
      "condition": 2571,
      "admire": 2572,
      "song": 2573,
      "terrible": 2574,
      "désolée": 2575,
      "hosp": 2576,
      "soci": 2577,
      "soyez": 2578,
      "ply": 2579,
      "colle": 2580,
      "bot": 2581,
      "exce": 2582,
      "ched": 2583,
      "manque": 2584,
      "chois": 2585,
      "thinks": 2586,
      "prefer": 2587,
      "Comme": 2588,
      "telling": 2589,
      "voulons": 2590,
      "voudrais": 2591,
      "mission": 2592,
      "lfriend": 2593,
      "stupi": 2594,
      "devrions": 2595,
      "ferai": 2596,
      "fied": 2597,
      "rience": 2598,
      "command": 2599,
      "commence": 2600,
      "artic": 2601,
      "personnes": 2602,
      "tomber": 2603,
      "playing": 2604,
      "girlfriend": 2605,
      "télévision": 2606,
      "intéress": 2607,
      "languages": 2608,
      "route": 2609,
      "bébé": 2610,
      "regarde": 2611,
      "sleeping": 2612,
      "erreur": 2613,
      "capable": 2614,
      "problems": 2615,
      "opened": 2616,
      "watching": 2617,
      "explo": 2618,
      "begin": 2619,
      "later": 2620,
      "constru": 2621,
      "utiliser": 2622,
      "pauvre": 2623,
      "emploi": 2624,
      "Excuse": 2625,
      "cision": 2626,
      "lunch": 2627,
      "Allez": 2628,
      "supposed": 2629,
      "idiot": 2630,
      "Internet": 2631,
      "Earth": 2632,
      "half": 2633,
      "summer": 2634,
      "Tokyo": 2635,
      "hospital": 2636,
      "Ah": 2637,
      "Br": 2638,
      "Et": 2639,
      "Gar": 2640,
      "God": 2641,
      "Jim": 2642,
      "St": 2643,
      "Tr": 2644,
      "cen": 2645,
      "cce": 2646,
      "cake": 2647,
      "dom": 2648,
      "eff": 2649,
      "fine": 2650,
      "mien": 2651,
      "naire": 2652,
      "nage": 2653,
      "olo": 2654,
      "pped": 2655,
      "rai": 2656,
      "rist": 2657,
      "sance": 2658,
      "sense": 2659,
      "vait": 2660,
      "ètement": 2661,
      "équi": 2662,
      "ël": 2663,
      "îte": 2664,
      "ôle": 2665,
      "rece": 2666,
      "ene": 2667,
      "ennu": 2668,
      "enjoy": 2669,
      "ina": 2670,
      "iness": 2671,
      "ertain": 2672,
      "lement": 2673,
      "least": 2674,
      "leaving": 2675,
      "attr": 2676,
      "veille": 2677,
      "ory": 2678,
      "mean": 2679,
      "chou": 2680,
      "chats": 2681,
      "ried": 2682,
      "suit": 2683,
      "sult": 2684,
      "rock": 2685,
      "also": 2686,
      "dipl": 2687,
      "appro": 2688,
      "acc": 2689,
      "imme": 2690,
      "impossible": 2691,
      "respect": 2692,
      "hotel": 2693,
      "sibil": 2694,
      "sold": 2695,
      "cool": 2696,
      "uel": 2697,
      "fruit": 2698,
      "both": 2699,
      "boire": 2700,
      "boîte": 2701,
      "chemise": 2702,
      "réunion": 2703,
      "choix": 2704,
      "message": 2705,
      "vendre": 2706,
      "igner": 2707,
      "taking": 2708,
      "taken": 2709,
      "dist": 2710,
      "dispose": 2711,
      "sécur": 2712,
      "shirt": 2713,
      "viol": 2714,
      "léch": 2715,
      "marcher": 2716,
      "touch": 2717,
      "méro": 2718,
      "needs": 2719,
      "sentence": 2720,
      "numéro": 2721,
      "press": 2722,
      "present": 2723,
      "devant": 2724,
      "fix": 2725,
      "stood": 2726,
      "hommes": 2727,
      "compli": 2728,
      "comput": 2729,
      "pouvais": 2730,
      "caught": 2731,
      "type": 2732,
      "saying": 2733,
      "cats": 2734,
      "géné": 2735,
      "occu": 2736,
      "easily": 2737,
      "magaz": 2738,
      "profess": 2739,
      "Everybody": 2740,
      "aurait": 2741,
      "hurry": 2742,
      "droit": 2743,
      "Maybe": 2744,
      "probably": 2745,
      "conduire": 2746,
      "grosse": 2747,
      "written": 2748,
      "rencontré": 2749,
      "imagin": 2750,
      "connaît": 2751,
      "birth": 2752,
      "tradu": 2753,
      "favorite": 2754,
      "arrog": 2755,
      "experience": 2756,
      "embarras": 2757,
      "expérience": 2758,
      "hungry": 2759,
      "sandw": 2760,
      "appreciate": 2761,
      "floor": 2762,
      "japonais": 2763,
      "sécurité": 2764,
      "Am": 2765,
      "Améri": 2766,
      "Cet": 2767,
      "Certain": 2768,
      "Dites": 2769,
      "Jane": 2770,
      "Sm": 2771,
      "Ses": 2772,
      "Sun": 2773,
      "Stop": 2774,
      "bâ": 2775,
      "blie": 2776,
      "cô": 2777,
      "case": 2778,
      "dange": 2779,
      "destin": 2780,
      "eye": 2781,
      "fas": 2782,
      "gau": 2783,
      "hait": 2784,
      "lune": 2785,
      "mill": 2786,
      "oth": 2787,
      "oise": 2788,
      "pes": 2789,
      "pons": 2790,
      "pid": 2791,
      "ram": 2792,
      "sli": 2793,
      "sof": 2794,
      "sout": 2795,
      "spr": 2796,
      "site": 2797,
      "smar": 2798,
      "slow": 2799,
      "ues": 2800,
      "vons": 2801,
      "vaut": 2802,
      "zz": 2803,
      "âche": 2804,
      "âmes": 2805,
      "èque": 2806,
      "reali": 2807,
      "ener": 2808,
      "ente": 2809,
      "envir": 2810,
      "ists": 2811,
      "inqui": 2812,
      "devenu": 2813,
      "needed": 2814,
      "neige": 2815,
      "vel": 2816,
      "veu": 2817,
      "veillé": 2818,
      "serez": 2819,
      "team": 2820,
      "entend": 2821,
      "entôt": 2822,
      "law": 2823,
      "ili": 2824,
      "sul": 2825,
      "suite": 2826,
      "succe": 2827,
      "rote": 2828,
      "allez": 2829,
      "irai": 2830,
      "apé": 2831,
      "accus": 2832,
      "park": 2833,
      "rends": 2834,
      "rentrer": 2835,
      "étiez": 2836,
      "urg": 2837,
      "conom": 2838,
      "contribu": 2839,
      "kept": 2840,
      "ject": 2841,
      "abo": 2842,
      "aband": 2843,
      "absent": 2844,
      "absolu": 2845,
      "prête": 2846,
      "coat": 2847,
      "tient": 2848,
      "tice": 2849,
      "propre": 2850,
      "projet": 2851,
      "box": 2852,
      "bois": 2853,
      "mont": 2854,
      "expect": 2855,
      "perdre": 2856,
      "ulent": 2857,
      "choice": 2858,
      "tés": 2859,
      "dream": 2860,
      "anybody": 2861,
      "grat": 2862,
      "Donne": 2863,
      "souhait": 2864,
      "sorte": 2865,
      "mistake": 2866,
      "Pourriez": 2867,
      "instru": 2868,
      "guess": 2869,
      "course": 2870,
      "courant": 2871,
      "compag": 2872,
      "radio": 2873,
      "bientôt": 2874,
      "travers": 2875,
      "patience": 2876,
      "clus": 2877,
      "clock": 2878,
      "broke": 2879,
      "étudiants": 2880,
      "genre": 2881,
      "ignor": 2882,
      "parer": 2883,
      "arrêté": 2884,
      "stayed": 2885,
      "blessé": 2886,
      "regret": 2887,
      "fonction": 2888,
      "changé": 2889,
      "changed": 2890,
      "drive": 2891,
      "refus": 2892,
      "expli": 2893,
      "plupart": 2894,
      "paper": 2895,
      "épous": 2896,
      "writing": 2897,
      "smoking": 2898,
      "picture": 2899,
      "hôp": 2900,
      "hôtel": 2901,
      "allemand": 2902,
      "comprends": 2903,
      "poisson": 2904,
      "German": 2905,
      "considé": 2906,
      "completely": 2907,
      "Penses": 2908,
      "taxi": 2909,
      "interesting": 2910,
      "Australi": 2911,
      "reason": 2912,
      "complètement": 2913,
      "améli": 2914,
      "réfléch": 2915,
      "ticket": 2916,
      "confiance": 2917,
      "équipe": 2918,
      "immediate": 2919,
      "computer": 2920,
      "sandwich": 2921,
      "Dé": 2922,
      "Non": 2923,
      "Pre": 2924,
      "Pas": 2925,
      "Put": 2926,
      "Span": 2927,
      "US": 2928,
      "bate": 2929,
      "cation": 2930,
      "cieux": 2931,
      "cade": 2932,
      "dge": 2933,
      "driez": 2934,
      "egg": 2935,
      "fleurs": 2936,
      "gun": 2937,
      "gone": 2938,
      "hy": 2939,
      "ize": 2940,
      "mam": 2941,
      "moun": 2942,
      "mign": 2943,
      "ois": 2944,
      "pus": 2945,
      "pier": 2946,
      "pick": 2947,
      "rase": 2948,
      "rête": 2949,
      "squ": 2950,
      "taille": 2951,
      "whe": 2952,
      "wrote": 2953,
      "âtre": 2954,
      "oud": 2955,
      "reuse": 2956,
      "enn": 2957,
      "istes": 2958,
      "incon": 2959,
      "inside": 2960,
      "heur": 2961,
      "deal": 2962,
      "quo": 2963,
      "arm": 2964,
      "arme": 2965,
      "veulent": 2966,
      "ork": 2967,
      "sea": 2968,
      "tem": 2969,
      "aug": 2970,
      "trust": 2971,
      "ours": 2972,
      "libr": 2973,
      "liked": 2974,
      "using": 2975,
      "sures": 2976,
      "sugar": 2977,
      "alité": 2978,
      "ira": 2979,
      "tune": 2980,
      "aven": 2981,
      "stat": 2982,
      "parfois": 2983,
      "parviens": 2984,
      "agent": 2985,
      "advis": 2986,
      "address": 2987,
      "adresse": 2988,
      "keys": 2989,
      "ieurs": 2990,
      "abil": 2991,
      "respe": 2992,
      "désor": 2993,
      "weren": 2994,
      "hold": 2995,
      "dure": 2996,
      "costu": 2997,
      "pensive": 2998,
      "èrement": 2999,
      "front": 3000,
      "boys": 3001,
      "exist": 3002,
      "excus": 3003,
      "explain": 3004,
      "expensive": 3005,
      "sert": 3006,
      "résou": 3007,
      "faite": 3008,
      "dispo": 3009,
      "hasn": 3010,
      "ctions": 3011,
      "essaie": 3012,
      "marry": 3013,
      "souviens": 3014,
      "iers": 3015,
      "poste": 3016,
      "pensez": 3017,
      "travaill": 3018,
      "dents": 3019,
      "phrase": 3020,
      "rieur": 3021,
      "autom": 3022,
      "minute": 3023,
      "shouldn": 3024,
      "visite": 3025,
      "guit": 3026,
      "thank": 3027,
      "stupid": 3028,
      "appelé": 3029,
      "fuck": 3030,
      "furent": 3031,
      "catch": 3032,
      "cated": 3033,
      "famous": 3034,
      "enseign": 3035,
      "feeling": 3036,
      "ption": 3037,
      "clothes": 3038,
      "Any": 3039,
      "learning": 3040,
      "femmes": 3041,
      "shop": 3042,
      "volution": 3043,
      "afternoon": 3044,
      "Auc": 3045,
      "Voici": 3046,
      "facilement": 3047,
      "evening": 3048,
      "préfère": 3049,
      "Regar": 3050,
      "certaine": 3051,
      "institu": 3052,
      "began": 3053,
      "Laissez": 3054,
      "également": 3055,
      "Today": 3056,
      "smoke": 3057,
      "accept": 3058,
      "dangerous": 3059,
      "Arrête": 3060,
      "glasses": 3061,
      "legs": 3062,
      "contin": 3063,
      "sound": 3064,
      "flowers": 3065,
      "ordinateur": 3066,
      "laugh": 3067,
      "probablement": 3068,
      "invited": 3069,
      "Oui": 3070,
      "espagno": 3071,
      "market": 3072,
      "heavy": 3073,
      "necessary": 3074,
      "pleurer": 3075,
      "gâteau": 3076,
      "discuter": 3077,
      "Lorsque": 3078,
      "article": 3079,
      "ologi": 3080,
      "birthday": 3081,
      "Smith": 3082,
      "hôpital": 3083,
      "Spanish": 3084,
      "mountain": 3085,
      "costume": 3086,
      "espagnol": 3087,
      "Will": 3088,
      "Yes": 3089,
      "York": 3090,
      "bais": 3091,
      "cs": 3092,
      "cts": 3093,
      "fie": 3094,
      "fact": 3095,
      "fasse": 3096,
      "gan": 3097,
      "hit": 3098,
      "hus": 3099,
      "ko": 3100,
      "kni": 3101,
      "line": 3102,
      "mment": 3103,
      "mur": 3104,
      "oo": 3105,
      "owe": 3106,
      "oper": 3107,
      "pack": 3108,
      "swe": 3109,
      "send": 3110,
      "tw": 3111,
      "tar": 3112,
      "tte": 3113,
      "uli": 3114,
      "yons": 3115,
      "zar": 3116,
      "ède": 3117,
      "écr": 3118,
      "œil": 3119,
      "oublie": 3120,
      "reco": 3121,
      "revoir": 3122,
      "revenir": 3123,
      "esprit": 3124,
      "ism": 3125,
      "isé": 3126,
      "issu": 3127,
      "isten": 3128,
      "inno": 3129,
      "intro": 3130,
      "invent": 3131,
      "invol": 3132,
      "itive": 3133,
      "assu": 3134,
      "asion": 3135,
      "devenir": 3136,
      "ata": 3137,
      "ater": 3138,
      "atch": 3139,
      "quar": 3140,
      "quick": 3141,
      "ara": 3142,
      "neigh": 3143,
      "sell": 3144,
      "tee": 3145,
      "teen": 3146,
      "medi": 3147,
      "lap": 3148,
      "lay": 3149,
      "ceux": 3150,
      "tré": 3151,
      "ety": 3152,
      "river": 3153,
      "sugg": 3154,
      "stre": 3155,
      "stars": 3156,
      "stairs": 3157,
      "tree": 3158,
      "appa": 3159,
      "moindre": 3160,
      "moitié": 3161,
      "allée": 3162,
      "parap": 3163,
      "forward": 3164,
      "étions": 3165,
      "ural": 3166,
      "conten": 3167,
      "ics": 3168,
      "pot": 3169,
      "respons": 3170,
      "début": 3171,
      "Here": 3172,
      "soleil": 3173,
      "herself": 3174,
      "dons": 3175,
      "coin": 3176,
      "dessus": 3177,
      "pends": 3178,
      "iller": 3179,
      "manche": 3180,
      "manteau": 3181,
      "igne": 3182,
      "sés": 3183,
      "vidé": 3184,
      "usement": 3185,
      "arrière": 3186,
      "président": 3187,
      "dites": 3188,
      "marier": 3189,
      "prepare": 3190,
      "drunk": 3191,
      "seem": 3192,
      "view": 3193,
      "worked": 3194,
      "possibil": 3195,
      "human": 3196,
      "Not": 3197,
      "Noël": 3198,
      "phy": 3199,
      "everyone": 3200,
      "guy": 3201,
      "somme": 3202,
      "sometimes": 3203,
      "corri": 3204,
      "build": 3205,
      "fera": 3206,
      "talked": 3207,
      "cherch": 3208,
      "loved": 3209,
      "versaire": 3210,
      "speaks": 3211,
      "plays": 3212,
      "played": 3213,
      "eaten": 3214,
      "viendra": 3215,
      "bibli": 3216,
      "feelings": 3217,
      "habit": 3218,
      "occasion": 3219,
      "Christ": 3220,
      "Quelqu": 3221,
      "closed": 3222,
      "slept": 3223,
      "demander": 3224,
      "cute": 3225,
      "faisait": 3226,
      "broken": 3227,
      "dort": 3228,
      "dormi": 3229,
      "shoes": 3230,
      "count": 3231,
      "étudier": 3232,
      "gener": 3233,
      "photos": 3234,
      "pareil": 3235,
      "Votre": 3236,
      "chapeau": 3237,
      "occupée": 3238,
      "ciel": 3239,
      "produit": 3240,
      "commencer": 3241,
      "umbre": 3242,
      "walked": 3243,
      "science": 3244,
      "examen": 3245,
      "conseils": 3246,
      "popular": 3247,
      "breakfast": 3248,
      "différen": 3249,
      "nombreux": 3250,
      "théor": 3251,
      "terminé": 3252,
      "spoke": 3253,
      "glass": 3254,
      "clés": 3255,
      "suffis": 3256,
      "wearing": 3257,
      "racon": 3258,
      "succès": 3259,
      "crying": 3260,
      "blood": 3261,
      "pointed": 3262,
      "short": 3263,
      "rapidement": 3264,
      "Look": 3265,
      "savent": 3266,
      "anniversaire": 3267,
      "côté": 3268,
      "abandon": 3269,
      "immediately": 3270,
      "husband": 3271,
      "introdu": 3272,
      "quickly": 3273,
      "biblioth": 3274,
      "!\"": 3275,
      "15": 3276,
      "200": 3277,
      "Even": 3278,
      "For": 3279,
      "Lind": 3280,
      "Main": 3281,
      "Même": 3282,
      "Rien": 3283,
      "Su": 3284,
      "Tur": 3285,
      "bal": 3286,
      "bons": 3287,
      "bill": 3288,
      "base": 3289,
      "balle": 3290,
      "cous": 3291,
      "cue": 3292,
      "card": 3293,
      "ctement": 3294,
      "da": 3295,
      "fly": 3296,
      "gie": 3297,
      "gres": 3298,
      "ible": 3299,
      "ivent": 3300,
      "ième": 3301,
      "kids": 3302,
      "lan": 3303,
      "lla": 3304,
      "oy": 3305,
      "ole": 3306,
      "opé": 3307,
      "pêcher": 3308,
      "sang": 3309,
      "sport": 3310,
      "tall": 3311,
      "vor": 3312,
      "vont": 3313,
      "vête": 3314,
      "wed": 3315,
      "zoo": 3316,
      "éle": 3317,
      "éto": 3318,
      "éri": 3319,
      "éner": 3320,
      "écl": 3321,
      "ût": 3322,
      "espé": 3323,
      "isme": 3324,
      "incre": 3325,
      "ermin": 3326,
      "itch": 3327,
      "ited": 3328,
      "omen": 3329,
      "quent": 3330,
      "orig": 3331,
      "ority": 3332,
      "organ": 3333,
      "tears": 3334,
      "thre": 3335,
      "lax": 3336,
      "lable": 3337,
      "tran": 3338,
      "eter": 3339,
      "rivi": 3340,
      "suici": 3341,
      "tué": 3342,
      "pein": 3343,
      "pelle": 3344,
      "avis": 3345,
      "avance": 3346,
      "ayez": 3347,
      "appar": 3348,
      "appointed": 3349,
      "move": 3350,
      "allés": 3351,
      "loir": 3352,
      "parc": 3353,
      "parlez": 3354,
      "forme": 3355,
      "force": 3356,
      "fortune": 3357,
      "ury": 3358,
      "ains": 3359,
      "jeu": 3360,
      "goes": 3361,
      "prat": 3362,
      "reste": 3363,
      "voitu": 3364,
      "dépend": 3365,
      "décl": 3366,
      "wel": 3367,
      "hood": 3368,
      "siè": 3369,
      "anges": 3370,
      "cop": 3371,
      "coll": 3372,
      "deser": 3373,
      "tidi": 3374,
      "proche": 3375,
      "proper": 3376,
      "mach": 3377,
      "lumière": 3378,
      "check": 3379,
      "perfect": 3380,
      "servi": 3381,
      "service": 3382,
      "rép": 3383,
      "rés": 3384,
      "chocol": 3385,
      "plusieurs": 3386,
      "plein": 3387,
      "pleut": 3388,
      "worth": 3389,
      "sala": 3390,
      "journal": 3391,
      "dispos": 3392,
      "discours": 3393,
      "vies": 3394,
      "gets": 3395,
      "ffic": 3396,
      "vécu": 3397,
      "prend": 3398,
      "preu": 3399,
      "cru": 3400,
      "Donnez": 3401,
      "draw": 3402,
      "carte": 3403,
      "carry": 3404,
      "vieil": 3405,
      "jambes": 3406,
      "nées": 3407,
      "amed": 3408,
      "portait": 3409,
      "autour": 3410,
      "guys": 3411,
      "moral": 3412,
      "prison": 3413,
      "ferais": 3414,
      "affaire": 3415,
      "brû": 3416,
      "speaking": 3417,
      "Unis": 3418,
      "eating": 3419,
      "istance": 3420,
      "understood": 3421,
      "older": 3422,
      "bike": 3423,
      "Chin": 3424,
      "borrow": 3425,
      "And": 3426,
      "given": 3427,
      "gives": 3428,
      "ciné": 3429,
      "ross": 3430,
      "regardé": 3431,
      "arrêt": 3432,
      "boute": 3433,
      "history": 3434,
      "pluie": 3435,
      "papier": 3436,
      "studying": 3437,
      "fallu": 3438,
      "lève": 3439,
      "signi": 3440,
      "réponse": 3441,
      "répondre": 3442,
      "mauvaise": 3443,
      "prochaine": 3444,
      "théâtre": 3445,
      "connaître": 3446,
      "préférée": 3447,
      "chanter": 3448,
      "concert": 3449,
      "poison": 3450,
      "respond": 3451,
      "figure": 3452,
      "figured": 3453,
      "sentiments": 3454,
      "pieds": 3455,
      "écouter": 3456,
      "video": 3457,
      "réussi": 3458,
      "envoyé": 3459,
      "prêter": 3460,
      "pronon": 3461,
      "football": 3462,
      "États": 3463,
      "chaussures": 3464,
      "société": 3465,
      "stupide": 3466,
      "intéressant": 3467,
      "Garde": 3468,
      "diplom": 3469,
      "distance": 3470,
      "magazine": 3471,
      "bâti": 3472,
      "dangereux": 3473,
      "lunettes": 3474,
      "smart": 3475,
      "realize": 3476,
      "expliquer": 3477,
      "quotidi": 3478,
      "augment": 3479,
      "library": 3480,
      "avenir": 3481,
      "désormais": 3482,
      "résoudre": 3483,
      "enseignant": 3484,
      "instituteur": 3485,
      "continu": 3486,
      "zarre": 3487,
      "innocent": 3488,
      "sommeil": 3489,
      "building": 3490,
      "Christmas": 3491,
      "théorie": 3492,
      "suffisamment": 3493,
      "bibliothèque": 3494,
      "Linda": 3495,
      "Maintenant": 3496,
      "rivière": 3497,
      "voitures": 3498,
      "Bon": 3499,
      "Bien": 3500,
      "Co": 3501,
      "Fait": 3502,
      "Thom": 3503,
      "Viens": 3504,
      "With": 3505,
      "aque": 3506,
      "bly": 3507,
      "bul": 3508,
      "cand": 3509,
      "cup": 3510,
      "cise": 3511,
      "dence": 3512,
      "ech": 3513,
      "either": 3514,
      "ges": 3515,
      "gam": 3516,
      "gard": 3517,
      "hang": 3518,
      "haut": 3519,
      "ides": 3520,
      "ives": 3521,
      "jard": 3522,
      "kil": 3523,
      "kitch": 3524,
      "nt": 3525,
      "nons": 3526,
      "nête": 3527,
      "ore": 3528,
      "ral": 3529,
      "range": 3530,
      "rappeler": 3531,
      "sme": 3532,
      "save": 3533,
      "scare": 3534,
      "tas": 3535,
      "ément": 3536,
      "éche": 3537,
      "évit": 3538,
      "ouvert": 3539,
      "rep": 3540,
      "repas": 3541,
      "reed": 3542,
      "reconnais": 3543,
      "oncle": 3544,
      "ann": 3545,
      "leep": 3546,
      "iter": 3547,
      "det": 3548,
      "omb": 3549,
      "atte": 3550,
      "vec": 3551,
      "theory": 3552,
      "seat": 3553,
      "sever": 3554,
      "secre": 3555,
      "aies": 3556,
      "aiment": 3557,
      "tex": 3558,
      "entra": 3559,
      "entrée": 3560,
      "lly": 3561,
      "ceau": 3562,
      "Jean": 3563,
      "auth": 3564,
      "ilo": 3565,
      "ilà": 3566,
      "tric": 3567,
      "uncle": 3568,
      "rire": 3569,
      "ries": 3570,
      "sud": 3571,
      "bear": 3572,
      "alter": 3573,
      "tuer": 3574,
      "dies": 3575,
      "dimanche": 3576,
      "pected": 3577,
      "avoi": 3578,
      "ama": 3579,
      "outside": 3580,
      "apple": 3581,
      "apparti": 3582,
      "apologi": 3583,
      "acti": 3584,
      "aged": 3585,
      "comporte": 3586,
      "comfort": 3587,
      "complain": 3588,
      "impro": 3589,
      "uts": 3590,
      "ader": 3591,
      "admit": 3592,
      "iel": 3593,
      "ication": 3594,
      "gover": 3595,
      "abroad": 3596,
      "prun": 3597,
      "pract": 3598,
      "pock": 3599,
      "pool": 3600,
      "poids": 3601,
      "sight": 3602,
      "propo": 3603,
      "cancer": 3604,
      "fron": 3605,
      "montrer": 3606,
      "luie": 3607,
      "exer": 3608,
      "existen": 3609,
      "manquer": 3610,
      "serv": 3611,
      "likely": 3612,
      "surprise": 3613,
      "couver": 3614,
      "tées": 3615,
      "dish": 3616,
      "disco": 3617,
      "ately": 3618,
      "shall": 3619,
      "ship": 3620,
      "endor": 3621,
      "whatever": 3622,
      "Ceci": 3623,
      "quelconque": 3624,
      "somewhere": 3625,
      "aking": 3626,
      "prends": 3627,
      "cks": 3628,
      "isez": 3629,
      "gars": 3630,
      "garder": 3631,
      "seeing": 3632,
      "mér": 3633,
      "vieille": 3634,
      "ived": 3635,
      "vouloir": 3636,
      "position": 3637,
      "amies": 3638,
      "sentences": 3639,
      "huit": 3640,
      "Nos": 3641,
      "phras": 3642,
      "direction": 3643,
      "oblig": 3644,
      "visage": 3645,
      "guerre": 3646,
      "speech": 3647,
      "finish": 3648,
      "court": 3649,
      "president": 3650,
      "fermé": 3651,
      "fight": 3652,
      "blanc": 3653,
      "rown": 3654,
      "tries": 3655,
      "ildren": 3656,
      "justice": 3657,
      "tomb": 3658,
      "glis": 3659,
      "cents": 3660,
      "géni": 3661,
      "traver": 3662,
      "price": 3663,
      "Children": 3664,
      "single": 3665,
      "solve": 3666,
      "dogs": 3667,
      "rencontre": 3668,
      "faisons": 3669,
      "weekend": 3670,
      "vingt": 3671,
      "détermin": 3672,
      "intérieur": 3673,
      "fortun": 3674,
      "double": 3675,
      "champ": 3676,
      "strange": 3677,
      "hiver": 3678,
      "native": 3679,
      "embras": 3680,
      "fond": 3681,
      "jeunes": 3682,
      "marié": 3683,
      "skin": 3684,
      "sauf": 3685,
      "netto": 3686,
      "meilleure": 3687,
      "Soyez": 3688,
      "population": 3689,
      "présenter": 3690,
      "normal": 3691,
      "running": 3692,
      "animaux": 3693,
      "princi": 3694,
      "printemps": 3695,
      "imagine": 3696,
      "affaires": 3697,
      "silen": 3698,
      "bicyc": 3699,
      "joindre": 3700,
      "emprun": 3701,
      "dictionary": 3702,
      "dictionnaire": 3703,
      "kiss": 3704,
      "success": 3705,
      "pleased": 3706,
      "fully": 3707,
      "impli": 3708,
      "usual": 3709,
      "usually": 3710,
      "chanson": 3711,
      "accepter": 3712,
      "television": 3713,
      "allowed": 3714,
      "groupe": 3715,
      "choisir": 3716,
      "profession": 3717,
      "gauche": 3718,
      "montagne": 3719,
      "épouser": 3720,
      "Prenez": 3721,
      "cadeau": 3722,
      "whether": 3723,
      "advised": 3724,
      "Aucun": 3725,
      "laughing": 3726,
      "parapluie": 3727,
      "umbrella": 3728,
      "machine": 3729,
      "Chinese": 3730,
      "Faites": 3731,
      "Thomas": 3732,
      "kitchen": 3733,
      "secrets": 3734,
      "existence": 3735,
      "phrases": 3736,
      "11": 3737,
      "13": 3738,
      "Af": 3739,
      "Avec": 3740,
      "But": 3741,
      "Bob": 3742,
      "Cor": 3743,
      "Call": 3744,
      "Fe": 3745,
      "Fri": 3746,
      "Gr": 3747,
      "Ju": 3748,
      "Jack": 3749,
      "Kate": 3750,
      "Lon": 3751,
      "Me": 3752,
      "Mi": 3753,
      "OK": 3754,
      "Pro": 3755,
      "Pré": 3756,
      "Prom": 3757,
      "Sal": 3758,
      "Spe": 3759,
      "Suis": 3760,
      "Savez": 3761,
      "Show": 3762,
      "Since": 3763,
      "Watch": 3764,
      "afin": 3765,
      "alive": 3766,
      "ben": 3767,
      "bille": 3768,
      "cter": 3769,
      "cteur": 3770,
      "ctif": 3771,
      "dam": 3772,
      "eight": 3773,
      "fé": 3774,
      "fur": 3775,
      "flat": 3776,
      "ged": 3777,
      "gni": 3778,
      "gagne": 3779,
      "ham": 3780,
      "hid": 3781,
      "ian": 3782,
      "lin": 3783,
      "lour": 3784,
      "lone": 3785,
      "lend": 3786,
      "mn": 3787,
      "mée": 3788,
      "mille": 3789,
      "nit": 3790,
      "nant": 3791,
      "nment": 3792,
      "opt": 3793,
      "orer": 3794,
      "olog": 3795,
      "pal": 3796,
      "pur": 3797,
      "rè": 3798,
      "ror": 3799,
      "rus": 3800,
      "ray": 3801,
      "rang": 3802,
      "rons": 3803,
      "rue": 3804,
      "rappe": 3805,
      "rêt": 3806,
      "sin": 3807,
      "sla": 3808,
      "sain": 3809,
      "spor": 3810,
      "scar": 3811,
      "space": 3812,
      "vil": 3813,
      "vase": 3814,
      "vince": 3815,
      "wise": 3816,
      "èle": 3817,
      "éte": 3818,
      "ouvr": 3819,
      "ouvrir": 3820,
      "remon": 3821,
      "remp": 3822,
      "report": 3823,
      "return": 3824,
      "reçu": 3825,
      "recherche": 3826,
      "esca": 3827,
      "onde": 3828,
      "inj": 3829,
      "ined": 3830,
      "inten": 3831,
      "hero": 3832,
      "années": 3833,
      "ering": 3834,
      "leçon": 3835,
      "assure": 3836,
      "asleep": 3837,
      "dered": 3838,
      "determin": 3839,
      "ator": 3840,
      "atta": 3841,
      "quée": 3842,
      "arbre": 3843,
      "nement": 3844,
      "veau": 3845,
      "velo": 3846,
      "ord": 3847,
      "sex": 3848,
      "aimé": 3849,
      "teaux": 3850,
      "meal": 3851,
      "mets": 3852,
      "lac": 3853,
      "laver": 3854,
      "labor": 3855,
      "ousand": 3856,
      "chon": 3857,
      "chin": 3858,
      "chur": 3859,
      "auriez": 3860,
      "iling": 3861,
      "ources": 3862,
      "note": 3863,
      "lid": 3864,
      "ric": 3865,
      "ridi": 3866,
      "rige": 3867,
      "beach": 3868,
      "robe": 3869,
      "along": 3870,
      "iré": 3871,
      "diale": 3872,
      "divor": 3873,
      "amp": 3874,
      "ambit": 3875,
      "appareil": 3876,
      "moved": 3877,
      "acter": 3878,
      "across": 3879,
      "lots": 3880,
      "parles": 3881,
      "parlent": 3882,
      "agé": 3883,
      "agir": 3884,
      "lesson": 3885,
      "rendez": 3886,
      "éter": 3887,
      "état": 3888,
      "connu": 3889,
      "conside": 3890,
      "convain": 3891,
      "utile": 3892,
      "adv": 3893,
      "adap": 3894,
      "jeux": 3895,
      "gold": 3896,
      "poll": 3897,
      "power": 3898,
      "dési": 3899,
      "décision": 3900,
      "ared": 3901,
      "hose": 3902,
      "holi": 3903,
      "soin": 3904,
      "plant": 3905,
      "dule": 3906,
      "copi": 3907,
      "airement": 3908,
      "propres": 3909,
      "myst": 3910,
      "danser": 3911,
      "maj": 3912,
      "ciation": 3913,
      "expected": 3914,
      "persu": 3915,
      "permission": 3916,
      "résult": 3917,
      "ular": 3918,
      "quiet": 3919,
      "choose": 3920,
      "surance": 3921,
      "coupe": 3922,
      "portes": 3923,
      "worse": 3924,
      "plage": 3925,
      "disappointed": 3926,
      "ateurs": 3927,
      "vivent": 3928,
      "Celui": 3929,
      "white": 3930,
      "prépar": 3931,
      "ners": 3932,
      "nervous": 3933,
      "drait": 3934,
      "sors": 3935,
      "toilet": 3936,
      "bonnes": 3937,
      "cesse": 3938,
      "missed": 3939,
      "mistakes": 3940,
      "Pourrais": 3941,
      "humeur": 3942,
      "longs": 3943,
      "portun": 3944,
      "portable": 3945,
      "pizz": 3946,
      "math": 3947,
      "raisons": 3948,
      "sommet": 3949,
      "corps": 3950,
      "finally": 3951,
      "cros": 3952,
      "croy": 3953,
      "croit": 3954,
      "buil": 3955,
      "apped": 3956,
      "appear": 3957,
      "fermer": 3958,
      "pale": 3959,
      "resté": 3960,
      "Monday": 3961,
      "payé": 3962,
      "tombé": 3963,
      "business": 3964,
      "action": 3965,
      "United": 3966,
      "glise": 3967,
      "viendrai": 3968,
      "bizarre": 3969,
      "traffic": 3970,
      "ponctu": 3971,
      "patron": 3972,
      "Chris": 3973,
      "attends": 3974,
      "promet": 3975,
      "spent": 3976,
      "solution": 3977,
      "empor": 3978,
      "crime": 3979,
      "opportun": 3980,
      "assis": 3981,
      "étudiant": 3982,
      "jolie": 3983,
      "effe": 3984,
      "rude": 3985,
      "erreurs": 3986,
      "Aujourd": 3987,
      "doub": 3988,
      "capit": 3989,
      "000": 3990,
      "awake": 3991,
      "docteur": 3992,
      "aimait": 3993,
      "visiter": 3994,
      "driving": 3995,
      "shower": 3996,
      "boyfriend": 3997,
      "correctement": 3998,
      "culture": 3999,
      "honte": 4000,
      "honest": 4001,
      "honnête": 4002,
      "conseil": 4003,
      "cassé": 4004,
      "camp": 4005,
      "rapport": 4006,
      "warned": 4007,
      "quitter": 4008,
      "signe": 4009,
      "différent": 4010,
      "vacation": 4011,
      "proposition": 4012,
      "pause": 4013,
      "étrange": 4014,
      "See": 4015,
      "lundi": 4016,
      "difference": 4017,
      "préféré": 4018,
      "spoken": 4019,
      "suivre": 4020,
      "impressed": 4021,
      "cooking": 4022,
      "gagner": 4023,
      "aliser": 4024,
      "consider": 4025,
      "découvert": 4026,
      "Australie": 4027,
      "thirty": 4028,
      "satisfied": 4029,
      "sérieux": 4030,
      "ashamed": 4031,
      "actually": 4032,
      "America": 4033,
      "pommes": 4034,
      "punctu": 4035,
      "pleuvoir": 4036,
      "intéressé": 4037,
      "piscine": 4038,
      "piece": 4039,
      "travel": 4040,
      "surviv": 4041,
      "œufs": 4042,
      "moyen": 4043,
      "beginning": 4044,
      "mienne": 4045,
      "attrapé": 4046,
      "accused": 4047,
      "vendredi": 4048,
      "occuper": 4049,
      "embarrassed": 4050,
      "Certains": 4051,
      "Sunday": 4052,
      "spring": 4053,
      "environ": 4054,
      "succeeded": 4055,
      "compagnie": 4056,
      "Australia": 4057,
      "bateau": 4058,
      "eggs": 4059,
      "hypo": 4060,
      "travaillé": 4061,
      "Arrêtez": 4062,
      "baiser": 4063,
      "twice": 4064,
      "involved": 4065,
      "vidéo": 4066,
      "prepared": 4067,
      "vêtements": 4068,
      "étoiles": 4069,
      "origin": 4070,
      "tranqu": 4071,
      "bâtiment": 4072,
      "jardin": 4073,
      "smell": 4074,
      "scared": 4075,
      "iloso": 4076,
      "appartient": 4077,
      "comfortable": 4078,
      "government": 4079,
      "After": 4080,
      "Friday": 4081,
      "considered": 4082,
      "\".": 4083,
      "Après": 4084,
      "Bill": 4085,
      "Cro": 4086,
      "Esp": 4087,
      "Hi": 4088,
      "Jou": 4089,
      "Jus": 4090,
      "Man": 4091,
      "Mais": 4092,
      "Mal": 4093,
      "Moi": 4094,
      "Make": 4095,
      "Mets": 4096,
      "Pres": 4097,
      "Prends": 4098,
      "Ré": 4099,
      "Rus": 4100,
      "Som": 4101,
      "Sus": 4102,
      "Sans": 4103,
      "Those": 4104,
      "Uni": 4105,
      "War": 4106,
      "bin": 4107,
      "bun": 4108,
      "barr": 4109,
      "cée": 4110,
      "dle": 4111,
      "equ": 4112,
      "eut": 4113,
      "event": 4114,
      "fle": 4115,
      "fla": 4116,
      "fant": 4117,
      "gas": 4118,
      "gouver": 4119,
      "hâ": 4120,
      "hau": 4121,
      "hide": 4122,
      "jout": 4123,
      "ks": 4124,
      "kno": 4125,
      "kid": 4126,
      "lus": 4127,
      "lant": 4128,
      "mê": 4129,
      "mad": 4130,
      "mons": 4131,
      "mbo": 4132,
      "muse": 4133,
      "mid": 4134,
      "mail": 4135,
      "ns": 4136,
      "nait": 4137,
      "nic": 4138,
      "obe": 4139,
      "pâ": 4140,
      "pit": 4141,
      "pli": 4142,
      "page": 4143,
      "paid": 4144,
      "ring": 4145,
      "ril": 4146,
      "rate": 4147,
      "rhu": 4148,
      "rappelle": 4149,
      "sat": 4150,
      "sée": 4151,
      "sche": 4152,
      "smi": 4153,
      "sache": 4154,
      "spé": 4155,
      "sante": 4156,
      "scre": 4157,
      "tun": 4158,
      "taller": 4159,
      "task": 4160,
      "ug": 4161,
      "umer": 4162,
      "uits": 4163,
      "vable": 4164,
      "winter": 4165,
      "yé": 4166,
      "zy": 4167,
      "én": 4168,
      "év": 4169,
      "éro": 4170,
      "élu": 4171,
      "énor": 4172,
      "échou": 4173,
      "économ": 4174,
      "église": 4175,
      "êché": 4176,
      "oui": 4177,
      "oux": 4178,
      "ouvre": 4179,
      "rem": 4180,
      "requi": 4181,
      "refaire": 4182,
      "remain": 4183,
      "remer": 4184,
      "reach": 4185,
      "revenu": 4186,
      "espace": 4187,
      "endu": 4188,
      "infor": 4189,
      "held": 4190,
      "erais": 4191,
      "lever": 4192,
      "ased": 4193,
      "del": 4194,
      "deli": 4195,
      "demi": 4196,
      "decision": 4197,
      "depends": 4198,
      "quant": 4199,
      "argu": 4200,
      "tota": 4201,
      "tory": 4202,
      "veget": 4203,
      "orange": 4204,
      "sept": 4205,
      "aill": 4206,
      "tea": 4207,
      "text": 4208,
      "mel": 4209,
      "means": 4210,
      "memor": 4211,
      "enty": 4212,
      "entire": 4213,
      "throw": 4214,
      "lazy": 4215,
      "passed": 4216,
      "chi": 4217,
      "chap": 4218,
      "chair": 4219,
      "aul": 4220,
      "aupar": 4221,
      "novel": 4222,
      "ettes": 4223,
      "rid": 4224,
      "rier": 4225,
      "rice": 4226,
      "beat": 4227,
      "allais": 4228,
      "offer": 4229,
      "dig": 4230,
      "doivent": 4231,
      "avo": 4232,
      "avion": 4233,
      "tren": 4234,
      "outons": 4235,
      "appoint": 4236,
      "moder": 4237,
      "acle": 4238,
      "loves": 4239,
      "local": 4240,
      "loss": 4241,
      "partout": 4242,
      "parlait": 4243,
      "agreed": 4244,
      "forcé": 4245,
      "common": 4246,
      "imum": 4247,
      "étage": 4248,
      "convers": 4249,
      "admis": 4250,
      "iculi": 4251,
      "absur": 4252,
      "proud": 4253,
      "songe": 4254,
      "poir": 4255,
      "posé": 4256,
      "terri": 4257,
      "voyez": 4258,
      "départ": 4259,
      "détru": 4260,
      "déçu": 4261,
      "area": 4262,
      "weight": 4263,
      "host": 4264,
      "soi": 4265,
      "plenty": 4266,
      "donna": 4267,
      "dessert": 4268,
      "tire": 4269,
      "tien": 4270,
      "feet": 4271,
      "fection": 4272,
      "prote": 4273,
      "fruits": 4274,
      "bother": 4275,
      "cible": 4276,
      "tenu": 4277,
      "exc": 4278,
      "ureu": 4279,
      "cheval": 4280,
      "manager": 4281,
      "perte": 4282,
      "seras": 4283,
      "serve": 4284,
      "seront": 4285,
      "rég": 4286,
      "réveillé": 4287,
      "faith": 4288,
      "porté": 4289,
      "venait": 4290,
      "venge": 4291,
      "worried": 4292,
      "nient": 4293,
      "ustom": 4294,
      "disent": 4295,
      "disait": 4296,
      "dispar": 4297,
      "disput": 4298,
      "discus": 4299,
      "distribu": 4300,
      "shy": 4301,
      "shar": 4302,
      "share": 4303,
      "upstairs": 4304,
      "vier": 4305,
      "vivant": 4306,
      "vidence": 4307,
      "hasard": 4308,
      "arrivée": 4309,
      "ician": 4310,
      "merveille": 4311,
      "légu": 4312,
      "particuli": 4313,
      "vénient": 4314,
      "marre": 4315,
      "preten": 4316,
      "cris": 4317,
      "fromage": 4318,
      "garage": 4319,
      "souff": 4320,
      "cars": 4321,
      "médi": 4322,
      "liez": 4323,
      "vraie": 4324,
      "poss": 4325,
      "toile": 4326,
      "lette": 4327,
      "nés": 4328,
      "Nothing": 4329,
      "phys": 4330,
      "philoso": 4331,
      "direct": 4332,
      "matiques": 4333,
      "objet": 4334,
      "guer": 4335,
      "morceau": 4336,
      "whose": 4337,
      "helped": 4338,
      "correspond": 4339,
      "newsp": 4340,
      "acked": 4341,
      "devint": 4342,
      "appel": 4343,
      "ferme": 4344,
      "brought": 4345,
      "gentil": 4346,
      "Montre": 4347,
      "poule": 4348,
      "says": 4349,
      "pull": 4350,
      "icken": 4351,
      "grandfather": 4352,
      "grandmother": 4353,
      "joué": 4354,
      "offen": 4355,
      "famili": 4356,
      "wore": 4357,
      "viennent": 4358,
      "planet": 4359,
      "singing": 4360,
      "Toutes": 4361,
      "Didn": 4362,
      "ettez": 4363,
      "soldi": 4364,
      "demanda": 4365,
      "Angle": 4366,
      "empêcher": 4367,
      "Both": 4368,
      "Parlez": 4369,
      "calme": 4370,
      "hardly": 4371,
      "color": 4372,
      "détails": 4373,
      "magne": 4374,
      "intérêt": 4375,
      "painted": 4376,
      "painting": 4377,
      "assée": 4378,
      "countries": 4379,
      "Everything": 4380,
      "filled": 4381,
      "greatest": 4382,
      "raining": 4383,
      "douche": 4384,
      "hurried": 4385,
      "timide": 4386,
      "droite": 4387,
      "semaines": 4388,
      "bedroom": 4389,
      "awa": 4390,
      "produire": 4391,
      "natural": 4392,
      "universe": 4393,
      "visited": 4394,
      "certains": 4395,
      "mariage": 4396,
      "larmes": 4397,
      "sky": 4398,
      "salle": 4399,
      "blame": 4400,
      "ennemi": 4401,
      "transl": 4402,
      "translate": 4403,
      "parties": 4404,
      "camera": 4405,
      "juge": 4406,
      "suspect": 4407,
      "warm": 4408,
      "ancy": 4409,
      "horrible": 4410,
      "women": 4411,
      "sign": 4412,
      "hundre": 4413,
      "cuisin": 4414,
      "écureu": 4415,
      "sooner": 4416,
      "Japonais": 4417,
      "brill": 4418,
      "silent": 4419,
      "coûte": 4420,
      "mourir": 4421,
      "roman": 4422,
      "amoureuse": 4423,
      "costs": 4424,
      "windows": 4425,
      "fenêtres": 4426,
      "starting": 4427,
      "responsible": 4428,
      "burst": 4429,
      "gagné": 4430,
      "symbo": 4431,
      "université": 4432,
      "onnement": 4433,
      "découvrir": 4434,
      "kissed": 4435,
      "thirsty": 4436,
      "following": 4437,
      "Connais": 4438,
      "selon": 4439,
      "sembles": 4440,
      "plaisir": 4441,
      "retourner": 4442,
      "Thanks": 4443,
      "dressed": 4444,
      "national": 4445,
      "pomme": 4446,
      "politique": 4447,
      "telephone": 4448,
      "seriously": 4449,
      "scientifique": 4450,
      "Excusez": 4451,
      "Brit": 4452,
      "effet": 4453,
      "received": 4454,
      "enemy": 4455,
      "Amérique": 4456,
      "destination": 4457,
      "faster": 4458,
      "energy": 4459,
      "inquiète": 4460,
      "sults": 4461,
      "absolute": 4462,
      "améliorer": 4463,
      "ennuis": 4464,
      "inconvénient": 4465,
      "abilité": 4466,
      "automne": 4467,
      "Regarde": 4468,
      "knife": 4469,
      "recogni": 4470,
      "issue": 4471,
      "teeth": 4472,
      "medicine": 4473,
      "suggest": 4474,
      "contente": 4475,
      "responsable": 4476,
      "physi": 4477,
      "copine": 4478,
      "preuve": 4479,
      "cinéma": 4480,
      "bouteille": 4481,
      "garden": 4482,
      "details": 4483,
      "avoid": 4484,
      "fortunately": 4485,
      "injured": 4486,
      "church": 4487,
      "copies": 4488,
      "built": 4489,
      "emporter": 4490,
      "punctual": 4491,
      "tranquille": 4492,
      "Susan": 4493,
      "gouvernement": 4494,
      "auparavant": 4495,
      "conversation": 4496,
      "newspaper": 4497,
      "familiar": 4498,
      "Angleterre": 4499,
      "\",": 4500,
      ",\"": 4501,
      "12": 4502,
      "28": 4503,
      "60": 4504,
      "Ak": 4505,
      "Avant": 4506,
      "By": 4507,
      "Bre": 4508,
      "Bra": 4509,
      "Du": 4510,
      "Dep": 4511,
      "Gu": 4512,
      "Gre": 4513,
      "Hier": 4514,
      "Kyo": 4515,
      "Lu": 4516,
      "Lang": 4517,
      "Many": 4518,
      "Mos": 4519,
      "Nations": 4520,
      "Nancy": 4521,
      "Of": 4522,
      "Pri": 4523,
      "Paul": 4524,
      "Reste": 4525,
      "Sou": 4526,
      "Spain": 4527,
      "Ta": 4528,
      "Tou": 4529,
      "Tes": 4530,
      "Tan": 4531,
      "Try": 4532,
      "Time": 4533,
      "Va": 4534,
      "Vu": 4535,
      "Ven": 4536,
      "Was": 4537,
      "Women": 4538,
      "aver": 4539,
      "ajout": 4540,
      "bour": 4541,
      "bright": 4542,
      "brown": 4543,
      "cil": 4544,
      "cure": 4545,
      "cend": 4546,
      "cache": 4547,
      "cards": 4548,
      "dus": 4549,
      "dad": 4550,
      "data": 4551,
      "fre": 4552,
      "fing": 4553,
      "fier": 4554,
      "gin": 4555,
      "gat": 4556,
      "gles": 4557,
      "ghed": 4558,
      "ghost": 4559,
      "ha": 4560,
      "hen": 4561,
      "iko": 4562,
      "ka": 4563,
      "ker": 4564,
      "list": 4565,
      "lines": 4566,
      "mous": 4567,
      "mic": 4568,
      "mage": 4569,
      "mbre": 4570,
      "moutons": 4571,
      "nô": 4572,
      "none": 4573,
      "nations": 4574,
      "ode": 4575,
      "ots": 4576,
      "pin": 4577,
      "pai": 4578,
      "pill": 4579,
      "pig": 4580,
      "rin": 4581,
      "rup": 4582,
      "round": 4583,
      "rôle": 4584,
      "sad": 4585,
      "sages": 4586,
      "tin": 4587,
      "tat": 4588,
      "tasse": 4589,
      "tâche": 4590,
      "var": 4591,
      "vine": 4592,
      "wing": 4593,
      "wake": 4594,
      "âce": 4595,
      "èse": 4596,
      "ètes": 4597,
      "élè": 4598,
      "élevé": 4599,
      "ômes": 4600,
      "remind": 4601,
      "results": 4602,
      "espe": 4603,
      "esses": 4604,
      "espoir": 4605,
      "iss": 4606,
      "isée": 4607,
      "influ": 4608,
      "hell": 4609,
      "anx": 4610,
      "anche": 4611,
      "leav": 4612,
      "leman": 4613,
      "lebr": 4614,
      "itted": 4615,
      "aspir": 4616,
      "devient": 4617,
      "quin": 4618,
      "arbres": 4619,
      "toys": 4620,
      "neu": 4621,
      "vered": 4622,
      "orge": 4623,
      "separ": 4624,
      "aidé": 4625,
      "tech": 4626,
      "meu": 4627,
      "meant": 4628,
      "entré": 4629,
      "thousand": 4630,
      "lake": 4631,
      "celebr": 4632,
      "estim": 4633,
      "chall": 4634,
      "chicken": 4635,
      "aurions": 4636,
      "unique": 4637,
      "lion": 4638,
      "ligé": 4639,
      "riches": 4640,
      "rific": 4641,
      "bel": 4642,
      "beur": 4643,
      "alph": 4644,
      "alcool": 4645,
      "irre": 4646,
      "iron": 4647,
      "irré": 4648,
      "dict": 4649,
      "verrai": 4650,
      "stick": 4651,
      "trees": 4652,
      "treated": 4653,
      "eding": 4654,
      "moon": 4655,
      "movies": 4656,
      "alliez": 4657,
      "acy": 4658,
      "acted": 4659,
      "acif": 4660,
      "accent": 4661,
      "loi": 4662,
      "loy": 4663,
      "paro": 4664,
      "parked": 4665,
      "parfaite": 4666,
      "aggres": 4667,
      "ford": 4668,
      "forced": 4669,
      "commer": 4670,
      "commande": 4671,
      "image": 4672,
      "impatient": 4673,
      "étend": 4674,
      "urry": 4675,
      "conne": 4676,
      "consu": 4677,
      "contro": 4678,
      "conclus": 4679,
      "conscience": 4680,
      "convince": 4681,
      "ada": 4682,
      "ief": 4683,
      "ielle": 4684,
      "iche": 4685,
      "goû": 4686,
      "prêtes": 4687,
      "pol": 4688,
      "ters": 4689,
      "voie": 4690,
      "waste": 4691,
      "déli": 4692,
      "délic": 4693,
      "dérange": 4694,
      "web": 4695,
      "weak": 4696,
      "size": 4697,
      "soif": 4698,
      "plans": 4699,
      "plément": 4700,
      "due": 4701,
      "angle": 4702,
      "angles": 4703,
      "copain": 4704,
      "dessin": 4705,
      "tique": 4706,
      "tirer": 4707,
      "iences": 4708,
      "proté": 4709,
      "propri": 4710,
      "project": 4711,
      "lymp": 4712,
      "fré": 4713,
      "fray": 4714,
      "frères": 4715,
      "Were": 4716,
      "boit": 4717,
      "boat": 4718,
      "bored": 4719,
      "boss": 4720,
      "cious": 4721,
      "within": 4722,
      "exh": 4723,
      "existe": 4724,
      "excit": 4725,
      "express": 4726,
      "permis": 4727,
      "served": 4728,
      "révé": 4729,
      "réjou": 4730,
      "résil": 4731,
      "réparer": 4732,
      "choir": 4733,
      "coucher": 4734,
      "couteau": 4735,
      "mesure": 4736,
      "venez": 4737,
      "worst": 4738,
      "sale": 4739,
      "fool": 4740,
      "Leave": 4741,
      "disg": 4742,
      "anywhere": 4743,
      "sépar": 4744,
      "shut": 4745,
      "upset": 4746,
      "useful": 4747,
      "essent": 4748,
      "préparer": 4749,
      "gram": 4750,
      "grap": 4751,
      "ground": 4752,
      "partici": 4753,
      "aked": 4754,
      "butter": 4755,
      "nerve": 4756,
      "cruel": 4757,
      "bread": 4758,
      "touche": 4759,
      "toucher": 4760,
      "touched": 4761,
      "drank": 4762,
      "soul": 4763,
      "souci": 4764,
      "souvenir": 4765,
      "cartes": 4766,
      "laisse": 4767,
      "avaient": 4768,
      "jambe": 4769,
      "sortes": 4770,
      "voul": 4771,
      "bonheur": 4772,
      "sentir": 4773,
      "humour": 4774,
      "phen": 4775,
      "phones": 4776,
      "happ": 4777,
      "haps": 4778,
      "portée": 4779,
      "nulle": 4780,
      "minimum": 4781,
      "mater": 4782,
      "match": 4783,
      "mathé": 4784,
      "gues": 4785,
      "special": 4786,
      "ounds": 4787,
      "finite": 4788,
      "finalement": 4789,
      "courir": 4790,
      "crow": 4791,
      "devin": 4792,
      "feriez": 4793,
      "fume": 4794,
      "bras": 4795,
      "bring": 4796,
      "brain": 4797,
      "talks": 4798,
      "chercher": 4799,
      "gentleman": 4800,
      "blue": 4801,
      "blank": 4802,
      "caused": 4803,
      "Isra": 4804,
      "Inde": 4805,
      "enfance": 4806,
      "itude": 4807,
      "nouvel": 4808,
      "mettez": 4809,
      "truc": 4810,
      "truck": 4811,
      "grandes": 4812,
      "watched": 4813,
      "Canada": 4814,
      "Unfortunately": 4815,
      "jouets": 4816,
      "race": 4817,
      "vues": 4818,
      "wood": 4819,
      "homework": 4820,
      "centre": 4821,
      "gérer": 4822,
      "suppor": 4823,
      "support": 4824,
      "supplément": 4825,
      "plane": 4826,
      "planète": 4827,
      "Whose": 4828,
      "Char": 4829,
      "Chaque": 4830,
      "cédé": 4831,
      "célè": 4832,
      "sings": 4833,
      "singer": 4834,
      "Quels": 4835,
      "childhood": 4836,
      "entrer": 4837,
      "happening": 4838,
      "promesse": 4839,
      "spir": 4840,
      "voyager": 4841,
      "curi": 4842,
      "Anne": 4843,
      "weeks": 4844,
      "chiens": 4845,
      "England": 4846,
      "futon": 4847,
      "musée": 4848,
      "petites": 4849,
      "handle": 4850,
      "volun": 4851,
      "étudie": 4852,
      "effray": 4853,
      "rules": 4854,
      "chanceux": 4855,
      "chanceuse": 4856,
      "importante": 4857,
      "Vos": 4858,
      "understanding": 4859,
      "liste": 4860,
      "stranger": 4861,
      "drop": 4862,
      "droits": 4863,
      "license": 4864,
      "stopped": 4865,
      "asseoir": 4866,
      "drinking": 4867,
      "kinds": 4868,
      "difficultés": 4869,
      "commença": 4870,
      "importantes": 4871,
      "keeps": 4872,
      "letters": 4873,
      "scene": 4874,
      "driver": 4875,
      "refuse": 4876,
      "refused": 4877,
      "salt": 4878,
      "policeman": 4879,
      "dente": 4880,
      "Apporte": 4881,
      "Appelle": 4882,
      "miracle": 4883,
      "apprécier": 4884,
      "complex": 4885,
      "battre": 4886,
      "funny": 4887,
      "égal": 4888,
      "passée": 4889,
      "passage": 4890,
      "contrat": 4891,
      "horse": 4892,
      "virus": 4893,
      "maladie": 4894,
      "différence": 4895,
      "runs": 4896,
      "consac": 4897,
      "matters": 4898,
      "rencontrée": 4899,
      "Someone": 4900,
      "cuisiner": 4901,
      "psy": 4902,
      "imaginer": 4903,
      "décider": 4904,
      "décida": 4905,
      "nombreuses": 4906,
      "bouton": 4907,
      "favour": 4908,
      "pictures": 4909,
      "confis": 4910,
      "wonderful": 4911,
      "People": 4912,
      "barbe": 4913,
      "faute": 4914,
      "fault": 4915,
      "voisins": 4916,
      "coût": 4917,
      "feuilles": 4918,
      "foods": 4919,
      "suivant": 4920,
      "fishing": 4921,
      "listening": 4922,
      "Allemagne": 4923,
      "heureusement": 4924,
      "Germany": 4925,
      "symp": 4926,
      "university": 4927,
      "Pensez": 4928,
      "banan": 4929,
      "healthy": 4930,
      "sounds": 4931,
      "flower": 4932,
      "ouverte": 4933,
      "laughed": 4934,
      "months": 4935,
      "failed": 4936,
      "satisfait": 4937,
      "reasons": 4938,
      "selves": 4939,
      "amusant": 4940,
      "washing": 4941,
      "197": 4942,
      "198": 4943,
      "2013": 4944,
      "actuelle": 4945,
      "Americans": 4946,
      "rêve": 4947,
      "désir": 4948,
      "animals": 4949,
      "growing": 4950,
      "devoirs": 4951,
      "prudent": 4952,
      "promises": 4953,
      "earthqu": 4954,
      "club": 4955,
      "rarement": 4956,
      "talent": 4957,
      "archite": 4958,
      "bottle": 4959,
      "construction": 4960,
      "States": 4961,
      "occupe": 4962,
      "imagination": 4963,
      "arrogant": 4964,
      "Améric": 4965,
      "soft": 4966,
      "entends": 4967,
      "lawyer": 4968,
      "accusé": 4969,
      "urgence": 4970,
      "instructions": 4971,
      "réfléchir": 4972,
      "USA": 4973,
      "maman": 4974,
      "pierre": 4975,
      "temper": 4976,
      "statue": 4977,
      "excuses": 4978,
      "guitar": 4979,
      "guitare": 4980,
      "écras": 4981,
      "neighb": 4982,
      "street": 4983,
      "possibilité": 4984,
      "corriger": 4985,
      "cousin": 4986,
      "wedding": 4987,
      "élec": 4988,
      "énergie": 4989,
      "threw": 4990,
      "pratique": 4991,
      "quotidienne": 4992,
      "games": 4993,
      "échec": 4994,
      "éviter": 4995,
      "annul": 4996,
      "several": 4997,
      "sudden": 4998,
      "apologize": 4999,
      "admitted": 5000,
      "exercise": 5001,
      "tombée": 5002,
      "embrasser": 5003,
      "nettoyer": 5004,
      "bicyclette": 5005,
      "Salut": 5006,
      "félic": 5007,
      "lonely": 5008,
      "options": 5009,
      "règles": 5010,
      "velop": 5011,
      "advance": 5012,
      "résultats": 5013,
      "pizza": 5014,
      "promettre": 5015,
      "Espagne": 5016,
      "museum": 5017,
      "pâle": 5018,
      "rhume": 5019,
      "schedule": 5020,
      "tunnel": 5021,
      "remercier": 5022,
      "memory": 5023,
      "trente": 5024,
      "hundred": 5025,
      "physique": 5026,
      "Braz": 5027,
      "Depuis": 5028,
      "Kyoto": 5029,
      "élèves": 5030,
      "leaves": 5031,
      "réjouis": 5032,
      "célèbre": 5033,
      "!!": 5034,
      "Ac": 5035,
      "Ai": 5036,
      "Bar": 5037,
      "Brésil": 5038,
      "Cent": 5039,
      "Col": 5040,
      "Di": 5041,
      "Dur": 5042,
      "Fin": 5043,
      "Ha": 5044,
      "Ho": 5045,
      "Hit": 5046,
      "Hurry": 5047,
      "Jo": 5048,
      "Li": 5049,
      "Life": 5050,
      "MS": 5051,
      "Mag": 5052,
      "Nor": 5053,
      "Pa": 5054,
      "Po": 5055,
      "Père": 5056,
      "Peu": 5057,
      "Plus": 5058,
      "Sor": 5059,
      "Sach": 5060,
      "Ten": 5061,
      "Yu": 5062,
      "Yesterday": 5063,
      "aî": 5064,
      "adi": 5065,
      "alie": 5066,
      "aded": 5067,
      "ahead": 5068,
      "bis": 5069,
      "bare": 5070,
      "bone": 5071,
      "bite": 5072,
      "bby": 5073,
      "bank": 5074,
      "blow": 5075,
      "cab": 5076,
      "ccer": 5077,
      "cule": 5078,
      "cach": 5079,
      "cali": 5080,
      "custom": 5081,
      "dai": 5082,
      "dout": 5083,
      "dry": 5084,
      "dating": 5085,
      "eus": 5086,
      "econom": 5087,
      "evidence": 5088,
      "fair": 5089,
      "faux": 5090,
      "gs": 5091,
      "gon": 5092,
      "gth": 5093,
      "gri": 5094,
      "gal": 5095,
      "gré": 5096,
      "gorge": 5097,
      "hill": 5098,
      "honey": 5099,
      "io": 5100,
      "ié": 5101,
      "ied": 5102,
      "iment": 5103,
      "ized": 5104,
      "ji": 5105,
      "jack": 5106,
      "ky": 5107,
      "mie": 5108,
      "pige": 5109,
      "pneu": 5110,
      "rule": 5111,
      "rank": 5112,
      "sse": 5113,
      "sir": 5114,
      "sions": 5115,
      "spi": 5116,
      "savons": 5117,
      "sys": 5118,
      "scol": 5119,
      "tit": 5120,
      "tles": 5121,
      "tie": 5122,
      "tong": 5123,
      "tail": 5124,
      "vus": 5125,
      "vage": 5126,
      "wi": 5127,
      "whis": 5128,
      "wind": 5129,
      "ying": 5130,
      "»,": 5131,
      "èce": 5132,
      "èvre": 5133,
      "écar": 5134,
      "épuis": 5135,
      "érence": 5136,
      "énie": 5137,
      "éveillé": 5138,
      "étoile": 5139,
      "êche": 5140,
      "îne": 5141,
      "îtr": 5142,
      "œurs": 5143,
      "oul": 5144,
      "reli": 5145,
      "reur": 5146,
      "rerais": 5147,
      "request": 5148,
      "représent": 5149,
      "remettre": 5150,
      "returned": 5151,
      "relig": 5152,
      "retrait": 5153,
      "recommand": 5154,
      "relax": 5155,
      "rejoindre": 5156,
      "ond": 5157,
      "onté": 5158,
      "ened": 5159,
      "enfu": 5160,
      "encourage": 5161,
      "issez": 5162,
      "island": 5163,
      "insul": 5164,
      "heat": 5165,
      "anto": 5166,
      "annon": 5167,
      "ery": 5168,
      "lequel": 5169,
      "itself": 5170,
      "ashed": 5171,
      "dece": 5172,
      "defe": 5173,
      "definite": 5174,
      "omi": 5175,
      "ature": 5176,
      "qués": 5177,
      "quences": 5178,
      "ardé": 5179,
      "arms": 5180,
      "arrested": 5181,
      "toire": 5182,
      "toward": 5183,
      "total": 5184,
      "neuf": 5185,
      "oré": 5186,
      "orable": 5187,
      "orité": 5188,
      "oranges": 5189,
      "theater": 5190,
      "seven": 5191,
      "secr": 5192,
      "search": 5193,
      "tered": 5194,
      "mez": 5195,
      "entière": 5196,
      "thick": 5197,
      "lave": 5198,
      "llent": 5199,
      "ceremon": 5200,
      "ests": 5201,
      "ingénie": 5202,
      "quelles": 5203,
      "autu": 5204,
      "tron": 5205,
      "tray": 5206,
      "liber": 5207,
      "usion": 5208,
      "riz": 5209,
      "bell": 5210,
      "behave": 5211,
      "beef": 5212,
      "rob": 5213,
      "rose": 5214,
      "anti": 5215,
      "aly": 5216,
      "alent": 5217,
      "dia": 5218,
      "diam": 5219,
      "dirige": 5220,
      "dos": 5221,
      "doors": 5222,
      "peace": 5223,
      "avi": 5224,
      "avate": 5225,
      "amaz": 5226,
      "ambul": 5227,
      "state": 5228,
      "treat": 5229,
      "tremble": 5230,
      "edu": 5231,
      "mentir": 5232,
      "mention": 5233,
      "apart": 5234,
      "apporter": 5235,
      "mos": 5236,
      "mood": 5237,
      "acun": 5238,
      "accro": 5239,
      "acide": 5240,
      "active": 5241,
      "loge": 5242,
      "parla": 5243,
      "parie": 5244,
      "parfait": 5245,
      "agres": 5246,
      "ague": 5247,
      "forte": 5248,
      "forgive": 5249,
      "rentr": 5250,
      "étang": 5251,
      "confir": 5252,
      "congrat": 5253,
      "admir": 5254,
      "advant": 5255,
      "advert": 5256,
      "addition": 5257,
      "god": 5258,
      "abri": 5259,
      "prouve": 5260,
      "poe": 5261,
      "poche": 5262,
      "posez": 5263,
      "poème": 5264,
      "terme": 5265,
      "terie": 5266,
      "voit": 5267,
      "volé": 5268,
      "voleur": 5269,
      "voilà": 5270,
      "décédé": 5271,
      "weir": 5272,
      "wears": 5273,
      "weigh": 5274,
      "hole": 5275,
      "sian": 5276,
      "sienne": 5277,
      "soix": 5278,
      "social": 5279,
      "soyons": 5280,
      "soccer": 5281,
      "donnez": 5282,
      "pourriez": 5283,
      "cow": 5284,
      "cochon": 5285,
      "desk": 5286,
      "desp": 5287,
      "descri": 5288,
      "tier": 5289,
      "aired": 5290,
      "canapé": 5291,
      "frais": 5292,
      "frap": 5293,
      "frapp": 5294,
      "bow": 5295,
      "monie": 5296,
      "cigare": 5297,
      "lure": 5298,
      "Itali": 5299,
      "Italie": 5300,
      "Italy": 5301,
      "exig": 5302,
      "exemp": 5303,
      "cheese": 5304,
      "manqu": 5305,
      "peranto": 5306,
      "répar": 5307,
      "rédu": 5308,
      "réaliser": 5309,
      "hered": 5310,
      "pleur": 5311,
      "couleur": 5312,
      "vendu": 5313,
      "vented": 5314,
      "moire": 5315,
      "bleu": 5316,
      "plait": 5317,
      "foi": 5318,
      "folle": 5319,
      "niveau": 5320,
      "agement": 5321,
      "dise": 5322,
      "disting": 5323,
      "owes": 5324,
      "shi": 5325,
      "upon": 5326,
      "vious": 5327,
      "Ceux": 5328,
      "Dois": 5329,
      "arrivent": 5330,
      "icial": 5331,
      "ablement": 5332,
      "merci": 5333,
      "lég": 5334,
      "prévenu": 5335,
      "irez": 5336,
      "indus": 5337,
      "march": 5338,
      "marteau": 5339,
      "saisir": 5340,
      "aka": 5341,
      "button": 5342,
      "willing": 5343,
      "nerveux": 5344,
      "crue": 5345,
      "crise": 5346,
      "cravate": 5347,
      "breath": 5348,
      "touché": 5349,
      "Quoi": 5350,
      "beauté": 5351,
      "caract": 5352,
      "Never": 5353,
      "méd": 5354,
      "métro": 5355,
      "laissez": 5356,
      "tells": 5357,
      "vraient": 5358,
      "voulu": 5359,
      "voudrait": 5360,
      "coupé": 5361,
      "mises": 5362,
      "goods": 5363,
      "huge": 5364,
      "humain": 5365,
      "humil": 5366,
      "phon": 5367,
      "longue": 5368,
      "longues": 5369,
      "riel": 5370,
      "matière": 5371,
      "visions": 5372,
      "guil": 5373,
      "guli": 5374,
      "guard": 5375,
      "guide": 5376,
      "guests": 5377,
      "spell": 5378,
      "spect": 5379,
      "ounce": 5380,
      "corde": 5381,
      "finan": 5382,
      "finir": 5383,
      "croient": 5384,
      "pression": 5385,
      "vaisse": 5386,
      "trouvent": 5387,
      "troubles": 5388,
      "bug": 5389,
      "helps": 5390,
      "vaches": 5391,
      "futur": 5392,
      "sheep": 5393,
      "restée": 5394,
      "aft": 5395,
      "gotten": 5396,
      "cherches": 5397,
      "gentilles": 5398,
      "peuple": 5399,
      "compter": 5400,
      "euro": 5401,
      "paying": 5402,
      "austed": 5403,
      "petits": 5404,
      "trice": 5405,
      "causé": 5406,
      "ached": 5407,
      "puzz": 5408,
      "Only": 5409,
      "grands": 5410,
      "clever": 5411,
      "players": 5412,
      "friendly": 5413,
      "Union": 5414,
      "tors": 5415,
      "tort": 5416,
      "ralement": 5417,
      "offre": 5418,
      "forever": 5419,
      "famil": 5420,
      "vienne": 5421,
      "enseigner": 5422,
      "trape": 5423,
      "privé": 5424,
      "occur": 5425,
      "pond": 5426,
      "create": 5427,
      "belief": 5428,
      "Quelque": 5429,
      "attendu": 5430,
      "happens": 5431,
      "clou": 5432,
      "clair": 5433,
      "clairement": 5434,
      "promesses": 5435,
      "grew": 5436,
      "boring": 5437,
      "standing": 5438,
      "calm": 5439,
      "firm": 5440,
      "giving": 5441,
      "believed": 5442,
      "crimin": 5443,
      "seuls": 5444,
      "sortie": 5445,
      "Quiconque": 5446,
      "musical": 5447,
      "waited": 5448,
      "dorm": 5449,
      "semblez": 5450,
      "connaisse": 5451,
      "connaissait": 5452,
      "assist": 5453,
      "volont": 5454,
      "volonté": 5455,
      "profit": 5456,
      "idées": 5457,
      "rumeur": 5458,
      "athy": 5459,
      "aurai": 5460,
      "sleepy": 5461,
      "geni": 5462,
      "interdit": 5463,
      "interrom": 5464,
      "soirée": 5465,
      "ressources": 5466,
      "rains": 5467,
      "aliments": 5468,
      "douleur": 5469,
      "stric": 5470,
      "captain": 5471,
      "smaller": 5472,
      "chaleur": 5473,
      "lication": 5474,
      "stopping": 5475,
      "occupés": 5476,
      "tourner": 5477,
      "drinks": 5478,
      "kindness": 5479,
      "regular": 5480,
      "cieuse": 5481,
      "difficulty": 5482,
      "adoles": 5483,
      "calling": 5484,
      "walks": 5485,
      "Read": 5486,
      "froide": 5487,
      "vérit": 5488,
      "lettres": 5489,
      "Devine": 5490,
      "sensitive": 5491,
      "younger": 5492,
      "changes": 5493,
      "changing": 5494,
      "tableau": 5495,
      "mensonge": 5496,
      "conduis": 5497,
      "conduit": 5498,
      "mariés": 5499,
      "pièces": 5500,
      "Esperanto": 5501,
      "salaire": 5502,
      "correcte": 5503,
      "deny": 5504,
      "conseillé": 5505,
      "Soleil": 5506,
      "casser": 5507,
      "during": 5508,
      "papa": 5509,
      "falling": 5510,
      "judge": 5511,
      "réellement": 5512,
      "épais": 5513,
      "contract": 5514,
      "populaire": 5515,
      "populaires": 5516,
      "virgin": 5517,
      "quitté": 5518,
      "répondu": 5519,
      "opinions": 5520,
      "oublier": 5521,
      "proposal": 5522,
      "rencontrés": 5523,
      "brothers": 5524,
      "foule": 5525,
      "decide": 5526,
      "danced": 5527,
      "chaude": 5528,
      "ligne": 5529,
      "sente": 5530,
      "sensible": 5531,
      "poster": 5532,
      "coûts": 5533,
      "harder": 5534,
      "headache": 5535,
      "seconde": 5536,
      "suivi": 5537,
      "Voudriez": 5538,
      "bird": 5539,
      "cinema": 5540,
      "itiz": 5541,
      "listened": 5542,
      "highly": 5543,
      "fired": 5544,
      "héros": 5545,
      "suffit": 5546,
      "contact": 5547,
      "climat": 5548,
      "subject": 5549,
      "taxes": 5550,
      "sentiment": 5551,
      "objective": 5552,
      "objectif": 5553,
      "dirai": 5554,
      "dirait": 5555,
      "fluent": 5556,
      "ordinaire": 5557,
      "constitu": 5558,
      "followed": 5559,
      "Consi": 5560,
      "Disposez": 5561,
      "bandes": 5562,
      "crédit": 5563,
      "faible": 5564,
      "ranto": 5565,
      "amuser": 5566,
      "plaisante": 5567,
      "indiquer": 5568,
      "Alger": 5569,
      "nationale": 5570,
      "elected": 5571,
      "envoyer": 5572,
      "autorité": 5573,
      "prêts": 5574,
      "promised": 5575,
      "scientific": 5576,
      "rarely": 5577,
      "relation": 5578,
      "invités": 5579,
      "stylo": 5580,
      "concentrer": 5581,
      "exception": 5582,
      "Bring": 5583,
      "Stay": 5584,
      "censé": 5585,
      "soldats": 5586,
      "génération": 5587,
      "traduire": 5588,
      "oiseau": 5589,
      "oiseaux": 5590,
      "slipped": 5591,
      "sofa": 5592,
      "souten": 5593,
      "soutien": 5594,
      "entered": 5595,
      "environnement": 5596,
      "succeed": 5597,
      "above": 5598,
      "absolument": 5599,
      "souhaite": 5600,
      "fonctionne": 5601,
      "réfléchi": 5602,
      "mignonne": 5603,
      "pushed": 5604,
      "respecter": 5605,
      "automob": 5606,
      "invention": 5607,
      "generation": 5608,
      "abandonner": 5609,
      "baseball": 5610,
      "espéranto": 5611,
      "suicidé": 5612,
      "welcome": 5613,
      "deserve": 5614,
      "chocolat": 5615,
      "chocolate": 5616,
      "salad": 5617,
      "salade": 5618,
      "brûlé": 5619,
      "signific": 5620,
      "signifie": 5621,
      "diplomat": 5622,
      "augmenté": 5623,
      "Without": 5624,
      "candy": 5625,
      "hanging": 5626,
      "nonsense": 5627,
      "saved": 5628,
      "reconnaissante": 5629,
      "alternative": 5630,
      "improve": 5631,
      "practic": 5632,
      "pockets": 5633,
      "dishes": 5634,
      "traverser": 5635,
      "silencieux": 5636,
      "hammer": 5637,
      "hiding": 5638,
      "ouvrit": 5639,
      "escape": 5640,
      "determined": 5641,
      "chinois": 5642,
      "ridicul": 5643,
      "ambition": 5644,
      "opportunity": 5645,
      "capitaine": 5646,
      "campagne": 5647,
      "smells": 5648,
      "Malheureusement": 5649,
      "Sometimes": 5650,
      "equal": 5651,
      "hâte": 5652,
      "smile": 5653,
      "énorme": 5654,
      "remède": 5655,
      "delicious": 5656,
      "totalement": 5657,
      "avocat": 5658,
      "appointment": 5659,
      "terribly": 5660,
      "détruit": 5661,
      "protect": 5662,
      "médicam": 5663,
      "physical": 5664,
      "Montrez": 5665,
      "soldiers": 5666,
      "écureuils": 5667,
      "British": 5668,
      "absolutely": 5669,
      "recognize": 5670,
      "Langu": 5671,
      "Prices": 5672,
      "average": 5673,
      "finger": 5674,
      "piggy": 5675,
      "techno": 5676,
      "challen": 5677,
      "beurre": 5678,
      "irrels": 5679,
      "control": 5680,
      "convinced": 5681,
      "polite": 5682,
      "exhausted": 5683,
      "excited": 5684,
      "happiness": 5685,
      "mathématiques": 5686,
      "favourite": 5687,
      "sympath": 5688,
      "earthquake": 5689,
      "neighbors": 5690,
      "Brazil": 5691,
      "pigeons": 5692,
      "system": 5693,
      "autumn": 5694,
      "congratul": 5695,
      "soixante": 5696,
      ").": 5697,
      "14": 5698,
      "18": 5699,
      "40": 5700,
      "Aide": 5701,
      "Afri": 5702,
      "Atom": 5703,
      "Alors": 5704,
      "Aime": 5705,
      "Ber": 5706,
      "Bir": 5707,
      "Beau": 5708,
      "Cre": 5709,
      "Che": 5710,
      "Cap": 5711,
      "Cho": 5712,
      "Cher": 5713,
      "Cow": 5714,
      "Cont": 5715,
      "Cong": 5716,
      "Eif": 5717,
      "Fo": 5718,
      "Fer": 5719,
      "Father": 5720,
      "Gir": 5721,
      "Hon": 5722,
      "Hen": 5723,
      "Has": 5724,
      "Har": 5725,
      "Ito": 5726,
      "Jav": 5727,
      "Jones": 5728,
      "Ken": 5729,
      "King": 5730,
      "Last": 5731,
      "Mat": 5732,
      "Mil": 5733,
      "Mus": 5734,
      "Mac": 5735,
      "Money": 5736,
      "Menn": 5737,
      "Na": 5738,
      "Nap": 5739,
      "None": 5740,
      "Nouve": 5741,
      "Ob": 5742,
      "Osa": 5743,
      "Pu": 5744,
      "Py": 5745,
      "Passe": 5746,
      "Peter": 5747,
      "RI": 5748,
      "Ro": 5749,
      "Res": 5750,
      "Run": 5751,
      "Rep": 5752,
      "Roy": 5753,
      "Ste": 5754,
      "Sais": 5755,
      "Smo": 5756,
      "Sur": 5757,
      "Sel": 5758,
      "SMS": 5759,
      "Tro": 5760,
      "Vas": 5761,
      "Yok": 5762,
      "abe": 5763,
      "aped": 5764,
      "alax": 5765,
      "aéro": 5766,
      "bid": 5767,
      "bound": 5768,
      "bale": 5769,
      "bath": 5770,
      "bœuf": 5771,
      "cles": 5772,
      "cté": 5773,
      "ctor": 5774,
      "cast": 5775,
      "cacher": 5776,
      "carrière": 5777,
      "cassée": 5778,
      "citiz": 5779,
      "dut": 5780,
      "dès": 5781,
      "dors": 5782,
      "drow": 5783,
      "emer": 5784,
      "eply": 5785,
      "evolution": 5786,
      "evil": 5787,
      "fû": 5788,
      "fis": 5789,
      "fous": 5790,
      "fres": 5791,
      "fend": 5792,
      "fid": 5793,
      "fleur": 5794,
      "fallait": 5795,
      "flies": 5796,
      "gest": 5797,
      "gay": 5798,
      "gout": 5799,
      "gain": 5800,
      "gif": 5801,
      "han": 5802,
      "hous": 5803,
      "hall": 5804,
      "hig": 5805,
      "hés": 5806,
      "ior": 5807,
      "iée": 5808,
      "ivre": 5809,
      "jal": 5810,
      "jok": 5811,
      "jure": 5812,
      "jury": 5813,
      "kin": 5814,
      "kara": 5815,
      "laid": 5816,
      "lâche": 5817,
      "mè": 5818,
      "mun": 5819,
      "mét": 5820,
      "mul": 5821,
      "mouve": 5822,
      "mété": 5823,
      "nav": 5824,
      "nam": 5825,
      "nuts": 5826,
      "ote": 5827,
      "oil": 5828,
      "olé": 5829,
      "océ": 5830,
      "pant": 5831,
      "pure": 5832,
      "pants": 5833,
      "puni": 5834,
      "pacif": 5835,
      "rant": 5836,
      "rag": 5837,
      "rab": 5838,
      "rage": 5839,
      "rise": 5840,
      "rough": 5841,
      "spre": 5842,
      "scr": 5843,
      "spat": 5844,
      "siez": 5845,
      "sAp": 5846,
      "sœurs": 5847,
      "tis": 5848,
      "tan": 5849,
      "tap": 5850,
      "twent": 5851,
      "uer": 5852,
      "ual": 5853,
      "ually": 5854,
      "uko": 5855,
      "vest": 5856,
      "vint": 5857,
      "villes": 5858,
      "vague": 5859,
      "wit": 5860,
      "wide": 5861,
      "wild": 5862,
      "xim": 5863,
      "yen": 5864,
      "yait": 5865,
      "zone": 5866,
      "âme": 5867,
      "âché": 5868,
      "ève": 5869,
      "ér": 5870,
      "égo": 5871,
      "épo": 5872,
      "édu": 5873,
      "énom": 5874,
      "échap": 5875,
      "île": 5876,
      "îmes": 5877,
      "ôme": 5878,
      "œu": 5879,
      "outr": 5880,
      "requ": 5881,
      "repe": 5882,
      "repro": 5883,
      "rely": 5884,
      "rect": 5885,
      "remar": 5886,
      "relie": 5887,
      "repos": 5888,
      "reconn": 5889,
      "removed": 5890,
      "reached": 5891,
      "esome": 5892,
      "escali": 5893,
      "onz": 5894,
      "ondé": 5895,
      "onné": 5896,
      "eny": 5897,
      "enfin": 5898,
      "envers": 5899,
      "envisage": 5900,
      "ises": 5901,
      "isse": 5902,
      "indé": 5903,
      "insec": 5904,
      "invin": 5905,
      "incen": 5906,
      "insurance": 5907,
      "hemat": 5908,
      "andi": 5909,
      "ancé": 5910,
      "ero": 5911,
      "lete": 5912,
      "lead": 5913,
      "ities": 5914,
      "assi": 5915,
      "asser": 5916,
      "assé": 5917,
      "assurance": 5918,
      "dear": 5919,
      "depar": 5920,
      "dedans": 5921,
      "debout": 5922,
      "devenus": 5923,
      "devraient": 5924,
      "deeply": 5925,
      "atin": 5926,
      "atom": 5927,
      "atif": 5928,
      "araig": 5929,
      "toit": 5930,
      "nelle": 5931,
      "nellement": 5932,
      "ordre": 5933,
      "ordres": 5934,
      "ordered": 5935,
      "seas": 5936,
      "secours": 5937,
      "ailles": 5938,
      "teurs": 5939,
      "mecs": 5940,
      "entr": 5941,
      "entier": 5942,
      "though": 5943,
      "thief": 5944,
      "cean": 5945,
      "celles": 5946,
      "queue": 5947,
      "passion": 5948,
      "châ": 5949,
      "chic": 5950,
      "chons": 5951,
      "chaise": 5952,
      "aught": 5953,
      "auté": 5954,
      "auteur": 5955,
      "trus": 5956,
      "triste": 5957,
      "unless": 5958,
      "aisé": 5959,
      "Tomorrow": 5960,
      "ource": 5961,
      "nose": 5962,
      "noise": 5963,
      "nobody": 5964,
      "noyé": 5965,
      "lif": 5966,
      "lide": 5967,
      "lied": 5968,
      "libat": 5969,
      "belong": 5970,
      "becoming": 5971,
      "beating": 5972,
      "betray": 5973,
      "roy": 5974,
      "robot": 5975,
      "antes": 5976,
      "alo": 5977,
      "als": 5978,
      "alous": 5979,
      "alco": 5980,
      "diet": 5981,
      "diable": 5982,
      "divers": 5983,
      "docu": 5984,
      "pean": 5985,
      "peint": 5986,
      "verte": 5987,
      "verrou": 5988,
      "avions": 5989,
      "amen": 5990,
      "among": 5991,
      "amical": 5992,
      "stan": 5993,
      "stren": 5994,
      "stème": 5995,
      "andra": 5996,
      "tremb": 5997,
      "ayant": 5998,
      "eds": 5999,
      "menti": 6000,
      "mocr": 6001,
      "accompli": 6002,
      "losing": 6003,
      "locked": 6004,
      "pars": 6005,
      "parmi": 6006,
      "parole": 6007,
      "agi": 6008,
      "agon": 6009,
      "agawa": 6010,
      "forcer": 6011,
      "forêt": 6012,
      "comic": 6013,
      "compos": 6014,
      "lesquelles": 6015,
      "impatience": 6016,
      "étit": 6017,
      "étab": 6018,
      "étaire": 6019,
      "congé": 6020,
      "conclu": 6021,
      "confection": 6022,
      "add": 6023,
      "adu": 6024,
      "ieur": 6025,
      "icer": 6026,
      "iciles": 6027,
      "jeans": 6028,
      "jetez": 6029,
      "jealous": 6030,
      "hates": 6031,
      "abat": 6032,
      "abet": 6033,
      "absor": 6034,
      "abstr": 6035,
      "abord": 6036,
      "prou": 6037,
      "poet": 6038,
      "poète": 6039,
      "poem": 6040,
      "term": 6041,
      "tery": 6042,
      "terms": 6043,
      "termine": 6044,
      "vote": 6045,
      "voice": 6046,
      "voix": 6047,
      "washed": 6048,
      "déte": 6049,
      "démé": 6050,
      "dépêcher": 6051,
      "Helen": 6052,
      "wealth": 6053,
      "hol": 6054,
      "hobby": 6055,
      "YouTu": 6056,
      "sole": 6057,
      "solid": 6058,
      "donn": 6059,
      "donnent": 6060,
      "pourvu": 6061,
      "cot": 6062,
      "cope": 6063,
      "cover": 6064,
      "coward": 6065,
      "desire": 6066,
      "descen": 6067,
      "descend": 6068,
      "notice": 6069,
      "pensent": 6070,
      "tian": 6071,
      "ienne": 6072,
      "fel": 6073,
      "feed": 6074,
      "ference": 6075,
      "illard": 6076,
      "illness": 6077,
      "progres": 6078,
      "program": 6079,
      "lying": 6080,
      "lycée": 6081,
      "fran": 6082,
      "male": 6083,
      "board": 6084,
      "mondi": 6085,
      "cies": 6086,
      "cially": 6087,
      "oko": 6088,
      "tente": 6089,
      "tenait": 6090,
      "tendance": 6091,
      "extr": 6092,
      "extra": 6093,
      "expri": 6094,
      "exchange": 6095,
      "exerci": 6096,
      "knowled": 6097,
      "mani": 6098,
      "manded": 6099,
      "manqué": 6100,
      "perd": 6101,
      "perspe": 6102,
      "permet": 6103,
      "permit": 6104,
      "permettre": 6105,
      "server": 6106,
      "sermon": 6107,
      "servic": 6108,
      "récol": 6109,
      "résolu": 6110,
      "réalité": 6111,
      "uler": 6112,
      "chosen": 6113,
      "pleine": 6114,
      "surface": 6115,
      "faits": 6116,
      "couper": 6117,
      "couteaux": 6118,
      "mess": 6119,
      "Mars": 6120,
      "Maria": 6121,
      "venons": 6122,
      "veniez": 6123,
      "ténu": 6124,
      "folie": 6125,
      "Lequel": 6126,
      "nier": 6127,
      "nique": 6128,
      "usting": 6129,
      "êtres": 6130,
      "discount": 6131,
      "séché": 6132,
      "WhatsAp": 6133,
      "ineers": 6134,
      "odd": 6135,
      "endom": 6136,
      "oire": 6137,
      "vra": 6138,
      "arrivait": 6139,
      "whale": 6140,
      "léger": 6141,
      "prévu": 6142,
      "préoccup": 6143,
      "précis": 6144,
      "prévoyez": 6145,
      "grandi": 6146,
      "partis": 6147,
      "partager": 6148,
      "particul": 6149,
      "hadn": 6150,
      "marron": 6151,
      "trole": 6152,
      "White": 6153,
      "While": 6154,
      "aki": 6155,
      "ako": 6156,
      "akes": 6157,
      "prennent": 6158,
      "prendra": 6159,
      "prendrai": 6160,
      "preg": 6161,
      "prenez": 6162,
      "cray": 6163,
      "crain": 6164,
      "craig": 6165,
      "crush": 6166,
      "ification": 6167,
      "Quelles": 6168,
      "wered": 6169,
      "soud": 6170,
      "soup": 6171,
      "soula": 6172,
      "soucier": 6173,
      "mémoire": 6174,
      "viez": 6175,
      "available": 6176,
      "vouliez": 6177,
      "coupable": 6178,
      "lettes": 6179,
      "humor": 6180,
      "phie": 6181,
      "pharm": 6182,
      "phénom": 6183,
      "airport": 6184,
      "portent": 6185,
      "directeur": 6186,
      "inspir": 6187,
      "pique": 6188,
      "mature": 6189,
      "matins": 6190,
      "matique": 6191,
      "mathemat": 6192,
      "obligé": 6193,
      "everywhere": 6194,
      "guim": 6195,
      "morgue": 6196,
      "raised": 6197,
      "sombre": 6198,
      "vrez": 6199,
      "ounded": 6200,
      "couramment": 6201,
      "els": 6202,
      "aimed": 6203,
      "aimez": 6204,
      "presse": 6205,
      "pressure": 6206,
      "prises": 6207,
      "stuff": 6208,
      "trouvait": 6209,
      "devait": 6210,
      "devien": 6211,
      "valid": 6212,
      "appelez": 6213,
      "appeller": 6214,
      "paresse": 6215,
      "fié": 6216,
      "file": 6217,
      "fiable": 6218,
      "shelf": 6219,
      "stories": 6220,
      "selfish": 6221,
      "afford": 6222,
      "difficiles": 6223,
      "brun": 6224,
      "bruit": 6225,
      "ideas": 6226,
      "rights": 6227,
      "blind": 6228,
      "blonde": 6229,
      "heureuses": 6230,
      "intim": 6231,
      "péné": 6232,
      "péenne": 6233,
      "committed": 6234,
      "Invite": 6235,
      "India": 6236,
      "personal": 6237,
      "tombe": 6238,
      "deuxième": 6239,
      "mettr": 6240,
      "Canadi": 6241,
      "puissance": 6242,
      "eats": 6243,
      "jouent": 6244,
      "foreign": 6245,
      "arrête": 6246,
      "bio": 6247,
      "biolog": 6248,
      "génie": 6249,
      "enseigne": 6250,
      "supporter": 6251,
      "tenté": 6252,
      "tention": 6253,
      "travaillais": 6254,
      "priv": 6255,
      "planning": 6256,
      "rooms": 6257,
      "aled": 6258,
      "Chine": 6259,
      "China": 6260,
      "célibat": 6261,
      "cream": 6262,
      "created": 6263,
      "believes": 6264,
      "aimerait": 6265,
      "entretenir": 6266,
      "promen": 6267,
      "promets": 6268,
      "green": 6269,
      "bord": 6270,
      "bordel": 6271,
      "factory": 6272,
      "solaire": 6273,
      "solved": 6274,
      "curie": 6275,
      "empty": 6276,
      "empêché": 6277,
      "rencontres": 6278,
      "Parler": 6279,
      "calcul": 6280,
      "earli": 6281,
      "giant": 6282,
      "étude": 6283,
      "faisais": 6284,
      "musician": 6285,
      "magni": 6286,
      "essaya": 6287,
      "paint": 6288,
      "connaissais": 6289,
      "connaissance": 6290,
      "roscope": 6291,
      "volant": 6292,
      "profonde": 6293,
      "étudiante": 6294,
      "joli": 6295,
      "joie": 6296,
      "joys": 6297,
      "effort": 6298,
      "effect": 6299,
      "ruin": 6300,
      "rumor": 6301,
      "ruined": 6302,
      "gency": 6303,
      "genoux": 6304,
      "internet": 6305,
      "interrup": 6306,
      "ankly": 6307,
      "venues": 6308,
      "ignit": 6309,
      "troisième": 6310,
      "raine": 6311,
      "Vois": 6312,
      "Voilà": 6313,
      "alibi": 6314,
      "doué": 6315,
      "doute": 6316,
      "chambres": 6317,
      "staying": 6318,
      "capital": 6319,
      "blesser": 6320,
      "blessée": 6321,
      "touristes": 6322,
      "charged": 6323,
      "character": 6324,
      "winning": 6325,
      "regis": 6326,
      "awesome": 6327,
      "opening": 6328,
      "produits": 6329,
      "préfères": 6330,
      "critique": 6331,
      "aimée": 6332,
      "Mayuko": 6333,
      "walking": 6334,
      "Allons": 6335,
      "Remember": 6336,
      "badly": 6337,
      "atoes": 6338,
      "keeping": 6339,
      "trouveras": 6340,
      "Demain": 6341,
      "sciences": 6342,
      "showed": 6343,
      "refle": 6344,
      "perdue": 6345,
      "mener": 6346,
      "Essay": 6347,
      "films": 6348,
      "ski": 6349,
      "skip": 6350,
      "skirt": 6351,
      "sauver": 6352,
      "salon": 6353,
      "examin": 6354,
      "bigger": 6355,
      "culation": 6356,
      "cultures": 6357,
      "denied": 6358,
      "habitué": 6359,
      "habituer": 6360,
      "Appe": 6361,
      "durant": 6362,
      "appréci": 6363,
      "motion": 6364,
      "complet": 6365,
      "camion": 6366,
      "fallen": 6367,
      "risk": 6368,
      "risque": 6369,
      "risques": 6370,
      "suspic": 6371,
      "passport": 6372,
      "password": 6373,
      "contrar": 6374,
      "contrôle": 6375,
      "horri": 6376,
      "horreur": 6377,
      "lights": 6378,
      "according": 6379,
      "réponds": 6380,
      "différents": 6381,
      "mauvaises": 6382,
      "conscient": 6383,
      "princess": 6384,
      "princesse": 6385,
      "données": 6386,
      "utilisé": 6387,
      "Atten": 6388,
      "Attention": 6389,
      "sisters": 6390,
      "publique": 6391,
      "curtain": 6392,
      "picnic": 6393,
      "passeport": 6394,
      "conférence": 6395,
      "sixty": 6396,
      "wondering": 6397,
      "employ": 6398,
      "intelligence": 6399,
      "intelligente": 6400,
      "Seen": 6401,
      "Seul": 6402,
      "lignes": 6403,
      "Arab": 6404,
      "fautes": 6405,
      "postale": 6406,
      "postcard": 6407,
      "coûter": 6408,
      "coûté": 6409,
      "préférerais": 6410,
      "ohama": 6411,
      "step": 6412,
      "spot": 6413,
      "traité": 6414,
      "traiter": 6415,
      "concern": 6416,
      "concerned": 6417,
      "mangent": 6418,
      "sunny": 6419,
      "sacrific": 6420,
      "burned": 6421,
      "système": 6422,
      "souri": 6423,
      "sourire": 6424,
      "tradition": 6425,
      "alisé": 6426,
      "appétit": 6427,
      "supposés": 6428,
      "fatiguée": 6429,
      "favorable": 6430,
      "banque": 6431,
      "object": 6432,
      "attendais": 6433,
      "musicien": 6434,
      "circonst": 6435,
      "circulation": 6436,
      "dira": 6437,
      "situe": 6438,
      "sitting": 6439,
      "attacked": 6440,
      "attitude": 6441,
      "pleasant": 6442,
      "pleasure": 6443,
      "clearly": 6444,
      "correctly": 6445,
      "daughters": 6446,
      "citoy": 6447,
      "failure": 6448,
      "gueule": 6449,
      "nearly": 6450,
      "semblait": 6451,
      "semblant": 6452,
      "chanteur": 6453,
      "chanteuse": 6454,
      "impact": 6455,
      "sérieusement": 6456,
      "closely": 6457,
      "sûrement": 6458,
      "European": 6459,
      "Good": 6460,
      "lentement": 6461,
      "mouth": 6462,
      "mouchoir": 6463,
      "forgotten": 6464,
      "American": 6465,
      "punished": 6466,
      "chansons": 6467,
      "points": 6468,
      "political": 6469,
      "naturel": 6470,
      "étrangers": 6471,
      "naissance": 6472,
      "teaching": 6473,
      "autoris": 6474,
      "traveling": 6475,
      "allows": 6476,
      "prudente": 6477,
      "shorter": 6478,
      "group": 6479,
      "scientifiques": 6480,
      "Most": 6481,
      "Tony": 6482,
      "related": 6483,
      "invitées": 6484,
      "chausset": 6485,
      "rideau": 6486,
      "apprend": 6487,
      "apprentis": 6488,
      "moyenne": 6489,
      "concentrate": 6490,
      "songs": 6491,
      "terriblement": 6492,
      "society": 6493,
      "bottles": 6494,
      "choisi": 6495,
      "explosion": 6496,
      "construit": 6497,
      "domaine": 6498,
      "ennuyeux": 6499,
      "enjoyed": 6500,
      "chouette": 6501,
      "igners": 6502,
      "général": 6503,
      "généralement": 6504,
      "magazines": 6505,
      "traduction": 6506,
      "traductions": 6507,
      "arrogance": 6508,
      "million": 6509,
      "milliers": 6510,
      "slip": 6511,
      "slowly": 6512,
      "veuilles": 6513,
      "contributor": 6514,
      "contributeur": 6515,
      "aboie": 6516,
      "ignorance": 6517,
      "Débarr": 6518,
      "USB": 6519,
      "mignons": 6520,
      "squirrels": 6521,
      "ability": 6522,
      "disposes": 6523,
      "thanks": 6524,
      "fucking": 6525,
      "Regardez": 6526,
      "certainement": 6527,
      "acceptable": 6528,
      "knives": 6529,
      "operation": 6530,
      "packed": 6531,
      "assume": 6532,
      "neighbor": 6533,
      "selling": 6534,
      "suggère": 6535,
      "potatoes": 6536,
      "possibility": 6537,
      "différente": 6538,
      "différences": 6539,
      "raconter": 6540,
      "raconté": 6541,
      "introduce": 6542,
      "introduced": 6543,
      "150": 6544,
      "Turn": 6545,
      "opération": 6546,
      "éclata": 6547,
      "increased": 6548,
      "omenon": 6549,
      "threat": 6550,
      "suicide": 6551,
      "peinture": 6552,
      "prati": 6553,
      "déclar": 6554,
      "siège": 6555,
      "properly": 6556,
      "perfectly": 6557,
      "répand": 6558,
      "prononcer": 6559,
      "quotidien": 6560,
      "continuer": 6561,
      "kilom": 6562,
      "repair": 6563,
      "repaired": 6564,
      "atteint": 6565,
      "atteindre": 6566,
      "texte": 6567,
      "authority": 6568,
      "activité": 6569,
      "comportement": 6570,
      "complaining": 6571,
      "pocket": 6572,
      "fronti": 6573,
      "couverture": 6574,
      "endormi": 6575,
      "mérite": 6576,
      "génial": 6577,
      "skinny": 6578,
      "emprunter": 6579,
      "impliqué": 6580,
      "professional": 6581,
      "professionnel": 6582,
      "Few": 6583,
      "Grand": 6584,
      "London": 6585,
      "Londres": 6586,
      "Mike": 6587,
      "Promise": 6588,
      "Promettez": 6589,
      "Speaking": 6590,
      "benef": 6591,
      "billet": 6592,
      "billets": 6593,
      "russe": 6594,
      "rappelles": 6595,
      "sports": 6596,
      "rempli": 6597,
      "intended": 6598,
      "pollution": 6599,
      "holiday": 6600,
      "crossed": 6601,
      "crossing": 6602,
      "appearance": 6603,
      "ponctuel": 6604,
      "Christop": 6605,
      "doubts": 6606,
      "survivors": 6607,
      "survivants": 6608,
      "environment": 6609,
      "Jouons": 6610,
      "President": 6611,
      "Russian": 6612,
      "fantômes": 6613,
      "gasp": 6614,
      "mêmes": 6615,
      "middle": 6616,
      "obey": 6617,
      "spécial": 6618,
      "ugly": 6619,
      "économie": 6620,
      "vegetables": 6621,
      "légumes": 6622,
      "crisis": 6623,
      "souffle": 6624,
      "possède": 6625,
      "philosophie": 6626,
      "objets": 6627,
      "appelée": 6628,
      "translations": 6629,
      "brillante": 6630,
      "symbol": 6631,
      "Break": 6632,
      "Guess": 6633,
      "Green": 6634,
      "Tanaka": 6635,
      "gathered": 6636,
      "ghosts": 6637,
      "microscope": 6638,
      "nôtre": 6639,
      "especially": 6640,
      "anchement": 6641,
      "quinze": 6642,
      "meubles": 6643,
      "alphabet": 6644,
      "parfaitement": 6645,
      "aggressive": 6646,
      "conclusions": 6647,
      "website": 6648,
      "dessinées": 6649,
      "protéger": 6650,
      "fréquent": 6651,
      "phenomenon": 6652,
      "crowd": 6653,
      "Charles": 6654,
      "barbecue": 6655,
      "Américains": 6656,
      "temperature": 6657,
      "veloppé": 6658,
      "advanced": 6659,
      "Yuk": 6660,
      "biscu": 6661,
      "daily": 6662,
      "economy": 6663,
      "gonna": 6664,
      "spider": 6665,
      "tongue": 6666,
      "religion": 6667,
      "ceremony": 6668,
      "ingénieurs": 6669,
      "ambulance": 6670,
      "agressi": 6671,
      "advantage": 6672,
      "poems": 6673,
      "weird": 6674,
      "cigarettes": 6675,
      "caractère": 6676,
      "humaine": 6677,
      "guilty": 6678,
      "vaisselle": 6679,
      "gentillesse": 6680,
      "véritable": 6681,
      "constituent": 6682,
      "Language": 6683,
      "technolog": 6684,
      "Aimez": 6685,
      "Beaucoup": 6686,
      "Chopin": 6687,
      "Cows": 6688,
      "Contin": 6689,
      "Eiffel": 6690,
      "Java": 6691,
      "Mennad": 6692,
      "Osaka": 6693,
      "Pyth": 6694,
      "Selon": 6695,
      "Yokohama": 6696,
      "aéroport": 6697,
      "baleine": 6698,
      "fidèle": 6699,
      "higher": 6700,
      "mouvement": 6701,
      "météor": 6702,
      "océan": 6703,
      "spread": 6704,
      "twenty": 6705,
      "égoï": 6706,
      "époque": 6707,
      "invincible": 6708,
      "araignée": 6709,
      "alcohol": 6710,
      "strength": 6711,
      "exercice": 6712,
      "knowledge": 6713,
      "services": 6714,
      "WhatsApp": 6715,
      "particular": 6716,
      "phénomène": 6717,
      "mathematics": 6718,
      "célibataire": 6719,
      "sacrifices": 6720,
      "apprentissage": 6721,
      "\"?": 6722,
      "16": 6723,
      "17": 6724,
      "100": 6725,
      "300": 6726,
      "4000": 6727,
      "50": 6728,
      "Ach": 6729,
      "Aim": 6730,
      "Apr": 6731,
      "BC": 6732,
      "Bu": 6733,
      "Bes": 6734,
      "Bats": 6735,
      "Brown": 6736,
      "Cat": 6737,
      "Car": 6738,
      "Close": 6739,
      "Dro": 6740,
      "Deux": 6741,
      "Dég": 6742,
      "Dép": 6743,
      "Either": 6744,
      "Fu": 6745,
      "Fear": 6746,
      "Face": 6747,
      "Fumer": 6748,
      "Gi": 6749,
      "Hap": 6750,
      "Hop": 6751,
      "Hum": 6752,
      "Having": 6753,
      "Ig": 6754,
      "Ir": 6755,
      "Ici": 6756,
      "Jam": 6757,
      "Kobe": 6758,
      "Là": 6759,
      "Lis": 6760,
      "Long": 6761,
      "Lavez": 6762,
      "Latin": 6763,
      "Men": 6764,
      "Mer": 6765,
      "Mons": 6766,
      "Mine": 6767,
      "Mother": 6768,
      "Mettez": 6769,
      "Miss": 6770,
      "Nul": 6771,
      "Ori": 6772,
      "Olymp": 6773,
      "Ph": 6774,
      "Pou": 6775,
      "Pat": 6776,
      "Por": 6777,
      "Pend": 6778,
      "Rest": 6779,
      "Right": 6780,
      "Sit": 6781,
      "Str": 6782,
      "Sac": 6783,
      "Tow": 6784,
      "Two": 6785,
      "Ver": 6786,
      "Vive": 6787,
      "Vrai": 6788,
      "Wi": 6789,
      "Wr": 6790,
      "Wor": 6791,
      "Way": 6792,
      "ah": 6793,
      "ahu": 6794,
      "avert": 6795,
      "bû": 6796,
      "bain": 6797,
      "bye": 6798,
      "bars": 6799,
      "bask": 6800,
      "bits": 6801,
      "bass": 6802,
      "banc": 6803,
      "blog": 6804,
      "cto": 6805,
      "cing": 6806,
      "cac": 6807,
      "cate": 6808,
      "cils": 6809,
      "cale": 6810,
      "coffre": 6811,
      "dd": 6812,
      "dest": 6813,
      "dite": 6814,
      "eigh": 6815,
      "eût": 6816,
      "fl": 6817,
      "fs": 6818,
      "fan": 6819,
      "fal": 6820,
      "fout": 6821,
      "fain": 6822,
      "flas": 6823,
      "faus": 6824,
      "fake": 6825,
      "flic": 6826,
      "fuel": 6827,
      "fabri": 6828,
      "fâché": 6829,
      "gê": 6830,
      "gne": 6831,
      "ging": 6832,
      "glo": 6833,
      "gét": 6834,
      "gée": 6835,
      "gène": 6836,
      "galax": 6837,
      "hes": 6838,
      "iz": 6839,
      "iest": 6840,
      "ians": 6841,
      "jau": 6842,
      "jong": 6843,
      "jette": 6844,
      "jail": 6845,
      "lp": 6846,
      "lsi": 6847,
      "link": 6848,
      "lts": 6849,
      "lande": 6850,
      "mm": 6851,
      "mans": 6852,
      "mate": 6853,
      "mif": 6854,
      "miel": 6855,
      "nest": 6856,
      "nir": 6857,
      "nap": 6858,
      "nue": 6859,
      "niture": 6860,
      "naie": 6861,
      "overs": 6862,
      "ogle": 6863,
      "olymp": 6864,
      "ocean": 6865,
      "pil": 6866,
      "pag": 6867,
      "ples": 6868,
      "pone": 6869,
      "pée": 6870,
      "push": 6871,
      "pêché": 6872,
      "pèse": 6873,
      "pêche": 6874,
      "rm": 6875,
      "rand": 6876,
      "rét": 6877,
      "rami": 6878,
      "rasse": 6879,
      "ravi": 6880,
      "sè": 6881,
      "san": 6882,
      "sno": 6883,
      "sink": 6884,
      "sable": 6885,
      "sins": 6886,
      "sence": 6887,
      "swear": 6888,
      "saving": 6889,
      "saig": 6890,
      "spends": 6891,
      "tais": 6892,
      "tait": 6893,
      "tand": 6894,
      "tic": 6895,
      "tons": 6896,
      "tée": 6897,
      "taux": 6898,
      "tante": 6899,
      "taught": 6900,
      "van": 6901,
      "vat": 6902,
      "vions": 6903,
      "vity": 6904,
      "vâmes": 6905,
      "wre": 6906,
      "wis": 6907,
      "wais": 6908,
      "wal": 6909,
      "wall": 6910,
      "wim": 6911,
      "warri": 6912,
      "wers": 6913,
      "xion": 6914,
      "ya": 6915,
      "yager": 6916,
      "».": 6917,
      "Écou": 6918,
      "âgé": 6919,
      "ètre": 6920,
      "épe": 6921,
      "élo": 6922,
      "écou": 6923,
      "épou": 6924,
      "échange": 6925,
      "érat": 6926,
      "évolution": 6927,
      "élève": 6928,
      "éprouve": 6929,
      "ïne": 6930,
      "ône": 6931,
      "oute": 6932,
      "ouble": 6933,
      "ouilles": 6934,
      "reç": 6935,
      "rele": 6936,
      "redu": 6937,
      "reci": 6938,
      "refu": 6939,
      "reprendre": 6940,
      "recomm": 6941,
      "recent": 6942,
      "replace": 6943,
      "rejo": 6944,
      "retrouvé": 6945,
      "reporter": 6946,
      "repasser": 6947,
      "remise": 6948,
      "remark": 6949,
      "result": 6950,
      "represent": 6951,
      "recherch": 6952,
      "reviendra": 6953,
      "oner": 6954,
      "onto": 6955,
      "onnes": 6956,
      "ondance": 6957,
      "online": 6958,
      "encour": 6959,
      "enva": 6960,
      "ended": 6961,
      "entez": 6962,
      "endure": 6963,
      "enverrai": 6964,
      "enjoys": 6965,
      "enregis": 6966,
      "ising": 6967,
      "isés": 6968,
      "issait": 6969,
      "issors": 6970,
      "inde": 6971,
      "intime": 6972,
      "income": 6973,
      "inconn": 6974,
      "incl": 6975,
      "incal": 6976,
      "infect": 6977,
      "inclu": 6978,
      "incorri": 6979,
      "incroy": 6980,
      "anne": 6981,
      "anus": 6982,
      "ert": 6983,
      "erve": 6984,
      "error": 6985,
      "level": 6986,
      "itaire": 6987,
      "itage": 6988,
      "itif": 6989,
      "itions": 6990,
      "itali": 6991,
      "itanni": 6992,
      "asy": 6993,
      "astre": 6994,
      "asiment": 6995,
      "dete": 6996,
      "dement": 6997,
      "decor": 6998,
      "devais": 6999,
      "depri": 7000,
      "devenue": 7001,
      "delay": 7002,
      "demanded": 7003,
      "atic": 7004,
      "attemp": 7005,
      "attirer": 7006,
      "qua": 7007,
      "quali": 7008,
      "quasiment": 7009,
      "arti": 7010,
      "arily": 7011,
      "tool": 7012,
      "neur": 7013,
      "nego": 7014,
      "neare": 7015,
      "neig": 7016,
      "veill": 7017,
      "veiller": 7018,
      "orte": 7019,
      "ories": 7020,
      "section": 7021,
      "seize": 7022,
      "aides": 7023,
      "aight": 7024,
      "aimais": 7025,
      "tear": 7026,
      "mec": 7027,
      "meat": 7028,
      "meth": 7029,
      "mechan": 7030,
      "membre": 7031,
      "enter": 7032,
      "entit": 7033,
      "thro": 7034,
      "thunder": 7035,
      "thèse": 7036,
      "lam": 7037,
      "lain": 7038,
      "lamp": 7039,
      "lack": 7040,
      "lady": 7041,
      "llas": 7042,
      "lling": 7043,
      "cement": 7044,
      "ception": 7045,
      "cemment": 7046,
      "ceiling": 7047,
      "estab": 7048,
      "quez": 7049,
      "passa": 7050,
      "passez": 7051,
      "ching": 7052,
      "chais": 7053,
      "chir": 7054,
      "chère": 7055,
      "chée": 7056,
      "chess": 7057,
      "chœur": 7058,
      "chairs": 7059,
      "chacun": 7060,
      "auto": 7061,
      "auquel": 7062,
      "aura": 7063,
      "aurez": 7064,
      "auprès": 7065,
      "aunt": 7066,
      "trous": 7067,
      "trap": 7068,
      "tration": 7069,
      "trunk": 7070,
      "tristes": 7071,
      "trapped": 7072,
      "unes": 7073,
      "undance": 7074,
      "unknown": 7075,
      "unlikely": 7076,
      "unciation": 7077,
      "aised": 7078,
      "nole": 7079,
      "noire": 7080,
      "noix": 7081,
      "lien": 7082,
      "liver": 7083,
      "liqui": 7084,
      "lict": 7085,
      "liking": 7086,
      "usine": 7087,
      "ushed": 7088,
      "etition": 7089,
      "etime": 7090,
      "rique": 7091,
      "rigo": 7092,
      "riode": 7093,
      "bees": 7094,
      "behav": 7095,
      "becomes": 7096,
      "belongs": 7097,
      "roi": 7098,
      "role": 7099,
      "roof": 7100,
      "rope": 7101,
      "roïne": 7102,
      "anta": 7103,
      "alon": 7104,
      "irs": 7105,
      "irts": 7106,
      "tue": 7107,
      "tut": 7108,
      "tuy": 7109,
      "dirent": 7110,
      "dieu": 7111,
      "diez": 7112,
      "dicted": 7113,
      "dients": 7114,
      "diagno": 7115,
      "dose": 7116,
      "doig": 7117,
      "peaux": 7118,
      "pecte": 7119,
      "verres": 7120,
      "verty": 7121,
      "avé": 7122,
      "avou": 7123,
      "aviez": 7124,
      "avril": 7125,
      "avancé": 7126,
      "amer": 7127,
      "ament": 7128,
      "ambo": 7129,
      "ample": 7130,
      "amitié": 7131,
      "stone": 7132,
      "lled": 7133,
      "appetite": 7134,
      "apply": 7135,
      "moin": 7136,
      "moving": 7137,
      "moteur": 7138,
      "moquer": 7139,
      "model": 7140,
      "allées": 7141,
      "allumer": 7142,
      "acer": 7143,
      "actif": 7144,
      "actice": 7145,
      "lover": 7146,
      "load": 7147,
      "loses": 7148,
      "lock": 7149,
      "loyer": 7150,
      "parte": 7151,
      "pardonner": 7152,
      "parliez": 7153,
      "agère": 7154,
      "forces": 7155,
      "forms": 7156,
      "forbid": 7157,
      "compar": 7158,
      "compo": 7159,
      "compla": 7160,
      "impri": 7161,
      "impul": 7162,
      "rende": 7163,
      "renom": 7164,
      "rentre": 7165,
      "rences": 7166,
      "renvoy": 7167,
      "rentré": 7168,
      "étique": 7169,
      "étition": 7170,
      "étagère": 7171,
      "uré": 7172,
      "urine": 7173,
      "urgent": 7174,
      "urity": 7175,
      "consé": 7176,
      "consom": 7177,
      "contain": 7178,
      "convient": 7179,
      "contient": 7180,
      "conserv": 7181,
      "conspir": 7182,
      "ades": 7183,
      "added": 7184,
      "addressed": 7185,
      "adorable": 7186,
      "addicted": 7187,
      "jelly": 7188,
      "goût": 7189,
      "abst": 7190,
      "abuse": 7191,
      "abondance": 7192,
      "abundance": 7193,
      "prouver": 7194,
      "prétend": 7195,
      "praised": 7196,
      "practice": 7197,
      "poil": 7198,
      "poig": 7199,
      "poches": 7200,
      "poverty": 7201,
      "resist": 7202,
      "rescu": 7203,
      "restez": 7204,
      "resistance": 7205,
      "resources": 7206,
      "resource": 7207,
      "volu": 7208,
      "voted": 7209,
      "voler": 7210,
      "wasting": 7211,
      "dég": 7212,
      "déce": 7213,
      "dégr": 7214,
      "dénu": 7215,
      "décor": 7216,
      "défi": 7217,
      "dépou": 7218,
      "dépri": 7219,
      "défil": 7220,
      "débat": 7221,
      "dépensé": 7222,
      "dépasser": 7223,
      "débarr": 7224,
      "déconne": 7225,
      "dégoû": 7226,
      "dépourvu": 7227,
      "développé": 7228,
      "dépêché": 7229,
      "answered": 7230,
      "Help": 7231,
      "weapon": 7232,
      "hoping": 7233,
      "sière": 7234,
      "sieste": 7235,
      "silly": 7236,
      "solit": 7237,
      "plat": 7238,
      "plaire": 7239,
      "plomb": 7240,
      "dul": 7241,
      "histoi": 7242,
      "donnée": 7243,
      "coins": 7244,
      "covered": 7245,
      "notes": 7246,
      "notion": 7247,
      "pendent": 7248,
      "pensait": 7249,
      "pencil": 7250,
      "ties": 7251,
      "tight": 7252,
      "tiend": 7253,
      "tiens": 7254,
      "tiger": 7255,
      "tienne": 7256,
      "fear": 7257,
      "illon": 7258,
      "yourselves": 7259,
      "prove": 7260,
      "proof": 7261,
      "provi": 7262,
      "uelle": 7263,
      "uels": 7264,
      "uellement": 7265,
      "frus": 7266,
      "frappe": 7267,
      "frappa": 7268,
      "maje": 7269,
      "maître": 7270,
      "maîtr": 7271,
      "boivent": 7272,
      "monte": 7273,
      "monter": 7274,
      "mondiale": 7275,
      "monnaie": 7276,
      "cia": 7277,
      "civil": 7278,
      "lumb": 7279,
      "extre": 7280,
      "explan": 7281,
      "exige": 7282,
      "excuse": 7283,
      "exclus": 7284,
      "cheer": 7285,
      "cheating": 7286,
      "manif": 7287,
      "manques": 7288,
      "manuel": 7289,
      "manquent": 7290,
      "managed": 7291,
      "manual": 7292,
      "perman": 7293,
      "persé": 7294,
      "persever": 7295,
      "perhaps": 7296,
      "serré": 7297,
      "seriez": 7298,
      "series": 7299,
      "récon": 7300,
      "réput": 7301,
      "répare": 7302,
      "réside": 7303,
      "récla": 7304,
      "résident": 7305,
      "réveille": 7306,
      "révolution": 7307,
      "rémonie": 7308,
      "réguli": 7309,
      "quiconque": 7310,
      "mpt": 7311,
      "choc": 7312,
      "plex": 7313,
      "coule": 7314,
      "couché": 7315,
      "couvert": 7316,
      "worn": 7317,
      "igné": 7318,
      "plafond": 7319,
      "saf": 7320,
      "saches": 7321,
      "saoul": 7322,
      "témoin": 7323,
      "fol": 7324,
      "foo": 7325,
      "fos": 7326,
      "Left": 7327,
      "illegal": 7328,
      "dises": 7329,
      "dispon": 7330,
      "distant": 7331,
      "disposer": 7332,
      "séjour": 7333,
      "Whatever": 7334,
      "shit": 7335,
      "shine": 7336,
      "shaking": 7337,
      "vive": 7338,
      "viande": 7339,
      "vivait": 7340,
      "ends": 7341,
      "Celsi": 7342,
      "cting": 7343,
      "gez": 7344,
      "arrives": 7345,
      "thern": 7346,
      "tempor": 7347,
      "tempête": 7348,
      "températ": 7349,
      "maisons": 7350,
      "whom": 7351,
      "whiche": 7352,
      "ffer": 7353,
      "merde": 7354,
      "mercy": 7355,
      "préci": 7356,
      "prévois": 7357,
      "prévenue": 7358,
      "précieux": 7359,
      "prévisions": 7360,
      "présente": 7361,
      "dity": 7362,
      "grais": 7363,
      "grâce": 7364,
      "gradu": 7365,
      "vés": 7366,
      "véri": 7367,
      "vécut": 7368,
      "somebody": 7369,
      "étéri": 7370,
      "prennes": 7371,
      "prevented": 7372,
      "crut": 7373,
      "crée": 7374,
      "crème": 7375,
      "crains": 7376,
      "crashed": 7377,
      "craft": 7378,
      "breast": 7379,
      "Quit": 7380,
      "beauty": 7381,
      "Commun": 7382,
      "dras": 7383,
      "drôle": 7384,
      "gardé": 7385,
      "gardes": 7386,
      "garlic": 7387,
      "soucie": 7388,
      "reads": 7389,
      "carré": 7390,
      "seemed": 7391,
      "méth": 7392,
      "méprise": 7393,
      "itées": 7394,
      "workers": 7395,
      "mbers": 7396,
      "sorti": 7397,
      "voudriez": 7398,
      "coupa": 7399,
      "coups": 7400,
      "mistook": 7401,
      "mistaken": 7402,
      "miséri": 7403,
      "misunderstanding": 7404,
      "letting": 7405,
      "négo": 7406,
      "sentit": 7407,
      "sentait": 7408,
      "travailles": 7409,
      "dentist": 7410,
      "dentiste": 7411,
      "humi": 7412,
      "humains": 7413,
      "phère": 7414,
      "tonner": 7415,
      "director": 7416,
      "nuage": 7417,
      "nuages": 7418,
      "minded": 7419,
      "minuit": 7420,
      "litres": 7421,
      "liters": 7422,
      "obsc": 7423,
      "obtenir": 7424,
      "observe": 7425,
      "visible": 7426,
      "guère": 7427,
      "guéri": 7428,
      "morte": 7429,
      "mières": 7430,
      "raisins": 7431,
      "speed": 7432,
      "cordes": 7433,
      "corner": 7434,
      "cording": 7435,
      "corpus": 7436,
      "mum": 7437,
      "courte": 7438,
      "tooth": 7439,
      "cross": 7440,
      "pressed": 7441,
      "venty": 7442,
      "ension": 7443,
      "studied": 7444,
      "studies": 7445,
      "deviner": 7446,
      "autrefois": 7447,
      "cerveau": 7448,
      "valeur": 7449,
      "appelons": 7450,
      "appeared": 7451,
      "ferions": 7452,
      "parent": 7453,
      "fière": 7454,
      "stock": 7455,
      "stolen": 7456,
      "storm": 7457,
      "restes": 7458,
      "veste": 7459,
      "diffère": 7460,
      "brush": 7461,
      "bronz": 7462,
      "britanni": 7463,
      "gotta": 7464,
      "chers": 7465,
      "gentille": 7466,
      "êmement": 7467,
      "compét": 7468,
      "compatis": 7469,
      "blon": 7470,
      "blin": 7471,
      "retir": 7472,
      "Monte": 7473,
      "poulet": 7474,
      "poured": 7475,
      "tribut": 7476,
      "tribun": 7477,
      "causes": 7478,
      "lovely": 7479,
      "péril": 7480,
      "pétrole": 7481,
      "période": 7482,
      "artist": 7483,
      "version": 7484,
      "speaker": 7485,
      "nouveaux": 7486,
      "tomba": 7487,
      "Once": 7488,
      "asking": 7489,
      "buste": 7490,
      "actions": 7491,
      "langage": 7492,
      "puissiez": 7493,
      "tled": 7494,
      "player": 7495,
      "friendship": 7496,
      "torture": 7497,
      "achè": 7498,
      "aching": 7499,
      "achète": 7500,
      "raw": 7501,
      "radi": 7502,
      "officer": 7503,
      "forecast": 7504,
      "woke": 7505,
      "century": 7506,
      "gér": 7507,
      "gérie": 7508,
      "géante": 7509,
      "enseigné": 7510,
      "suppli": 7511,
      "tentation": 7512,
      "feels": 7513,
      "prirent": 7514,
      "pondu": 7515,
      "backs": 7516,
      "turb": 7517,
      "path": 7518,
      "themselves": 7519,
      "cérémonie": 7520,
      "credit": 7521,
      "scholar": 7522,
      "pyram": 7523,
      "pyrami": 7524,
      "attendrai": 7525,
      "aimerions": 7526,
      "clar": 7527,
      "promener": 7528,
      "border": 7529,
      "spac": 7530,
      "carefully": 7531,
      "faces": 7532,
      "facture": 7533,
      "cum": 7534,
      "culable": 7535,
      "puts": 7536,
      "Boys": 7537,
      "Parce": 7538,
      "Pardonnez": 7539,
      "giques": 7540,
      "études": 7541,
      "collabor": 7542,
      "Français": 7543,
      "Frankly": 7544,
      "Franchement": 7545,
      "simul": 7546,
      "simply": 7547,
      "vital": 7548,
      "vitesse": 7549,
      "dernières": 7550,
      "téléphones": 7551,
      "sortis": 7552,
      "sortons": 7553,
      "déten": 7554,
      "détendu": 7555,
      "easier": 7556,
      "jeta": 7557,
      "oppos": 7558,
      "intéresse": 7559,
      "intérê": 7560,
      "dorment": 7561,
      "painful": 7562,
      "française": 7563,
      "Perhaps": 7564,
      "Permettez": 7565,
      "handsome": 7566,
      "lately": 7567,
      "ottes": 7568,
      "shock": 7569,
      "connaissent": 7570,
      "connaissez": 7571,
      "assise": 7572,
      "aidera": 7573,
      "volcan": 7574,
      "counter": 7575,
      "étudié": 7576,
      "étudient": 7577,
      "joke": 7578,
      "jogg": 7579,
      "béné": 7580,
      "rub": 7581,
      "rug": 7582,
      "rues": 7583,
      "sûres": 7584,
      "athlete": 7585,
      "aurons": 7586,
      "international": 7587,
      "internationale": 7588,
      "classes": 7589,
      "rained": 7590,
      "commentaire": 7591,
      "commentaires": 7592,
      "downtown": 7593,
      "Voyez": 7594,
      "Voyager": 7595,
      "timid": 7596,
      "policier": 7597,
      "personnel": 7598,
      "lished": 7599,
      "straight": 7600,
      "bouill": 7601,
      "bouche": 7602,
      "capac": 7603,
      "drove": 7604,
      "dropped": 7605,
      "smiling": 7606,
      "lications": 7607,
      "biting": 7608,
      "bitter": 7609,
      "tourists": 7610,
      "charger": 7611,
      "teachers": 7612,
      "partira": 7613,
      "cuter": 7614,
      "trouverez": 7615,
      "product": 7616,
      "products": 7617,
      "critiques": 7618,
      "pouvaient": 7619,
      "aimons": 7620,
      "aimaient": 7621,
      "difficulté": 7622,
      "commenç": 7623,
      "adorent": 7624,
      "calls": 7625,
      "natives": 7626,
      "formul": 7627,
      "utiles": 7628,
      "utilise": 7629,
      "utilisez": 7630,
      "Because": 7631,
      "Really": 7632,
      "vérance": 7633,
      "certaines": 7634,
      "fondé": 7635,
      "fondu": 7636,
      "scand": 7637,
      "scène": 7638,
      "scissors": 7639,
      "security": 7640,
      "dried": 7641,
      "explication": 7642,
      "mente": 7643,
      "conduct": 7644,
      "mariée": 7645,
      "larger": 7646,
      "sauter": 7647,
      "salary": 7648,
      "changements": 7649,
      "begins": 7650,
      "examens": 7651,
      "honneur": 7652,
      "transpor": 7653,
      "transpire": 7654,
      "conseille": 7655,
      "conseilla": 7656,
      "arrivés": 7657,
      "Sois": 7658,
      "Soit": 7659,
      "cash": 7660,
      "castle": 7661,
      "miles": 7662,
      "apprécient": 7663,
      "battle": 7664,
      "fallut": 7665,
      "jug": 7666,
      "jupe": 7667,
      "lète": 7668,
      "suspecte": 7669,
      "tiling": 7670,
      "warn": 7671,
      "égard": 7672,
      "éping": 7673,
      "ancien": 7674,
      "contraire": 7675,
      "contrary": 7676,
      "ainement": 7677,
      "présenté": 7678,
      "writer": 7679,
      "dingue": 7680,
      "horaire": 7681,
      "latin": 7682,
      "quitte": 7683,
      "logic": 7684,
      "logique": 7685,
      "maladies": 7686,
      "plaintes": 7687,
      "ailleurs": 7688,
      "matinée": 7689,
      "countryside": 7690,
      "sûrs": 7691,
      "Something": 7692,
      "Somebody": 7693,
      "pauvres": 7694,
      "étrang": 7695,
      "publié": 7696,
      "affir": 7697,
      "boutique": 7698,
      "cafeter": 7699,
      "foutre": 7700,
      "fournit": 7701,
      "glace": 7702,
      "quérir": 7703,
      "conflit": 7704,
      "pensées": 7705,
      "joueurs": 7706,
      "employer": 7707,
      "barre": 7708,
      "brio": 7709,
      "informations": 7710,
      "chauffe": 7711,
      "déjeuné": 7712,
      "Argent": 7713,
      "faults": 7714,
      "sensé": 7715,
      "sentez": 7716,
      "postpone": 7717,
      "terminer": 7718,
      "feuille": 7719,
      "premiers": 7720,
      "harm": 7721,
      "mourut": 7722,
      "steak": 7723,
      "comprend": 7724,
      "comprennent": 7725,
      "ignored": 7726,
      "bags": 7727,
      "bagages": 7728,
      "bagnole": 7729,
      "concerne": 7730,
      "cookies": 7731,
      "patients": 7732,
      "classroom": 7733,
      "Cessez": 7734,
      "hér": 7735,
      "héroïne": 7736,
      "noirs": 7737,
      "suffer": 7738,
      "responsibil": 7739,
      "arriverait": 7740,
      "master": 7741,
      "tress": 7742,
      "apples": 7743,
      "contacter": 7744,
      "supposé": 7745,
      "client": 7746,
      "scientists": 7747,
      "subway": 7748,
      "découverte": 7749,
      "exacte": 7750,
      "objection": 7751,
      "courageux": 7752,
      "interests": 7753,
      "circum": 7754,
      "dirty": 7755,
      "idiote": 7756,
      "kissing": 7757,
      "ouvertes": 7758,
      "attack": 7759,
      "third": 7760,
      "superflu": 7761,
      "supermarché": 7762,
      "supermarket": 7763,
      "constant": 7764,
      "constamment": 7765,
      "écouté": 7766,
      "publicité": 7767,
      "intelligents": 7768,
      "créé": 7769,
      "gyp": 7770,
      "panne": 7771,
      "spending": 7772,
      "satisfaite": 7773,
      "invitée": 7774,
      "arrose": 7775,
      "semblent": 7776,
      "amusé": 7777,
      "amusante": 7778,
      "plaisant": 7779,
      "sérieuse": 7780,
      "precious": 7781,
      "International": 7782,
      "Google": 7783,
      "loud": 7784,
      "louer": 7785,
      "reality": 7786,
      "espèce": 7787,
      "indique": 7788,
      "thesis": 7789,
      "améric": 7790,
      "Algérie": 7791,
      "rêves": 7792,
      "victim": 7793,
      "victory": 7794,
      "victoire": 7795,
      "heavily": 7796,
      "necessarily": 7797,
      "trompe": 7798,
      "tromper": 7799,
      "trompet": 7800,
      "désastre": 7801,
      "tificial": 7802,
      "montrent": 7803,
      "mérique": 7804,
      "intéressés": 7805,
      "regarda": 7806,
      "regardant": 7807,
      "accepté": 7808,
      "accepted": 7809,
      "elec": 7810,
      "pisto": 7811,
      "tickets": 7812,
      "medal": 7813,
      "changera": 7814,
      "autorisé": 7815,
      "prudents": 7816,
      "pronunciation": 7817,
      "survive": 7818,
      "discuté": 7819,
      "communication": 7820,
      "cleaned": 7821,
      "stronger": 7822,
      "impressionné": 7823,
      "impressionnée": 7824,
      "Faisons": 7825,
      "pousse": 7826,
      "pousser": 7827,
      "poussé": 7828,
      "engager": 7829,
      "engagement": 7830,
      "engineers": 7831,
      "style": 7832,
      "apprends": 7833,
      "moyens": 7834,
      "conditionné": 7835,
      "college": 7836,
      "collection": 7837,
      "excell": 7838,
      "manquez": 7839,
      "stupides": 7840,
      "commandé": 7841,
      "articles": 7842,
      "pauvreté": 7843,
      "Trave": 7844,
      "dommage": 7845,
      "ennuy": 7846,
      "ennuyer": 7847,
      "rocks": 7848,
      "approve": 7849,
      "accue": 7850,
      "violon": 7851,
      "violin": 7852,
      "violent": 7853,
      "compliqué": 7854,
      "complicated": 7855,
      "professor": 7856,
      "imaginé": 7857,
      "arrogants": 7858,
      "Amuse": 7859,
      "Certaines": 7860,
      "fasses": 7861,
      "milli": 7862,
      "ramassé": 7863,
      "smarter": 7864,
      "realized": 7865,
      "veuille": 7866,
      "veuillez": 7867,
      "projets": 7868,
      "gratuit": 7869,
      "souhaiter": 7870,
      "souhaitez": 7871,
      "regrette": 7872,
      "fonctionné": 7873,
      "refusé": 7874,
      "épousé": 7875,
      "Australian": 7876,
      "amélioré": 7877,
      "Désolé": 7878,
      "mammal": 7879,
      "mammif": 7880,
      "picked": 7881,
      "square": 7882,
      "wheel": 7883,
      "heurté": 7884,
      "armée": 7885,
      "status": 7886,
      "excuser": 7887,
      "explained": 7888,
      "disposais": 7889,
      "travaillons": 7890,
      "Anyone": 7891,
      "shopping": 7892,
      "Aucune": 7893,
      "marketing": 7894,
      "ologiques": 7895,
      "field": 7896,
      "operate": 7897,
      "sweat": 7898,
      "sweet": 7899,
      "tarte": 7900,
      "target": 7901,
      "écris": 7902,
      "oubliez": 7903,
      "recovery": 7904,
      "issues": 7905,
      "quarante": 7906,
      "quartier": 7907,
      "teered": 7908,
      "lapins": 7909,
      "laptop": 7910,
      "streets": 7911,
      "apparen": 7912,
      "apparence": 7913,
      "responsabilité": 7914,
      "cherchait": 7915,
      "habitait": 7916,
      "différentes": 7917,
      "Forget": 7918,
      "tallest": 7919,
      "increas": 7920,
      "organized": 7921,
      "pelled": 7922,
      "apparu": 7923,
      "appartement": 7924,
      "siècle": 7925,
      "siècles": 7926,
      "collis": 7927,
      "colline": 7928,
      "deserves": 7929,
      "property": 7930,
      "serviettes": 7931,
      "répétition": 7932,
      "résistance": 7933,
      "disposent": 7934,
      "preuves": 7935,
      "borrowed": 7936,
      "arrêtée": 7937,
      "bouteilles": 7938,
      "prononciation": 7939,
      "continué": 7940,
      "Bonjour": 7941,
      "Columb": 7942,
      "ciseaux": 7943,
      "kilos": 7944,
      "tastes": 7945,
      "échecs": 7946,
      "entraîner": 7947,
      "entraîne": 7948,
      "Jeanne": 7949,
      "author": 7950,
      "alternatives": 7951,
      "apologized": 7952,
      "activity": 7953,
      "complaints": 7954,
      "practical": 7955,
      "proposes": 7956,
      "proposed": 7957,
      "discover": 7958,
      "discovered": 7959,
      "garderai": 7960,
      "mérit": 7961,
      "obligée": 7962,
      "obligations": 7963,
      "fighting": 7964,
      "glissa": 7965,
      "génies": 7966,
      "détermination": 7967,
      "champagne": 7968,
      "principal": 7969,
      "silencieuse": 7970,
      "emprunte": 7971,
      "Butter": 7972,
      "Corrige": 7973,
      "Correct": 7974,
      "Feel": 7975,
      "Grâce": 7976,
      "Jackson": 7977,
      "Prépare": 7978,
      "Président": 7979,
      "Speak": 7980,
      "damaged": 7981,
      "further": 7982,
      "furniture": 7983,
      "rangé": 7984,
      "sportif": 7985,
      "scary": 7986,
      "éteindre": 7987,
      "remonter": 7988,
      "rempla": 7989,
      "intend": 7990,
      "heroin": 7991,
      "assurer": 7992,
      "determination": 7993,
      "attaqués": 7994,
      "meals": 7995,
      "laborat": 7996,
      "chinoise": 7997,
      "ridicule": 7998,
      "divorce": 7999,
      "convaincu": 8000,
      "adapt": 8001,
      "adapter": 8002,
      "désire": 8003,
      "major": 8004,
      "majority": 8005,
      "persuade": 8006,
      "persuader": 8007,
      "maths": 8008,
      "opportunité": 8009,
      "effectu": 8010,
      "effective": 8011,
      "doubt": 8012,
      "hypothèse": 8013,
      "hypothesis": 8014,
      "original": 8015,
      "Crois": 8016,
      "Croyez": 8017,
      "Jusqu": 8018,
      "Juste": 8019,
      "Unies": 8020,
      "Univers": 8021,
      "events": 8022,
      "haute": 8023,
      "knock": 8024,
      "évène": 8025,
      "échoué": 8026,
      "ouvrez": 8027,
      "requires": 8028,
      "remained": 8029,
      "arguing": 8030,
      "melted": 8031,
      "entirely": 8032,
      "beaten": 8033,
      "digne": 8034,
      "digital": 8035,
      "modern": 8036,
      "absurde": 8037,
      "excès": 8038,
      "faithful": 8039,
      "vengeance": 8040,
      "disparu": 8041,
      "disputer": 8042,
      "discussed": 8043,
      "sharp": 8044,
      "vierge": 8045,
      "merveilleux": 8046,
      "particulier": 8047,
      "particulièrement": 8048,
      "pretended": 8049,
      "possè": 8050,
      "philosophy": 8051,
      "guerrier": 8052,
      "cuisinier": 8053,
      "cuisinière": 8054,
      "symbole": 8055,
      "Connaissez": 8056,
      "Moscou": 8057,
      "Moscow": 8058,
      "Toute": 8059,
      "Venus": 8060,
      "paix": 8061,
      "pills": 8062,
      "sagesse": 8063,
      "tiny": 8064,
      "tatou": 8065,
      "tattoo": 8066,
      "élevés": 8067,
      "influence": 8068,
      "anxious": 8069,
      "celebrate": 8070,
      "ironed": 8071,
      "loyal": 8072,
      "commerce": 8073,
      "commercial": 8074,
      "délicieux": 8075,
      "propriété": 8076,
      "expressions": 8077,
      "disgusting": 8078,
      "essential": 8079,
      "voulut": 8080,
      "voulaient": 8081,
      "material": 8082,
      "guessed": 8083,
      "blanket": 8084,
      "Israel": 8085,
      "Israël": 8086,
      "supported": 8087,
      "supportive": 8088,
      "supplémentaire": 8089,
      "curious": 8090,
      "curios": 8091,
      "volunteered": 8092,
      "effrayé": 8093,
      "strangers": 8094,
      "Apportez": 8095,
      "psychic": 8096,
      "actuellement": 8097,
      "architect": 8098,
      "architecte": 8099,
      "électron": 8100,
      "pratiquement": 8101,
      "annulée": 8102,
      "suddenly": 8103,
      "féliciter": 8104,
      "According": 8105,
      "Central": 8106,
      "Colomb": 8107,
      "Diable": 8108,
      "During": 8109,
      "Tenez": 8110,
      "barely": 8111,
      "doutes": 8112,
      "jacket": 8113,
      "titre": 8114,
      "épuisé": 8115,
      "relaxed": 8116,
      "liberté": 8117,
      "alentours": 8118,
      "amazing": 8119,
      "tremblement": 8120,
      "education": 8121,
      "apartment": 8122,
      "rentrée": 8123,
      "advertise": 8124,
      "despise": 8125,
      "frappé": 8126,
      "Italian": 8127,
      "exigé": 8128,
      "exemple": 8129,
      "manquait": 8130,
      "pleurait": 8131,
      "distinguer": 8132,
      "viously": 8133,
      "marchand": 8134,
      "médaille": 8135,
      "européenne": 8136,
      "puzzle": 8137,
      "criminal": 8138,
      "assistant": 8139,
      "volontaire": 8140,
      "geniuses": 8141,
      "strict": 8142,
      "regularly": 8143,
      "adolescent": 8144,
      "Consider": 8145,
      "Algeria": 8146,
      "soutenu": 8147,
      "automobile": 8148,
      "signification": 8149,
      "practicing": 8150,
      "médicament": 8151,
      "challenge": 8152,
      "congratulate": 8153,
      "Atomic": 8154,
      "Birds": 8155,
      "Cherchez": 8156,
      "Ferme": 8157,
      "Nouvelle": 8158,
      "Repetition": 8159,
      "Royal": 8160,
      "Smoking": 8161,
      "abeilles": 8162,
      "citizens": 8163,
      "duty": 8164,
      "drowned": 8165,
      "fûmes": 8166,
      "goutte": 8167,
      "gift": 8168,
      "handed": 8169,
      "houses": 8170,
      "hésite": 8171,
      "jaloux": 8172,
      "multiling": 8173,
      "pantalon": 8174,
      "spatial": 8175,
      "tapis": 8176,
      "œuvre": 8177,
      "repeat": 8178,
      "incendie": 8179,
      "departure": 8180,
      "atomique": 8181,
      "entrance": 8182,
      "château": 8183,
      "trusted": 8184,
      "lifetime": 8185,
      "peanuts": 8186,
      "wealthy": 8187,
      "YouTube": 8188,
      "programme": 8189,
      "mondial": 8190,
      "extrêmement": 8191,
      "perspective": 8192,
      "récolte": 8193,
      "endommag": 8194,
      "pregnant": 8195,
      "crayon": 8196,
      "pharmac": 8197,
      "inspiration": 8198,
      "pénétrer": 8199,
      "private": 8200,
      "promenade": 8201,
      "earlier": 8202,
      "magnifi": 8203,
      "examination": 8204,
      "Appelez": 8205,
      "coûtera": 8206,
      "circonstances": 8207,
      "citoyens": 8208,
      "chaussettes": 8209,
      "Débarrasse": 8210,
      "pratiquer": 8211,
      "déclaré": 8212,
      "frontière": 8213,
      "biscuits": 8214,
      "Continue": 8215,
      "météorologiques": 8216,
      "égoïste": 8217,
      "April": 8218,
      "Besides": 8219,
      "Dégage": 8220,
      "Happy": 8221,
      "Igno": 8222,
      "Jamais": 8223,
      "Monsieur": 8224,
      "Olympic": 8225,
      "Pouvons": 8226,
      "Portu": 8227,
      "Pendant": 8228,
      "Tower": 8229,
      "Vraiment": 8230,
      "Write": 8231,
      "World": 8232,
      "ahuètes": 8233,
      "basket": 8234,
      "cacahuètes": 8235,
      "eighteen": 8236,
      "false": 8237,
      "fausse": 8238,
      "tandis": 8239,
      "wisdom": 8240,
      "waist": 8241,
      "warrior": 8242,
      "refuge": 8243,
      "recommend": 8244,
      "independent": 8245,
      "incalculable": 8246,
      "incorrigi": 8247,
      "deprived": 8248,
      "negoti": 8249,
      "nearest": 8250,
      "method": 8251,
      "established": 8252,
      "chaises": 8253,
      "chirurg": 8254,
      "doigt": 8255,
      "forbidden": 8256,
      "conséquences": 8257,
      "poignée": 8258,
      "rescued": 8259,
      "histoires": 8260,
      "tiendra": 8261,
      "explanation": 8262,
      "manifest": 8263,
      "persévérance": 8264,
      "perseverance": 8265,
      "régulièrement": 8266,
      "Celsius": 8267,
      "température": 8268,
      "whichever": 8269,
      "tribunal": 8270,
      "intérêts": 8271,
      "jogging": 8272,
      "cafeteria": 8273,
      "responsibility": 8274,
      "mammifère": 8275,
      "Columbus": 8276,
      "électronique": 8277,
      "!”": 8278,
      "%.": 8279,
      "'\"": 8280,
      "'.": 8281,
      "25": 8282,
      "26": 8283,
      "27": 8284,
      "2K": 8285,
      "32": 8286,
      "42": 8287,
      "83": 8288,
      "88": 8289,
      "89": 8290,
      "?»": 8291,
      "AM": 8292,
      "AT": 8293,
      "Aï": 8294,
      "Ale": 8295,
      "Aren": 8296,
      "Adé": 8297,
      "Apart": 8298,
      "Alas": 8299,
      "Alf": 8300,
      "Ajou": 8301,
      "Avons": 8302,
      "Apoll": 8303,
      "Avat": 8304,
      "Alain": 8305,
      "Bi": 8306,
      "Bou": 8307,
      "Ban": 8308,
      "Bam": 8309,
      "Bay": 8310,
      "Bur": 8311,
      "Bite": 8312,
      "Bye": 8313,
      "Bread": 8314,
      "Bask": 8315,
      "Bras": 8316,
      "Bonne": 8317,
      "Baby": 8318,
      "Bride": 8319,
      "BRI": 8320,
      "BBC": 8321,
      "CD": 8322,
      "Cle": 8323,
      "Cai": 8324,
      "Cal": 8325,
      "Cut": 8326,
      "Caire": 8327,
      "Clé": 8328,
      "Coun": 8329,
      "Cart": 8330,
      "Clear": 8331,
      "Cali": 8332,
      "Crist": 8333,
      "Cathy": 8334,
      "CRI": 8335,
      "Cambo": 8336,
      "Dil": 8337,
      "Dav": 8338,
      "Dall": 8339,
      "Dad": 8340,
      "Dard": 8341,
      "Dise": 8342,
      "Dame": 8343,
      "Down": 8344,
      "Double": 8345,
      "Ef": 8346,
      "Emb": 8347,
      "Each": 8348,
      "Emil": 8349,
      "Eric": 8350,
      "Euler": 8351,
      "Egyp": 8352,
      "Fé": 8353,
      "Fad": 8354,
      "Fill": 8355,
      "Find": 8356,
      "Fred": 8357,
      "Fanta": 8358,
      "Gor": 8359,
      "Gand": 8360,
      "Glo": 8361,
      "Gold": 8362,
      "Got": 8363,
      "Grou": 8364,
      "Gaz": 8365,
      "Gables": 8366,
      "Han": 8367,
      "Hun": 8368,
      "Hand": 8369,
      "Hall": 8370,
      "Hab": 8371,
      "Hang": 8372,
      "Hend": 8373,
      "Hot": 8374,
      "Howe": 8375,
      "ID": 8376,
      "Ire": 8377,
      "Istan": 8378,
      "Jen": 8379,
      "Jan": 8380,
      "June": 8381,
      "Jup": 8382,
      "Juli": 8383,
      "Jord": 8384,
      "Kas": 8385,
      "Kak": 8386,
      "Kaz": 8387,
      "Kathy": 8388,
      "LO": 8389,
      "LS": 8390,
      "Lé": 8391,
      "Len": 8392,
      "Lin": 8393,
      "Lux": 8394,
      "Lune": 8395,
      "Loun": 8396,
      "Lève": 8397,
      "Mt": 8398,
      "Mis": 8399,
      "Mme": 8400,
      "Mir": 8401,
      "Mam": 8402,
      "Mage": 8403,
      "Must": 8404,
      "Mont": 8405,
      "Mange": 8406,
      "Mich": 8407,
      "Mali": 8408,
      "Mande": 8409,
      "Moh": 8410,
      "Matt": 8411,
      "Ner": 8412,
      "Nag": 8413,
      "Nak": 8414,
      "Naz": 8415,
      "Nice": 8416,
      "Nash": 8417,
      "Nara": 8418,
      "Ox": 8419,
      "Over": 8420,
      "Open": 8421,
      "Oscar": 8422,
      "Okin": 8423,
      "Oliver": 8424,
      "PT": 8425,
      "Pal": 8426,
      "Pain": 8427,
      "Pic": 8428,
      "Pick": 8429,
      "Passez": 8430,
      "Phar": 8431,
      "Push": 8432,
      "Play": 8433,
      "Pader": 8434,
      "Prin": 8435,
      "Pacif": 8436,
      "Rh": 8437,
      "Ren": 8438,
      "Rome": 8439,
      "Rob": 8440,
      "Rese": 8441,
      "Rick": 8442,
      "Rappelle": 8443,
      "Rappelez": 8444,
      "RAM": 8445,
      "Sy": 8446,
      "Sat": 8447,
      "Squ": 8448,
      "Sto": 8449,
      "Save": 8450,
      "Sam": 8451,
      "Say": 8452,
      "Sab": 8453,
      "Sco": 8454,
      "Send": 8455,
      "Sont": 8456,
      "Sally": 8457,
      "Sors": 8458,
      "Seu": 8459,
      "Senten": 8460,
      "Sum": 8461,
      "Sato": 8462,
      "Simp": 8463,
      "Sara": 8464,
      "Spot": 8465,
      "Scand": 8466,
      "Serais": 8467,
      "Sandra": 8468,
      "Swim": 8469,
      "Sentez": 8470,
      "SCRI": 8471,
      "Ti": 8472,
      "Tar": 8473,
      "Ted": 8474,
      "Tim": 8475,
      "Talk": 8476,
      "Tick": 8477,
      "Tra": 8478,
      "Trou": 8479,
      "Tiens": 8480,
      "Uk": 8481,
      "Use": 8482,
      "Util": 8483,
      "Uran": 8484,
      "Ubun": 8485,
      "Vis": 8486,
      "Var": 8487,
      "Vien": 8488,
      "Vide": 8489,
      "Vince": 8490,
      "Whe": 8491,
      "Winter": 8492,
      "Wester": 8493,
      "Wash": 8494,
      "Water": 8495,
      "Year": 8496,
      "Y2K": 8497,
      "ape": 8498,
      "ael": 8499,
      "adow": 8500,
      "aît": 8501,
      "apeur": 8502,
      "awoke": 8503,
      "bs": 8504,
      "bt": 8505,
      "bom": 8506,
      "bous": 8507,
      "bav": 8508,
      "bac": 8509,
      "bab": 8510,
      "blu": 8511,
      "bage": 8512,
      "bust": 8513,
      "barri": 8514,
      "buis": 8515,
      "bish": 8516,
      "brie": 8517,
      "bbed": 8518,
      "basse": 8519,
      "bande": 8520,
      "bêt": 8521,
      "bomb": 8522,
      "baked": 8523,
      "bounce": 8524,
      "câ": 8525,
      "cí": 8526,
      "cais": 8527,
      "cout": 8528,
      "cad": 8529,
      "cti": 8530,
      "cès": 8531,
      "carri": 8532,
      "cture": 8533,
      "ciez": 8534,
      "ccident": 8535,
      "carried": 8536,
      "cured": 8537,
      "ckey": 8538,
      "caill": 8539,
      "dne": 8540,
      "dant": 8541,
      "dder": 8542,
      "dust": 8543,
      "dame": 8544,
      "dwell": 8545,
      "dwar": 8546,
      "dèle": 8547,
      "ek": 8548,
      "eper": 8549,
      "earr": 8550,
      "eager": 8551,
      "eBay": 8552,
      "fê": 8553,
      "fto": 8554,
      "fest": 8555,
      "fli": 8556,
      "fed": 8557,
      "fare": 8558,
      "fans": 8559,
      "ffr": 8560,
      "fts": 8561,
      "fate": 8562,
      "fif": 8563,
      "fêtes": 8564,
      "fins": 8565,
      "fright": 8566,
      "flot": 8567,
      "fence": 8568,
      "fense": 8569,
      "fass": 8570,
      "flight": 8571,
      "faille": 8572,
      "fail": 8573,
      "fash": 8574,
      "fâche": 8575,
      "fiers": 8576,
      "founded": 8577,
      "git": 8578,
      "gang": 8579,
      "gaire": 8580,
      "gig": 8581,
      "gate": 8582,
      "gence": 8583,
      "gones": 8584,
      "gative": 8585,
      "grés": 8586,
      "hro": 8587,
      "hong": 8588,
      "hire": 8589,
      "hits": 8590,
      "hstan": 8591,
      "ius": 8592,
      "icon": 8593,
      "ires": 8594,
      "irent": 8595,
      "iated": 8596,
      "ibles": 8597,
      "ival": 8598,
      "iety": 8599,
      "iole": 8600,
      "jaz": 8601,
      "jum": 8602,
      "jban": 8603,
      "jandra": 8604,
      "ki": 8605,
      "kne": 8606,
      "kins": 8607,
      "kile": 8608,
      "kward": 8609,
      "lux": 8610,
      "lson": 8611,
      "lton": 8612,
      "lins": 8613,
      "laide": 8614,
      "lisez": 8615,
      "mai": 8616,
      "map": 8617,
      "mpl": 8618,
      "maire": 8619,
      "mation": 8620,
      "mig": 8621,
      "mite": 8622,
      "maux": 8623,
      "maid": 8624,
      "mence": 8625,
      "mass": 8626,
      "mbed": 8627,
      "miens": 8628,
      "maig": 8629,
      "mène": 8630,
      "maill": 8631,
      "mallows": 8632,
      "mension": 8633,
      "ng": 8634,
      "nas": 8635,
      "nar": 8636,
      "nai": 8637,
      "nul": 8638,
      "nmes": 8639,
      "nard": 8640,
      "nine": 8641,
      "nuis": 8642,
      "nité": 8643,
      "nami": 8644,
      "naux": 8645,
      "noun": 8646,
      "nick": 8647,
      "nages": 8648,
      "nail": 8649,
      "naise": 8650,
      "nails": 8651,
      "nagent": 8652,
      "naked": 8653,
      "nitude": 8654,
      "ox": 8655,
      "oï": 8656,
      "oes": 8657,
      "och": 8658,
      "ores": 8659,
      "oins": 8660,
      "opat": 8661,
      "oting": 8662,
      "olives": 8663,
      "oween": 8664,
      "ograp": 8665,
      "phe": 8666,
      "pse": 8667,
      "plo": 8668,
      "pter": 8669,
      "pont": 8670,
      "pted": 8671,
      "pair": 8672,
      "pint": 8673,
      "pture": 8674,
      "pages": 8675,
      "pinte": 8676,
      "panc": 8677,
      "ptive": 8678,
      "plies": 8679,
      "pitié": 8680,
      "pstick": 8681,
      "rô": 8682,
      "rall": 8683,
      "rure": 8684,
      "rine": 8685,
      "ront": 8686,
      "ruse": 8687,
      "rors": 8688,
      "rack": 8689,
      "ranger": 8690,
      "raient": 8691,
      "rass": 8692,
      "rush": 8693,
      "rural": 8694,
      "rablement": 8695,
      "sn": 8696,
      "sis": 8697,
      "sest": 8698,
      "ssais": 8699,
      "spa": 8700,
      "stru": 8701,
      "sits": 8702,
      "spy": 8703,
      "scri": 8704,
      "sank": 8705,
      "scold": 8706,
      "saine": 8707,
      "slight": 8708,
      "saie": 8709,
      "strip": 8710,
      "saper": 8711,
      "sira": 8712,
      "scru": 8713,
      "struc": 8714,
      "saurons": 8715,
      "tir": 8716,
      "ttre": 8717,
      "tét": 8718,
      "taire": 8719,
      "tation": 8720,
      "tici": 8721,
      "tack": 8722,
      "tact": 8723,
      "tester": 8724,
      "talis": 8725,
      "tables": 8726,
      "tira": 8727,
      "twel": 8728,
      "tiré": 8729,
      "ué": 8730,
      "uan": 8731,
      "ules": 8732,
      "ump": 8733,
      "uine": 8734,
      "uite": 8735,
      "uable": 8736,
      "uck": 8737,
      "ugle": 8738,
      "umérique": 8739,
      "vy": 8740,
      "vê": 8741,
      "vô": 8742,
      "vai": 8743,
      "vul": 8744,
      "vins": 8745,
      "vache": 8746,
      "vages": 8747,
      "vated": 8748,
      "wet": 8749,
      "wave": 8750,
      "ware": 8751,
      "wire": 8752,
      "wright": 8753,
      "wars": 8754,
      "wound": 8755,
      "waff": 8756,
      "yser": 8757,
      "ymar": 8758,
      "yens": 8759,
      "yach": 8760,
      "yaz": 8761,
      "yama": 8762,
      "yond": 8763,
      "yuan": 8764,
      "zen": 8765,
      "zing": 8766,
      "zart": 8767,
      "zaine": 8768,
      "zones": 8769,
      "zéro": 8770,
      "zero": 8771,
      "Élo": 8772,
      "Éter": 8773,
      "Éco": 8774,
      "Étant": 8775,
      "Écris": 8776,
      "ètres": 8777,
      "équ": 8778,
      "éch": 8779,
      "élé": 8780,
      "égé": 8781,
      "éru": 8782,
      "échar": 8783,
      "élire": 8784,
      "évite": 8785,
      "échant": 8786,
      "éreuse": 8787,
      "évidence": 8788,
      "épreuve": 8789,
      "écuter": 8790,
      "êle": 8791,
      "êpes": 8792,
      "îtres": 8793,
      "înmes": 8794,
      "ïs": 8795,
      "ïde": 8796,
      "ôta": 8797,
      "ôts": 8798,
      "ûte": 8799,
      "​​": 8800,
      "oub": 8801,
      "ouille": 8802,
      "ouillard": 8803,
      "rever": 8804,
      "remo": 8805,
      "redé": 8806,
      "reti": 8807,
      "remb": 8808,
      "recette": 8809,
      "repris": 8810,
      "refer": 8811,
      "react": 8812,
      "revien": 8813,
      "reriez": 8814,
      "rejet": 8815,
      "reprodu": 8816,
      "recommen": 8817,
      "reprise": 8818,
      "retired": 8819,
      "reuses": 8820,
      "reward": 8821,
      "rebelle": 8822,
      "retenir": 8823,
      "revenus": 8824,
      "recharge": 8825,
      "reconstru": 8826,
      "revolution": 8827,
      "relay": 8828,
      "représenter": 8829,
      "revenge": 8830,
      "retirer": 8831,
      "rebell": 8832,
      "recherches": 8833,
      "esch": 8834,
      "essu": 8835,
      "escor": 8836,
      "escla": 8837,
      "ongo": 8838,
      "onze": 8839,
      "onies": 8840,
      "onents": 8841,
      "onnaise": 8842,
      "onéreuse": 8843,
      "enr": 8844,
      "enor": 8845,
      "enver": 8846,
      "envo": 8847,
      "endis": 8848,
      "ented": 8849,
      "eness": 8850,
      "envis": 8851,
      "encre": 8852,
      "enious": 8853,
      "enrich": 8854,
      "engag": 8855,
      "ensuite": 8856,
      "enlève": 8857,
      "envelop": 8858,
      "ensole": 8859,
      "engrais": 8860,
      "encounter": 8861,
      "envy": 8862,
      "iser": 8863,
      "isure": 8864,
      "isation": 8865,
      "issa": 8866,
      "istration": 8867,
      "isirs": 8868,
      "ino": 8869,
      "intu": 8870,
      "inav": 8871,
      "inson": 8872,
      "inven": 8873,
      "inner": 8874,
      "inob": 8875,
      "insup": 8876,
      "insol": 8877,
      "incident": 8878,
      "initi": 8879,
      "inverse": 8880,
      "incapable": 8881,
      "insult": 8882,
      "inclus": 8883,
      "indépend": 8884,
      "injustice": 8885,
      "inutile": 8886,
      "indifférent": 8887,
      "infant": 8888,
      "invented": 8889,
      "infli": 8890,
      "height": 8891,
      "headed": 8892,
      "heels": 8893,
      "anz": 8894,
      "anou": 8895,
      "anno": 8896,
      "ancho": 8897,
      "anmar": 8898,
      "anions": 8899,
      "anches": 8900,
      "analo": 8901,
      "anthro": 8902,
      "erai": 8903,
      "eriez": 8904,
      "eria": 8905,
      "errat": 8906,
      "ervilles": 8907,
      "errors": 8908,
      "leva": 8909,
      "leaf": 8910,
      "leather": 8911,
      "lection": 8912,
      "levez": 8913,
      "levant": 8914,
      "levée": 8915,
      "leader": 8916,
      "leaped": 8917,
      "lexion": 8918,
      "lecture": 8919,
      "lefto": 8920,
      "leisure": 8921,
      "itz": 8922,
      "itée": 8923,
      "itation": 8924,
      "itate": 8925,
      "itake": 8926,
      "itations": 8927,
      "itution": 8928,
      "itrine": 8929,
      "aste": 8930,
      "asli": 8931,
      "aster": 8932,
      "asso": 8933,
      "asure": 8934,
      "asts": 8935,
      "astro": 8936,
      "asol": 8937,
      "aside": 8938,
      "aspect": 8939,
      "asaki": 8940,
      "deur": 8941,
      "deep": 8942,
      "deaf": 8943,
      "decent": 8944,
      "decl": 8945,
      "degre": 8946,
      "decla": 8947,
      "debate": 8948,
      "dette": 8949,
      "develo": 8950,
      "demeu": 8951,
      "demie": 8952,
      "defend": 8953,
      "devoted": 8954,
      "depressed": 8955,
      "debt": 8956,
      "degrés": 8957,
      "omac": 8958,
      "omach": 8959,
      "até": 8960,
      "athe": 8961,
      "atie": 8962,
      "ators": 8963,
      "athed": 8964,
      "atives": 8965,
      "attrape": 8966,
      "quis": 8967,
      "quie": 8968,
      "quaient": 8969,
      "quilles": 8970,
      "quées": 8971,
      "quillage": 8972,
      "arc": 8973,
      "arthe": 8974,
      "arse": 8975,
      "army": 8976,
      "arith": 8977,
      "armes": 8978,
      "arrest": 8979,
      "arded": 8980,
      "aries": 8981,
      "arna": 8982,
      "argue": 8983,
      "arian": 8984,
      "arades": 8985,
      "archers": 8986,
      "artificial": 8987,
      "toe": 8988,
      "tos": 8989,
      "tox": 8990,
      "toy": 8991,
      "tower": 8992,
      "tocks": 8993,
      "neck": 8994,
      "negative": 8995,
      "vember": 8996,
      "vembre": 8997,
      "orc": 8998,
      "oras": 8999,
      "orus": 9000,
      "orée": 9001,
      "orient": 9002,
      "orgue": 9003,
      "ordonna": 9004,
      "orbite": 9005,
      "ordonn": 9006,
      "theless": 9007,
      "theatre": 9008,
      "sees": 9009,
      "sein": 9010,
      "seau": 9011,
      "seld": 9012,
      "seille": 9013,
      "seins": 9014,
      "semi": 9015,
      "seyez": 9016,
      "seller": 9017,
      "seigner": 9018,
      "seeds": 9019,
      "seventy": 9020,
      "aic": 9021,
      "aibli": 9022,
      "aims": 9023,
      "ailed": 9024,
      "tead": 9025,
      "tels": 9026,
      "teering": 9027,
      "mere": 9028,
      "mely": 9029,
      "meeny": 9030,
      "entich": 9031,
      "thy": 9032,
      "thus": 9033,
      "lah": 9034,
      "laine": 9035,
      "lamis": 9036,
      "layer": 9037,
      "lavage": 9038,
      "lavés": 9039,
      "laïde": 9040,
      "llo": 9041,
      "cel": 9042,
      "cell": 9043,
      "ceaux": 9044,
      "esté": 9045,
      "estable": 9046,
      "estomac": 9047,
      "ingre": 9048,
      "inging": 9049,
      "ingré": 9050,
      "ingén": 9051,
      "ingenious": 9052,
      "quefort": 9053,
      "passes": 9054,
      "passing": 9055,
      "passera": 9056,
      "chil": 9057,
      "chim": 9058,
      "chain": 9059,
      "chink": 9060,
      "chés": 9061,
      "chande": 9062,
      "chutes": 9063,
      "chères": 9064,
      "chland": 9065,
      "chute": 9066,
      "chunk": 9067,
      "chèque": 9068,
      "chief": 9069,
      "chrét": 9070,
      "audi": 9071,
      "auves": 9072,
      "ilar": 9073,
      "ilia": 9074,
      "ilip": 9075,
      "ilissa": 9076,
      "trin": 9077,
      "trac": 9078,
      "trig": 9079,
      "truis": 9080,
      "trif": 9081,
      "track": 9082,
      "trône": 9083,
      "ung": 9084,
      "unt": 9085,
      "unami": 9086,
      "uncomfortable": 9087,
      "unhealthy": 9088,
      "unpleasant": 9089,
      "aison": 9090,
      "aisée": 9091,
      "aisance": 9092,
      "aissent": 9093,
      "aissez": 9094,
      "ourg": 9095,
      "ourne": 9096,
      "ourser": 9097,
      "noter": 9098,
      "novembre": 9099,
      "liar": 9100,
      "liens": 9101,
      "limit": 9102,
      "libres": 9103,
      "limous": 9104,
      "lichée": 9105,
      "limite": 9106,
      "user": 9107,
      "usions": 9108,
      "ustrop": 9109,
      "rix": 9110,
      "rious": 9111,
      "riment": 9112,
      "riens": 9113,
      "rives": 9114,
      "riot": 9115,
      "rival": 9116,
      "rifle": 9117,
      "ricia": 9118,
      "sume": 9119,
      "sulf": 9120,
      "supé": 9121,
      "suffe": 9122,
      "subir": 9123,
      "sucré": 9124,
      "suyama": 9125,
      "bec": 9126,
      "bee": 9127,
      "bead": 9128,
      "beard": 9129,
      "behaving": 9130,
      "roe": 9131,
      "roir": 9132,
      "roast": 9133,
      "root": 9134,
      "ropes": 9135,
      "robin": 9136,
      "robuste": 9137,
      "roquefort": 9138,
      "antici": 9139,
      "alé": 9140,
      "alas": 9141,
      "algé": 9142,
      "aliste": 9143,
      "alert": 9144,
      "algiques": 9145,
      "altruis": 9146,
      "aveugle": 9147,
      "irais": 9148,
      "irait": 9149,
      "irrel": 9150,
      "irregular": 9151,
      "tues": 9152,
      "tube": 9153,
      "tués": 9154,
      "tuber": 9155,
      "dif": 9156,
      "dié": 9157,
      "dien": 9158,
      "diat": 9159,
      "dique": 9160,
      "dimin": 9161,
      "dives": 9162,
      "diriez": 9163,
      "diary": 9164,
      "dictions": 9165,
      "dibly": 9166,
      "diagon": 9167,
      "dimension": 9168,
      "dotes": 9169,
      "dotée": 9170,
      "pection": 9171,
      "peindre": 9172,
      "pects": 9173,
      "ionne": 9174,
      "verb": 9175,
      "verbe": 9176,
      "versé": 9177,
      "verdict": 9178,
      "ames": 9179,
      "amant": 9180,
      "amic": 9181,
      "amoun": 9182,
      "ampa": 9183,
      "amused": 9184,
      "ammed": 9185,
      "amateurs": 9186,
      "ampoule": 9187,
      "sti": 9188,
      "ster": 9189,
      "stam": 9190,
      "stall": 9191,
      "stim": 9192,
      "stare": 9193,
      "stable": 9194,
      "stations": 9195,
      "stances": 9196,
      "stade": 9197,
      "stamp": 9198,
      "stacked": 9199,
      "stomach": 9200,
      "andouille": 9201,
      "trefois": 9202,
      "treats": 9203,
      "treize": 9204,
      "llet": 9205,
      "eday": 9206,
      "edge": 9207,
      "outer": 9208,
      "outils": 9209,
      "output": 9210,
      "mental": 9211,
      "Their": 9212,
      "apte": 9213,
      "appla": 9214,
      "apporte": 9215,
      "appu": 9216,
      "approuve": 9217,
      "aphro": 9218,
      "mob": 9219,
      "moe": 9220,
      "moto": 9221,
      "moque": 9222,
      "mody": 9223,
      "moves": 9224,
      "motor": 9225,
      "motel": 9226,
      "mosqu": 9227,
      "modèle": 9228,
      "allu": 9229,
      "allant": 9230,
      "allions": 9231,
      "acé": 9232,
      "acro": 9233,
      "acqui": 9234,
      "acid": 9235,
      "access": 9236,
      "acron": 9237,
      "account": 9238,
      "actrice": 9239,
      "acquérir": 9240,
      "actress": 9241,
      "acasli": 9242,
      "loan": 9243,
      "loving": 9244,
      "loop": 9245,
      "location": 9246,
      "located": 9247,
      "loisirs": 9248,
      "pari": 9249,
      "paran": 9250,
      "pardon": 9251,
      "parten": 9252,
      "parlais": 9253,
      "parcour": 9254,
      "parfu": 9255,
      "parach": 9256,
      "parvenir": 9257,
      "parvenu": 9258,
      "pardonné": 9259,
      "parlons": 9260,
      "parasol": 9261,
      "ags": 9262,
      "agan": 9263,
      "aging": 9264,
      "agré": 9265,
      "agers": 9266,
      "agnes": 9267,
      "agissait": 9268,
      "agoras": 9269,
      "fortes": 9270,
      "forman": 9271,
      "former": 9272,
      "forty": 9273,
      "fortement": 9274,
      "forgetting": 9275,
      "forgiven": 9276,
      "forcée": 9277,
      "compré": 9278,
      "comments": 9279,
      "compensé": 9280,
      "compromise": 9281,
      "commission": 9282,
      "comportent": 9283,
      "compelled": 9284,
      "combust": 9285,
      "imple": 9286,
      "immor": 9287,
      "impat": 9288,
      "imbé": 9289,
      "impoli": 9290,
      "immort": 9291,
      "imparti": 9292,
      "improbable": 9293,
      "imals": 9294,
      "rented": 9295,
      "rendit": 9296,
      "rentres": 9297,
      "rendrai": 9298,
      "rencard": 9299,
      "éty": 9300,
      "étou": 9301,
      "étant": 9302,
      "étonné": 9303,
      "unemp": 9304,
      "uneasy": 9305,
      "urin": 9306,
      "urday": 9307,
      "condo": 9308,
      "conver": 9309,
      "conven": 9310,
      "condit": 9311,
      "contrain": 9312,
      "conques": 9313,
      "contra": 9314,
      "conform": 9315,
      "condom": 9316,
      "conference": 9317,
      "conjug": 9318,
      "adé": 9319,
      "adres": 9320,
      "adul": 9321,
      "aduis": 9322,
      "admin": 9323,
      "advent": 9324,
      "advers": 9325,
      "admets": 9326,
      "aines": 9327,
      "keeper": 9328,
      "ieuse": 9329,
      "iels": 9330,
      "ieving": 9331,
      "ieusement": 9332,
      "icé": 9333,
      "icher": 9334,
      "icien": 9335,
      "ically": 9336,
      "ichel": 9337,
      "icace": 9338,
      "icots": 9339,
      "jean": 9340,
      "jection": 9341,
      "hated": 9342,
      "goo": 9343,
      "gov": 9344,
      "golf": 9345,
      "gosla": 9346,
      "gosse": 9347,
      "abdu": 9348,
      "absente": 9349,
      "absence": 9350,
      "prêtre": 9351,
      "prouvez": 9352,
      "prince": 9353,
      "praise": 9354,
      "sonné": 9355,
      "pox": 9356,
      "posa": 9357,
      "poses": 9358,
      "pointe": 9359,
      "polog": 9360,
      "poèmes": 9361,
      "poker": 9362,
      "poitrine": 9363,
      "respl": 9364,
      "resident": 9365,
      "rescue": 9366,
      "terais": 9367,
      "terres": 9368,
      "termes": 9369,
      "terrest": 9370,
      "terrain": 9371,
      "terfuck": 9372,
      "terror": 9373,
      "voque": 9374,
      "voici": 9375,
      "voleurs": 9376,
      "wasted": 9377,
      "déch": 9378,
      "déso": 9379,
      "déser": 9380,
      "dépla": 9381,
      "désh": 9382,
      "déses": 9383,
      "dépré": 9384,
      "dépense": 9385,
      "dévis": 9386,
      "décour": 9387,
      "déput": 9388,
      "dérou": 9389,
      "dépassé": 9390,
      "défau": 9391,
      "défini": 9392,
      "dégag": 9393,
      "décourage": 9394,
      "dépenser": 9395,
      "démission": 9396,
      "défaite": 9397,
      "défie": 9398,
      "dépit": 9399,
      "démocr": 9400,
      "décès": 9401,
      "areas": 9402,
      "areth": 9403,
      "answers": 9404,
      "Hey": 9405,
      "Heure": 9406,
      "Health": 9407,
      "Hello": 9408,
      "weld": 9409,
      "hop": 9410,
      "hook": 9411,
      "hoop": 9412,
      "holic": 9413,
      "hockey": 9414,
      "sia": 9415,
      "sibles": 9416,
      "Young": 9417,
      "sow": 9418,
      "sobre": 9419,
      "soient": 9420,
      "soigne": 9421,
      "socks": 9422,
      "solide": 9423,
      "plé": 9424,
      "plong": 9425,
      "plats": 9426,
      "plaig": 9427,
      "plates": 9428,
      "plash": 9429,
      "plural": 9430,
      "plorable": 9431,
      "duo": 9432,
      "dures": 9433,
      "duck": 9434,
      "dumb": 9435,
      "durent": 9436,
      "dumber": 9437,
      "ghted": 9438,
      "hers": 9439,
      "herbe": 9440,
      "pourrions": 9441,
      "poursuivre": 9442,
      "poursuivi": 9443,
      "code": 9444,
      "coce": 9445,
      "colo": 9446,
      "cock": 9447,
      "copy": 9448,
      "desig": 9449,
      "dessous": 9450,
      "designers": 9451,
      "dessins": 9452,
      "pendu": 9453,
      "pencha": 9454,
      "pensée": 9455,
      "tip": 9456,
      "tiest": 9457,
      "tiques": 9458,
      "tigre": 9459,
      "nowhere": 9460,
      "iente": 9461,
      "fellow": 9462,
      "feeding": 9463,
      "female": 9464,
      "ills": 9465,
      "illu": 9466,
      "illée": 9467,
      "illégal": 9468,
      "illusion": 9469,
      "illusions": 9470,
      "prose": 9471,
      "proven": 9472,
      "procé": 9473,
[...]
